FANN_FLO_2.1
num_layers=6
learning_rate=0.700000
connection_rate=1.000000
network_type=0
learning_momentum=0.000000
training_algorithm=3
train_error_function=1
train_stop_function=0
cascade_output_change_fraction=0.010000
quickprop_decay=-0.000100
quickprop_mu=1.750000
rprop_increase_factor=1.200000
rprop_decrease_factor=0.500000
rprop_delta_min=0.000000
rprop_delta_max=50.000000
rprop_delta_zero=0.100000
cascade_output_stagnation_epochs=12
cascade_candidate_change_fraction=0.010000
cascade_candidate_stagnation_epochs=12
cascade_max_out_epochs=150
cascade_min_out_epochs=50
cascade_max_cand_epochs=150
cascade_min_cand_epochs=50
cascade_num_candidate_groups=2
bit_fail_limit=3.49999994039535522461e-01
cascade_candidate_limit=1.00000000000000000000e+03
cascade_weight_multiplier=4.00000005960464477539e-01
cascade_activation_functions_count=10
cascade_activation_functions=3 5 7 8 10 11 14 15 16 17 
cascade_activation_steepnesses_count=4
cascade_activation_steepnesses=2.50000000000000000000e-01 5.00000000000000000000e-01 7.50000000000000000000e-01 1.00000000000000000000e+00 
layer_sizes=31 35 41 61 48 55 
scale_included=0
neurons (num_inputs, activation_function, activation_steepness)=(0, 0, 0.00000000000000000000e+00) (0, 0, 0.00000000000000000000e+00) (0, 0, 0.00000000000000000000e+00) (0, 0, 0.00000000000000000000e+00) (0, 0, 0.00000000000000000000e+00) (0, 0, 0.00000000000000000000e+00) (0, 0, 0.00000000000000000000e+00) (0, 0, 0.00000000000000000000e+00) (0, 0, 0.00000000000000000000e+00) (0, 0, 0.00000000000000000000e+00) (0, 0, 0.00000000000000000000e+00) (0, 0, 0.00000000000000000000e+00) (0, 0, 0.00000000000000000000e+00) (0, 0, 0.00000000000000000000e+00) (0, 0, 0.00000000000000000000e+00) (0, 0, 0.00000000000000000000e+00) (0, 0, 0.00000000000000000000e+00) (0, 0, 0.00000000000000000000e+00) (0, 0, 0.00000000000000000000e+00) (0, 0, 0.00000000000000000000e+00) (0, 0, 0.00000000000000000000e+00) (0, 0, 0.00000000000000000000e+00) (0, 0, 0.00000000000000000000e+00) (0, 0, 0.00000000000000000000e+00) (0, 0, 0.00000000000000000000e+00) (0, 0, 0.00000000000000000000e+00) (0, 0, 0.00000000000000000000e+00) (0, 0, 0.00000000000000000000e+00) (0, 0, 0.00000000000000000000e+00) (0, 0, 0.00000000000000000000e+00) (0, 0, 0.00000000000000000000e+00) (31, 11, 3.40000003576278686523e-01) (31, 11, 3.40000003576278686523e-01) (31, 11, 3.40000003576278686523e-01) (31, 11, 3.40000003576278686523e-01) (31, 11, 3.40000003576278686523e-01) (31, 11, 3.40000003576278686523e-01) (31, 11, 3.40000003576278686523e-01) (31, 11, 3.40000003576278686523e-01) (31, 11, 3.40000003576278686523e-01) (31, 11, 3.40000003576278686523e-01) (31, 11, 3.40000003576278686523e-01) (31, 11, 3.40000003576278686523e-01) (31, 11, 3.40000003576278686523e-01) (31, 11, 3.40000003576278686523e-01) (31, 11, 3.40000003576278686523e-01) (31, 11, 3.40000003576278686523e-01) (31, 11, 3.40000003576278686523e-01) (31, 11, 3.40000003576278686523e-01) (31, 11, 3.40000003576278686523e-01) (31, 11, 3.40000003576278686523e-01) (31, 11, 3.40000003576278686523e-01) (31, 11, 3.40000003576278686523e-01) (31, 11, 3.40000003576278686523e-01) (31, 11, 3.40000003576278686523e-01) (31, 11, 3.40000003576278686523e-01) (31, 11, 3.40000003576278686523e-01) (31, 11, 3.40000003576278686523e-01) (31, 11, 3.40000003576278686523e-01) (31, 11, 3.40000003576278686523e-01) (31, 11, 3.40000003576278686523e-01) (31, 11, 3.40000003576278686523e-01) (31, 11, 3.40000003576278686523e-01) (31, 11, 3.40000003576278686523e-01) (31, 11, 3.40000003576278686523e-01) (0, 11, 3.40000003576278686523e-01) (35, 11, 3.00000011920928955078e-01) (35, 11, 3.00000011920928955078e-01) (35, 11, 3.00000011920928955078e-01) (35, 11, 3.00000011920928955078e-01) (35, 11, 3.00000011920928955078e-01) (35, 11, 3.00000011920928955078e-01) (35, 11, 3.00000011920928955078e-01) (35, 11, 3.00000011920928955078e-01) (35, 11, 3.00000011920928955078e-01) (35, 11, 3.00000011920928955078e-01) (35, 11, 3.00000011920928955078e-01) (35, 11, 3.00000011920928955078e-01) (35, 11, 3.00000011920928955078e-01) (35, 11, 3.00000011920928955078e-01) (35, 11, 3.00000011920928955078e-01) (35, 11, 3.00000011920928955078e-01) (35, 11, 3.00000011920928955078e-01) (35, 11, 3.00000011920928955078e-01) (35, 11, 3.00000011920928955078e-01) (35, 11, 3.00000011920928955078e-01) (35, 11, 3.00000011920928955078e-01) (35, 11, 3.00000011920928955078e-01) (35, 11, 3.00000011920928955078e-01) (35, 11, 3.00000011920928955078e-01) (35, 11, 3.00000011920928955078e-01) (35, 11, 3.00000011920928955078e-01) (35, 11, 3.00000011920928955078e-01) (35, 11, 3.00000011920928955078e-01) (35, 11, 3.00000011920928955078e-01) (35, 11, 3.00000011920928955078e-01) (35, 11, 3.00000011920928955078e-01) (35, 11, 3.00000011920928955078e-01) (35, 11, 3.00000011920928955078e-01) (35, 11, 3.00000011920928955078e-01) (35, 11, 3.00000011920928955078e-01) (35, 11, 3.00000011920928955078e-01) (35, 11, 3.00000011920928955078e-01) (35, 11, 3.00000011920928955078e-01) (35, 11, 3.00000011920928955078e-01) (35, 11, 3.00000011920928955078e-01) (0, 11, 3.00000011920928955078e-01) (41, 11, 5.00000000000000000000e-01) (41, 11, 5.00000000000000000000e-01) (41, 11, 5.00000000000000000000e-01) (41, 11, 5.00000000000000000000e-01) (41, 11, 5.00000000000000000000e-01) (41, 11, 5.00000000000000000000e-01) (41, 11, 5.00000000000000000000e-01) (41, 11, 5.00000000000000000000e-01) (41, 11, 5.00000000000000000000e-01) (41, 11, 5.00000000000000000000e-01) (41, 11, 5.00000000000000000000e-01) (41, 11, 5.00000000000000000000e-01) (41, 11, 5.00000000000000000000e-01) (41, 11, 5.00000000000000000000e-01) (41, 11, 5.00000000000000000000e-01) (41, 11, 5.00000000000000000000e-01) (41, 11, 5.00000000000000000000e-01) (41, 11, 5.00000000000000000000e-01) (41, 11, 5.00000000000000000000e-01) (41, 11, 5.00000000000000000000e-01) (41, 11, 5.00000000000000000000e-01) (41, 11, 5.00000000000000000000e-01) (41, 11, 5.00000000000000000000e-01) (41, 11, 5.00000000000000000000e-01) (41, 11, 5.00000000000000000000e-01) (41, 11, 5.00000000000000000000e-01) (41, 11, 5.00000000000000000000e-01) (41, 11, 5.00000000000000000000e-01) (41, 11, 5.00000000000000000000e-01) (41, 11, 5.00000000000000000000e-01) (41, 11, 5.00000000000000000000e-01) (41, 11, 5.00000000000000000000e-01) (41, 11, 5.00000000000000000000e-01) (41, 11, 5.00000000000000000000e-01) (41, 11, 5.00000000000000000000e-01) (41, 11, 5.00000000000000000000e-01) (41, 11, 5.00000000000000000000e-01) (41, 11, 5.00000000000000000000e-01) (41, 11, 5.00000000000000000000e-01) (41, 11, 5.00000000000000000000e-01) (41, 11, 5.00000000000000000000e-01) (41, 11, 5.00000000000000000000e-01) (41, 11, 5.00000000000000000000e-01) (41, 11, 5.00000000000000000000e-01) (41, 11, 5.00000000000000000000e-01) (41, 11, 5.00000000000000000000e-01) (41, 11, 5.00000000000000000000e-01) (41, 11, 5.00000000000000000000e-01) (41, 11, 5.00000000000000000000e-01) (41, 11, 5.00000000000000000000e-01) (41, 11, 5.00000000000000000000e-01) (41, 11, 5.00000000000000000000e-01) (41, 11, 5.00000000000000000000e-01) (41, 11, 5.00000000000000000000e-01) (41, 11, 5.00000000000000000000e-01) (41, 11, 5.00000000000000000000e-01) (41, 11, 5.00000000000000000000e-01) (41, 11, 5.00000000000000000000e-01) (41, 11, 5.00000000000000000000e-01) (41, 11, 5.00000000000000000000e-01) (0, 11, 5.00000000000000000000e-01) (61, 11, 3.40000003576278686523e-01) (61, 11, 3.40000003576278686523e-01) (61, 11, 3.40000003576278686523e-01) (61, 11, 3.40000003576278686523e-01) (61, 11, 3.40000003576278686523e-01) (61, 11, 3.40000003576278686523e-01) (61, 11, 3.40000003576278686523e-01) (61, 11, 3.40000003576278686523e-01) (61, 11, 3.40000003576278686523e-01) (61, 11, 3.40000003576278686523e-01) (61, 11, 3.40000003576278686523e-01) (61, 11, 3.40000003576278686523e-01) (61, 11, 3.40000003576278686523e-01) (61, 11, 3.40000003576278686523e-01) (61, 11, 3.40000003576278686523e-01) (61, 11, 3.40000003576278686523e-01) (61, 11, 3.40000003576278686523e-01) (61, 11, 3.40000003576278686523e-01) (61, 11, 3.40000003576278686523e-01) (61, 11, 3.40000003576278686523e-01) (61, 11, 3.40000003576278686523e-01) (61, 11, 3.40000003576278686523e-01) (61, 11, 3.40000003576278686523e-01) (61, 11, 3.40000003576278686523e-01) (61, 11, 3.40000003576278686523e-01) (61, 11, 3.40000003576278686523e-01) (61, 11, 3.40000003576278686523e-01) (61, 11, 3.40000003576278686523e-01) (61, 11, 3.40000003576278686523e-01) (61, 11, 3.40000003576278686523e-01) (61, 11, 3.40000003576278686523e-01) (61, 11, 3.40000003576278686523e-01) (61, 11, 3.40000003576278686523e-01) (61, 11, 3.40000003576278686523e-01) (61, 11, 3.40000003576278686523e-01) (61, 11, 3.40000003576278686523e-01) (61, 11, 3.40000003576278686523e-01) (61, 11, 3.40000003576278686523e-01) (61, 11, 3.40000003576278686523e-01) (61, 11, 3.40000003576278686523e-01) (61, 11, 3.40000003576278686523e-01) (61, 11, 3.40000003576278686523e-01) (61, 11, 3.40000003576278686523e-01) (61, 11, 3.40000003576278686523e-01) (61, 11, 3.40000003576278686523e-01) (61, 11, 3.40000003576278686523e-01) (61, 11, 3.40000003576278686523e-01) (0, 11, 3.40000003576278686523e-01) (48, 11, 3.40000003576278686523e-01) (48, 11, 3.40000003576278686523e-01) (48, 11, 3.40000003576278686523e-01) (48, 11, 3.40000003576278686523e-01) (48, 11, 3.40000003576278686523e-01) (48, 11, 3.40000003576278686523e-01) (48, 11, 3.40000003576278686523e-01) (48, 11, 3.40000003576278686523e-01) (48, 11, 3.40000003576278686523e-01) (48, 11, 3.40000003576278686523e-01) (48, 11, 3.40000003576278686523e-01) (48, 11, 3.40000003576278686523e-01) (48, 11, 3.40000003576278686523e-01) (48, 11, 3.40000003576278686523e-01) (48, 11, 3.40000003576278686523e-01) (48, 11, 3.40000003576278686523e-01) (48, 11, 3.40000003576278686523e-01) (48, 11, 3.40000003576278686523e-01) (48, 11, 3.40000003576278686523e-01) (48, 11, 3.40000003576278686523e-01) (48, 11, 3.40000003576278686523e-01) (48, 11, 3.40000003576278686523e-01) (48, 11, 3.40000003576278686523e-01) (48, 11, 3.40000003576278686523e-01) (48, 11, 3.40000003576278686523e-01) (48, 11, 3.40000003576278686523e-01) (48, 11, 3.40000003576278686523e-01) (48, 11, 3.40000003576278686523e-01) (48, 11, 3.40000003576278686523e-01) (48, 11, 3.40000003576278686523e-01) (48, 11, 3.40000003576278686523e-01) (48, 11, 3.40000003576278686523e-01) (48, 11, 3.40000003576278686523e-01) (48, 11, 3.40000003576278686523e-01) (48, 11, 3.40000003576278686523e-01) (48, 11, 3.40000003576278686523e-01) (48, 11, 3.40000003576278686523e-01) (48, 11, 3.40000003576278686523e-01) (48, 11, 3.40000003576278686523e-01) (48, 11, 3.40000003576278686523e-01) (48, 11, 3.40000003576278686523e-01) (48, 11, 3.40000003576278686523e-01) (48, 11, 3.40000003576278686523e-01) (48, 11, 3.40000003576278686523e-01) (48, 11, 3.40000003576278686523e-01) (48, 11, 3.40000003576278686523e-01) (48, 11, 3.40000003576278686523e-01) (48, 11, 3.40000003576278686523e-01) (48, 11, 3.40000003576278686523e-01) (48, 11, 3.40000003576278686523e-01) (48, 11, 3.40000003576278686523e-01) (48, 11, 3.40000003576278686523e-01) (48, 11, 3.40000003576278686523e-01) (48, 11, 3.40000003576278686523e-01) (0, 11, 3.40000003576278686523e-01) 
connections (connected_to_neuron, weight)=(0, -9.08810675144195556641e-01) (1, -4.51163291931152343750e-01) (2, -1.02133564651012420654e-01) (3, -6.59114718437194824219e-01) (4, -7.41467922925949096680e-02) (5, -9.48781967163085937500e-01) (6, 1.06284451484680175781e+00) (7, 5.00978171825408935547e-01) (8, -1.10492074489593505859e+00) (9, -8.82163524627685546875e-01) (10, 1.48923265933990478516e+00) (11, 4.47937935590744018555e-01) (12, 4.89586114883422851562e-01) (13, 1.44342929124832153320e-01) (14, -1.00083127617835998535e-01) (15, -7.48468816280364990234e-01) (16, -7.39582836627960205078e-01) (17, 2.55892336368560791016e-01) (18, 2.31723397970199584961e-01) (19, 1.15684866905212402344e+00) (20, 1.00916314125061035156e+00) (21, 2.96136796474456787109e-01) (22, 9.92400199174880981445e-02) (23, -9.05032336711883544922e-01) (24, 1.33743330836296081543e-01) (25, -8.57312798500061035156e-01) (26, 8.59298944473266601562e-01) (27, -3.52020680904388427734e-01) (28, -1.31459188461303710938e+00) (29, 7.92611688375473022461e-02) (30, 1.20841979980468750000e+00) (0, 1.18831920623779296875e+00) (1, 2.84573316574096679688e-01) (2, -3.25681000947952270508e-01) (3, -9.51407663524150848389e-03) (4, -1.17368328571319580078e+00) (5, -2.42077708244323730469e-01) (6, -1.62600290775299072266e+00) (7, -9.29080367088317871094e-01) (8, 2.63090550899505615234e-01) (9, 1.02810323238372802734e+00) (10, -6.02564334869384765625e-01) (11, -8.23526456952095031738e-02) (12, -3.80014896392822265625e-01) (13, 8.03019046783447265625e-01) (14, 1.03624737262725830078e+00) (15, 2.17678472399711608887e-01) (16, 7.20817267894744873047e-01) (17, -2.92602002620697021484e-01) (18, -9.27674591541290283203e-01) (19, -1.05099387466907501221e-01) (20, 1.52252420783042907715e-01) (21, 3.42696845531463623047e-01) (22, 8.79983782768249511719e-01) (23, 1.16303336620330810547e+00) (24, -2.69133955240249633789e-01) (25, 1.16377401351928710938e+00) (26, 8.07810723781585693359e-01) (27, -1.60284650325775146484e+00) (28, -2.30233162641525268555e-01) (29, -3.00546824932098388672e-01) (30, -3.22262811660766601562e+00) (0, 1.53534245491027832031e+00) (1, 8.10371100902557373047e-01) (2, 5.49642264842987060547e-01) (3, 6.71825349330902099609e-01) (4, -1.07439853250980377197e-01) (5, 1.00329899787902832031e+00) (6, -5.51122188568115234375e-01) (7, -6.84233844280242919922e-01) (8, 1.40990152955055236816e-01) (9, 1.86728048324584960938e+00) (10, -8.50477516651153564453e-01) (11, -1.02580830454826354980e-01) (12, 3.87276381254196166992e-01) (13, -2.11202591657638549805e-01) (14, 1.85991311073303222656e+00) (15, 1.27356314659118652344e+00) (16, -9.75150093436241149902e-02) (17, 5.40390372276306152344e-01) (18, -3.49353134632110595703e-01) (19, -1.90630888938903808594e+00) (20, -7.93844819068908691406e-01) (21, 6.72122895717620849609e-01) (22, -2.10341706871986389160e-01) (23, 6.35328114032745361328e-01) (24, 1.13659024238586425781e+00) (25, 9.40047442913055419922e-01) (26, -6.12585581839084625244e-02) (27, 1.31431579589843750000e+00) (28, 1.70533549785614013672e+00) (29, 1.00232636928558349609e+00) (30, -1.34868979454040527344e-01) (0, 2.80232131481170654297e-01) (1, -3.23537856340408325195e-01) (2, -2.44247436523437500000e-01) (3, 2.45006792247295379639e-02) (4, -3.72517436742782592773e-01) (5, 8.60938251018524169922e-01) (6, -2.09272480010986328125e+00) (7, -1.26576447486877441406e+00) (8, 7.55345880985260009766e-01) (9, 2.73962706327438354492e-01) (10, -1.58464610576629638672e+00) (11, -7.35692530870437622070e-02) (12, -3.21577310562133789062e-01) (13, -5.29080450534820556641e-01) (14, 2.13606998324394226074e-01) (15, 4.52640771865844726562e-01) (16, 1.31375479698181152344e+00) (17, 3.11828434467315673828e-01) (18, -8.16582798957824707031e-01) (19, -1.09564900398254394531e+00) (20, -2.56971299648284912109e-01) (21, 6.73999428749084472656e-01) (22, -3.23411136865615844727e-01) (23, 6.71970605850219726562e-01) (24, 6.94316864013671875000e-01) (25, 1.22020292282104492188e+00) (26, 1.75442725419998168945e-01) (27, 1.54903143644332885742e-01) (28, -1.20245881378650665283e-01) (29, -1.20566415786743164062e+00) (30, -8.13468933105468750000e-01) (0, -1.16902923583984375000e+00) (1, 5.05716979503631591797e-01) (2, 2.84591495990753173828e-01) (3, 3.06189250946044921875e+00) (4, 2.95431447029113769531e+00) (5, -5.83614587783813476562e-01) (6, 4.97748851776123046875e+00) (7, 2.69698286056518554688e+00) (8, -2.05000281333923339844e+00) (9, -6.62657022476196289062e-02) (10, 1.32155203819274902344e+00) (11, -3.16815304756164550781e+00) (12, 3.94357991218566894531e+00) (13, -4.41514793783426284790e-03) (14, -3.13520646095275878906e+00) (15, -2.09238719940185546875e+00) (16, -4.29110586643218994141e-01) (17, 1.32556223869323730469e+00) (18, 2.90757966041564941406e+00) (19, 1.51629447937011718750e+00) (20, 1.84156191349029541016e+00) (21, 4.50468033552169799805e-01) (22, -2.73396253585815429688e-01) (23, 2.18604952096939086914e-01) (24, 1.08592748641967773438e+00) (25, -1.82117998600006103516e+00) (26, -1.72784173488616943359e+00) (27, -6.98574304580688476562e-01) (28, -3.97361469268798828125e+00) (29, -2.42608094215393066406e+00) (30, 2.73041415214538574219e+00) (0, 2.33023405075073242188e-01) (1, -4.08660948276519775391e-01) (2, -4.34618175029754638672e-01) (3, -3.41720312833786010742e-01) (4, -5.32685875892639160156e-01) (5, 4.74517107009887695312e-01) (6, -2.34661436080932617188e+00) (7, -8.74468982219696044922e-01) (8, 1.11628866195678710938e+00) (9, 1.97412595152854919434e-01) (10, -1.47069752216339111328e+00) (11, 2.52410262823104858398e-01) (12, -3.28121632337570190430e-02) (13, 4.44892048835754394531e-01) (14, 3.53420943021774291992e-01) (15, 2.66854190826416015625e+00) (16, 1.55583333969116210938e+00) (17, 6.63399636745452880859e-01) (18, -5.47009229660034179688e-01) (19, -2.63573437929153442383e-01) (20, 3.25712919235229492188e-01) (21, -1.32529705762863159180e-01) (22, 5.77837109565734863281e-01) (23, 2.39678335189819335938e+00) (24, 9.74460482597351074219e-01) (25, 4.59891796112060546875e-01) (26, 3.05811226367950439453e-01) (27, -1.16136085987091064453e+00) (28, -7.32297539710998535156e-01) (29, -3.32159042358398437500e-01) (30, -2.41804599761962890625e+00) (0, -1.03114259243011474609e+00) (1, -4.17172878980636596680e-01) (2, -7.14775562286376953125e-01) (3, 1.76909178495407104492e-01) (4, -7.75863900780677795410e-02) (5, -5.40555059909820556641e-01) (6, 2.42646670341491699219e+00) (7, 8.18145632743835449219e-01) (8, 2.68289595842361450195e-01) (9, 3.73980253934860229492e-01) (10, 8.89154374599456787109e-01) (11, 9.64586555957794189453e-01) (12, 1.44678092002868652344e+00) (13, 4.81238603591918945312e-01) (14, -1.61197829246520996094e+00) (15, -2.00799012184143066406e+00) (16, -3.32752466201782226562e-01) (17, 1.57651185989379882812e-01) (18, 7.13871777057647705078e-01) (19, 9.44054663181304931641e-01) (20, -2.55016148090362548828e-01) (21, -3.00118830054998397827e-02) (22, -1.69180226325988769531e+00) (23, -4.19136571884155273438e+00) (24, 1.18288767337799072266e+00) (25, -1.26857414841651916504e-01) (26, -1.30361616611480712891e+00) (27, 1.38862095773220062256e-02) (28, 6.47713780403137207031e-01) (29, 1.61283284425735473633e-01) (30, 2.66498947143554687500e+00) (0, 3.12090587615966796875e+00) (1, 1.93803882598876953125e+00) (2, 1.55147063732147216797e+00) (3, 6.01668298244476318359e-01) (4, -1.00654385983943939209e-01) (5, 8.97275984287261962891e-01) (6, -8.66360008716583251953e-01) (7, -1.40483164787292480469e+00) (8, -1.23985874652862548828e+00) (9, 8.31724882125854492188e-01) (10, -1.24865174293518066406e+00) (11, -1.70127761363983154297e+00) (12, -5.20376503467559814453e-01) (13, -1.05341568589210510254e-01) (14, 2.80771183967590332031e+00) (15, 2.55694627761840820312e+00) (16, 1.25395834445953369141e+00) (17, 5.58304488658905029297e-01) (18, -1.29007053375244140625e+00) (19, -1.18682253360748291016e+00) (20, 9.56184387207031250000e-01) (21, 1.00339226424694061279e-01) (22, 4.43463951349258422852e-01) (23, 2.03315567970275878906e+00) (24, -1.67929723858833312988e-01) (25, -4.48608309030532836914e-01) (26, -4.12570983171463012695e-01) (27, -2.92540639638900756836e-01) (28, 8.65119636058807373047e-01) (29, -4.36230182647705078125e-01) (30, -3.46338677406311035156e+00) (0, 8.14839184284210205078e-01) (1, 3.29754018783569335938e+00) (2, -6.14798688888549804688e+00) (3, -1.51115632057189941406e+00) (4, 3.89914140105247497559e-02) (5, -1.11516547203063964844e+00) (6, -3.07840657234191894531e+00) (7, -3.51747536659240722656e+00) (8, 4.26138132810592651367e-01) (9, 6.84835672378540039062e+00) (10, 1.67572402954101562500e+00) (11, 6.22593879699707031250e+00) (12, 2.91437745094299316406e+00) (13, 4.68535137176513671875e+00) (14, 1.81140100955963134766e+00) (15, 7.55549001693725585938e+00) (16, 9.94031906127929687500e+00) (17, 3.52193570137023925781e+00) (18, -4.30201530456542968750e+00) (19, 4.35376119613647460938e+00) (20, 4.69909715652465820312e+00) (21, -5.79196643829345703125e+00) (22, -7.67125034332275390625e+00) (23, 2.30014395713806152344e+00) (24, -2.08198022842407226562e+00) (25, -2.31179356575012207031e+00) (26, -7.21288681030273437500e+00) (27, 3.50589156150817871094e+00) (28, 5.05578947067260742188e+00) (29, -3.07402276992797851562e+00) (30, -7.55106353759765625000e+00) (0, -1.61881470680236816406e+00) (1, -6.11046314239501953125e-01) (2, -1.04692029953002929688e+00) (3, -7.71991729736328125000e-01) (4, -2.26062789559364318848e-01) (5, -9.62667703628540039062e-01) (6, 1.39524579048156738281e+00) (7, 1.10607564449310302734e+00) (8, 1.24663040041923522949e-01) (9, -4.38237190246582031250e-01) (10, 1.37272548675537109375e+00) (11, 1.13244533538818359375e+00) (12, 9.35363650321960449219e-01) (13, 9.87677454948425292969e-01) (14, -1.36629259586334228516e+00) (15, -1.78459775447845458984e+00) (16, 6.44166350364685058594e-01) (17, 6.37602090835571289062e-01) (18, 7.37964570522308349609e-01) (19, 1.84412789344787597656e+00) (20, 1.07075381278991699219e+00) (21, -2.44879320263862609863e-01) (22, -2.33561992645263671875e-01) (23, -1.94709289073944091797e+00) (24, 1.99624940752983093262e-01) (25, -7.77519941329956054688e-01) (26, -9.48356837034225463867e-02) (27, 5.00731885433197021484e-01) (28, -5.11074662208557128906e-01) (29, -9.28429126739501953125e-01) (30, 2.04586029052734375000e+00) (0, 3.01163375377655029297e-01) (1, 1.59521782398223876953e+00) (2, 1.16110455989837646484e+00) (3, 5.61053395271301269531e-01) (4, 7.36352324485778808594e-01) (5, -2.38053822517395019531e+00) (6, 3.91550040245056152344e+00) (7, 2.66783142089843750000e+00) (8, -2.40518546104431152344e+00) (9, 1.10562527179718017578e+00) (10, 2.51993393898010253906e+00) (11, -1.52626907825469970703e+00) (12, 1.38875341415405273438e+00) (13, 4.75912764668464660645e-02) (14, -9.54162716865539550781e-01) (15, -1.83758747577667236328e+00) (16, -2.78764939308166503906e+00) (17, -1.11092340946197509766e+00) (18, 2.41337227821350097656e+00) (19, 3.83313268423080444336e-01) (20, -9.07060801982879638672e-01) (21, -1.00658833980560302734e+00) (22, 6.21212244033813476562e-01) (23, -1.79455530643463134766e+00) (24, -2.76146560907363891602e-01) (25, -2.86646103858947753906e+00) (26, -1.01118254661560058594e+00) (27, 1.73790037631988525391e+00) (28, 1.24479246139526367188e+00) (29, 1.01222062110900878906e+00) (30, 1.23391497135162353516e+00) (0, -5.62416076660156250000e-01) (1, -1.39178717136383056641e+00) (2, -1.31722247600555419922e+00) (3, -6.02903723716735839844e-01) (4, -1.38527286052703857422e+00) (5, 1.35719752311706542969e+00) (6, -1.99935793876647949219e+00) (7, -1.10155272483825683594e+00) (8, 2.70454120635986328125e+00) (9, -1.42962351441383361816e-01) (10, -1.11821758747100830078e+00) (11, 1.25033354759216308594e+00) (12, -1.44901072978973388672e+00) (13, 1.46668761968612670898e-01) (14, -1.61607965826988220215e-01) (15, 5.35470008850097656250e-01) (16, 3.04809212684631347656e-01) (17, -1.82902291417121887207e-01) (18, -1.80125546455383300781e+00) (19, -1.54772073030471801758e-01) (20, -1.26262903213500976562e+00) (21, -9.24025550484657287598e-02) (22, -1.63548886775970458984e+00) (23, -5.75909614562988281250e-01) (24, 1.95908856391906738281e+00) (25, 3.13377261161804199219e+00) (26, -1.62072375416755676270e-01) (27, -1.34877610206604003906e+00) (28, -3.30255538225173950195e-01) (29, -1.32405781745910644531e+00) (30, -6.56182169914245605469e-01) (0, -6.05826795101165771484e-01) (1, 1.76660209894180297852e-01) (2, -1.35997980833053588867e-01) (3, 4.25737202167510986328e-01) (4, 3.04801791906356811523e-01) (5, -1.45124351978302001953e+00) (6, 2.59409332275390625000e+00) (7, 1.64307379722595214844e+00) (8, -1.11792290210723876953e+00) (9, 4.39679592847824096680e-01) (10, 1.35030841827392578125e+00) (11, 1.50153726339340209961e-01) (12, 1.50078117847442626953e+00) (13, 6.42031133174896240234e-01) (14, -5.80747127532958984375e-01) (15, -1.42189204692840576172e+00) (16, -4.42803770303726196289e-01) (17, 4.97736275196075439453e-01) (18, 8.87379705905914306641e-01) (19, 8.27402234077453613281e-01) (20, 2.88667887449264526367e-01) (21, -4.69216048717498779297e-01) (22, -1.10720181465148925781e+00) (23, -1.48969697952270507812e+00) (24, 3.75925570726394653320e-01) (25, -5.39970338344573974609e-01) (26, -6.39387726783752441406e-01) (27, 5.75145244598388671875e-01) (28, 8.02523791790008544922e-01) (29, 1.61085903644561767578e+00) (30, 9.68211650848388671875e-01) (0, -1.66101753711700439453e+00) (1, 5.66539227962493896484e-01) (2, 2.59463548660278320312e+00) (3, 7.17706978321075439453e-01) (4, 2.75001287460327148438e+00) (5, 1.29256574437022209167e-02) (6, 2.47411179542541503906e+00) (7, 1.26466965675354003906e+00) (8, -2.47927594184875488281e+00) (9, -2.54920911788940429688e+00) (10, 1.06560206413269042969e+00) (11, -9.76464986801147460938e-01) (12, 1.17126560211181640625e+00) (13, -7.11760222911834716797e-01) (14, -1.01734197139739990234e+00) (15, 7.43525922298431396484e-01) (16, -1.89069712162017822266e+00) (17, 2.02547740936279296875e+00) (18, 2.26891922950744628906e+00) (19, 2.52627164125442504883e-01) (20, 1.80808830261230468750e+00) (21, 1.07415604591369628906e+00) (22, 1.11338973045349121094e+00) (23, 8.92022073268890380859e-01) (24, -1.29101824760437011719e+00) (25, -2.27435564994812011719e+00) (26, -6.12100005149841308594e-01) (27, 5.07635772228240966797e-01) (28, -1.40239644050598144531e+00) (29, -6.93824291229248046875e-01) (30, -2.78844237327575683594e-01) (0, -1.64407455921173095703e+00) (1, 6.84227347373962402344e-02) (2, 6.11565530300140380859e-01) (3, 1.08345329761505126953e+00) (4, 1.70622467994689941406e+00) (5, -3.50509822368621826172e-01) (6, 3.09082174301147460938e+00) (7, 1.92421853542327880859e+00) (8, -1.31247568130493164062e+00) (9, -1.10604476928710937500e+00) (10, 1.82658076286315917969e+00) (11, -4.31275039911270141602e-01) (12, 1.26413750648498535156e+00) (13, -5.45064397156238555908e-02) (14, -1.61917197704315185547e+00) (15, -6.38311147689819335938e-01) (16, -9.73281443119049072266e-01) (17, 5.89357256889343261719e-01) (18, 1.31319737434387207031e+00) (19, 1.27815753221511840820e-01) (20, 1.13193058967590332031e+00) (21, 2.12968873977661132812e+00) (22, 2.58876442909240722656e+00) (23, -2.31219470500946044922e-01) (24, 2.98615306615829467773e-01) (25, -1.04876244068145751953e+00) (26, -3.86765748262405395508e-01) (27, -6.49015963077545166016e-01) (28, -1.27361238002777099609e+00) (29, 1.04901731014251708984e+00) (30, 1.84388232231140136719e+00) (0, 3.10234874486923217773e-01) (1, -2.23385110497474670410e-01) (2, -9.81258600950241088867e-02) (3, 1.77095711231231689453e-01) (4, -1.97157815098762512207e-01) (5, 1.33385908603668212891e+00) (6, -7.54857361316680908203e-01) (7, -2.33458235859870910645e-01) (8, 1.69695258140563964844e+00) (9, 1.04401484131813049316e-01) (10, -9.84706759452819824219e-01) (11, 6.84862494468688964844e-01) (12, 3.45113068819046020508e-01) (13, -1.28514856100082397461e-01) (14, 2.15500518679618835449e-01) (15, 5.06520450115203857422e-01) (16, 1.34975641965866088867e-01) (17, -1.62197008728981018066e-01) (18, -3.24193745851516723633e-01) (19, -3.13515365123748779297e-01) (20, -5.42079389095306396484e-01) (21, 3.77138972282409667969e-01) (22, -1.06796659529209136963e-01) (23, 2.89487689733505249023e-01) (24, -2.96280503273010253906e-01) (25, 3.43617528676986694336e-01) (26, 7.81616866588592529297e-02) (27, -1.03787219524383544922e+00) (28, -1.00631892681121826172e+00) (29, -1.33720541000366210938e+00) (30, -7.15980350971221923828e-01) (0, -1.87177562713623046875e+00) (1, -2.97701030969619750977e-01) (2, 8.85763645172119140625e-01) (3, -1.77302435040473937988e-01) (4, 1.77605414390563964844e+00) (5, -4.09180819988250732422e-01) (6, 1.18537557125091552734e+00) (7, 1.54813027381896972656e+00) (8, -1.90050959587097167969e+00) (9, -1.28252339363098144531e+00) (10, 1.47888302803039550781e+00) (11, -4.32034492492675781250e-01) (12, -6.06580317020416259766e-01) (13, -1.94271981716156005859e+00) (14, -1.33202672004699707031e+00) (15, 1.11354923248291015625e+00) (16, -1.99876832962036132812e+00) (17, 3.61952841281890869141e-01) (18, 3.06816864013671875000e+00) (19, 2.11609101295471191406e+00) (20, 1.80457198619842529297e+00) (21, -6.07963688671588897705e-02) (22, 3.12013196945190429688e+00) (23, 8.94398272037506103516e-01) (24, -1.58258497714996337891e+00) (25, -2.05999684333801269531e+00) (26, 9.42974388599395751953e-02) (27, -9.89721894264221191406e-01) (28, -1.51921355724334716797e+00) (29, 6.59982442855834960938e-01) (30, -3.28724592924118041992e-01) (0, -4.49879199266433715820e-01) (1, 4.32249382138252258301e-02) (2, 2.09822338074445724487e-02) (3, -3.56483966112136840820e-01) (4, -2.23618060350418090820e-01) (5, -1.16454195976257324219e+00) (6, 1.11977624893188476562e+00) (7, 2.11333394050598144531e-01) (8, -1.34582924842834472656e+00) (9, -7.09145307540893554688e-01) (10, 1.13967800140380859375e+00) (11, -5.27091443538665771484e-01) (12, 1.25751435756683349609e-01) (13, -3.41355316340923309326e-02) (14, -8.89951467514038085938e-01) (15, -1.18490803241729736328e+00) (16, -6.37129545211791992188e-01) (17, -4.80025768280029296875e-01) (18, 2.36068777740001678467e-02) (19, 9.20926272869110107422e-01) (20, 4.90970671176910400391e-01) (21, -8.65725725889205932617e-02) (22, -9.53123152256011962891e-01) (23, -1.01698541641235351562e+00) (24, 4.12430375814437866211e-01) (25, -4.30277556180953979492e-01) (26, -2.88621127605438232422e-01) (27, 3.13541948795318603516e-01) (28, -8.53468537330627441406e-01) (29, -5.14786958694458007812e-01) (30, 6.72150790691375732422e-01) (0, 5.64161002635955810547e-01) (1, -1.65351986885070800781e-01) (2, -8.12863171100616455078e-01) (3, 8.21781978011131286621e-02) (4, -3.06926548480987548828e-01) (5, 8.26215818524360656738e-02) (6, -1.49256706237792968750e+00) (7, -5.37905752658843994141e-01) (8, 8.81836056709289550781e-01) (9, 6.43989384174346923828e-01) (10, -8.52807581424713134766e-01) (11, 3.09386223554611206055e-01) (12, -6.80857198312878608704e-03) (13, 7.93440461158752441406e-01) (14, 7.01706469058990478516e-01) (15, 1.90918982028961181641e+00) (16, 1.76730251312255859375e+00) (17, 1.05475954711437225342e-01) (18, 1.90643936395645141602e-01) (19, 2.73470818996429443359e-01) (20, 6.38398408889770507812e-01) (21, 1.78048223257064819336e-01) (22, 8.40551674365997314453e-01) (23, 1.54312729835510253906e+00) (24, 1.04171419143676757812e+00) (25, 2.80584502220153808594e+00) (26, 5.96996665000915527344e-01) (27, -1.46876287460327148438e+00) (28, -2.94814914464950561523e-01) (29, -1.18444883823394775391e+00) (30, -3.56886100769042968750e+00) (0, 1.82339680194854736328e+00) (1, 5.84333986043930053711e-02) (2, -6.06523044407367706299e-02) (3, 1.06367981433868408203e+00) (4, -8.11716735363006591797e-01) (5, 1.84159731864929199219e+00) (6, -1.69614303112030029297e+00) (7, -2.00697326660156250000e+00) (8, 2.18690490722656250000e+00) (9, 1.12267553806304931641e+00) (10, -2.50028252601623535156e+00) (11, 1.79931890964508056641e+00) (12, -4.20471221208572387695e-01) (13, -3.44115972518920898438e-01) (14, 1.52035152912139892578e+00) (15, 1.01969504356384277344e+00) (16, 6.56014084815979003906e-01) (17, 5.82062721252441406250e-01) (18, -1.43015801906585693359e+00) (19, -1.91791713237762451172e+00) (20, -2.01827335357666015625e+00) (21, 1.86825722455978393555e-01) (22, -2.19803881645202636719e+00) (23, 4.78013038635253906250e-01) (24, 1.59015285968780517578e+00) (25, 3.13384366035461425781e+00) (26, -1.34061157703399658203e-01) (27, -8.19311141967773437500e-01) (28, 4.12182480096817016602e-01) (29, -5.70172131061553955078e-01) (30, -4.54151064157485961914e-01) (0, 5.15790171921253204346e-02) (1, -4.07565772533416748047e-01) (2, 3.29976916313171386719e-01) (3, 6.71815693378448486328e-01) (4, 6.08472049236297607422e-01) (5, 2.61134791374206542969e+00) (6, -2.20809578895568847656e+00) (7, -2.24087715148925781250e-01) (8, 2.91283726692199707031e+00) (9, -2.45472528040409088135e-02) (10, -2.25151586532592773438e+00) (11, 1.77335405349731445312e+00) (12, -7.48871028423309326172e-01) (13, -8.83441030979156494141e-01) (14, 1.23565208911895751953e+00) (15, 2.74876284599304199219e+00) (16, 4.06319677829742431641e-01) (17, 8.43725323677062988281e-01) (18, 6.44938707351684570312e-01) (19, -1.72692322731018066406e+00) (20, -3.31651210784912109375e-01) (21, -5.83507776260375976562e-01) (22, 1.03694534301757812500e+00) (23, 3.55724000930786132812e+00) (24, 7.48643398284912109375e-01) (25, 1.22702455520629882812e+00) (26, 8.81456732749938964844e-01) (27, -7.34114766120910644531e-01) (28, 1.31119549274444580078e-01) (29, -1.48197686672210693359e+00) (30, -7.35480427742004394531e-01) (0, -4.72757905721664428711e-01) (1, -4.20325584709644317627e-02) (2, 4.98197168111801147461e-01) (3, -8.32713127136230468750e-01) (4, 3.60395580530166625977e-01) (5, -1.50100409984588623047e+00) (6, -6.56343773007392883301e-02) (7, 6.00743174552917480469e-01) (8, -2.47359275817871093750e+00) (9, -8.54897275567054748535e-02) (10, 1.02865815162658691406e+00) (11, -1.22602701187133789062e+00) (12, 5.56164681911468505859e-01) (13, -9.56360101699829101562e-01) (14, 3.75263057649135589600e-02) (15, 8.72638896107673645020e-02) (16, -1.31531655788421630859e+00) (17, 2.88813501596450805664e-01) (18, 9.00474905967712402344e-01) (19, -3.58916133642196655273e-01) (20, 8.52126181125640869141e-01) (21, -2.67333805561065673828e-01) (22, 1.81411552429199218750e+00) (23, 1.86143028736114501953e+00) (24, -6.85283541679382324219e-01) (25, -1.47009766101837158203e+00) (26, -2.25597679615020751953e-01) (27, 1.13713502883911132812e+00) (28, 7.99982488155364990234e-01) (29, 8.95767569541931152344e-01) (30, 5.99658310413360595703e-01) (0, -2.80426383018493652344e+00) (1, -1.17467081546783447266e+00) (2, -9.46347713470458984375e-01) (3, -5.19092798233032226562e-01) (4, 4.84200060367584228516e-01) (5, -1.04565882682800292969e+00) (6, 2.01303172111511230469e+00) (7, 1.84769582748413085938e+00) (8, -1.69090030249208211899e-03) (9, -1.14156150817871093750e+00) (10, 2.00888228416442871094e+00) (11, 3.70621234178543090820e-01) (12, 1.66655290126800537109e+00) (13, 2.72288113832473754883e-01) (14, -3.15578818321228027344e+00) (15, -1.73480057716369628906e+00) (16, -7.43300616741180419922e-01) (17, -7.94953525066375732422e-01) (18, 1.05487084388732910156e+00) (19, 2.92237973213195800781e+00) (20, -3.94796520471572875977e-01) (21, 8.40212643146514892578e-01) (22, 6.33386313915252685547e-01) (23, -2.24274611473083496094e+00) (24, 5.48704445362091064453e-01) (25, -3.87463688850402832031e-01) (26, 2.77037978172302246094e-01) (27, 5.29383003711700439453e-01) (28, 2.54005670547485351562e-01) (29, 8.57727766036987304688e-01) (30, 2.10931038856506347656e+00) (0, 1.30610656738281250000e+00) (1, 3.84005755186080932617e-01) (2, -4.71123129129409790039e-01) (3, 1.85299083590507507324e-01) (4, -9.37689423561096191406e-01) (5, -8.16832855343818664551e-02) (6, -1.94906628131866455078e+00) (7, -1.16322445869445800781e+00) (8, 6.96548998355865478516e-01) (9, 1.03265690803527832031e+00) (10, -1.08272647857666015625e+00) (11, -1.43716886639595031738e-01) (12, -5.71472823619842529297e-01) (13, 8.64979147911071777344e-01) (14, 1.07706153392791748047e+00) (15, 1.29047536849975585938e+00) (16, 7.57311701774597167969e-01) (17, -2.00464874505996704102e-01) (18, 1.39728516340255737305e-01) (19, 6.96845799684524536133e-02) (20, -5.55783808231353759766e-01) (21, 9.36251401901245117188e-01) (22, 3.75844597816467285156e-01) (23, 2.15249967575073242188e+00) (24, 1.19058656692504882812e+00) (25, 2.59739065170288085938e+00) (26, -1.39100611209869384766e-01) (27, -2.12050008773803710938e+00) (28, 6.32786035537719726562e-01) (29, 5.71696981787681579590e-02) (30, -3.85666251182556152344e+00) (0, -3.24492990970611572266e-01) (1, 2.83879667520523071289e-01) (2, 1.54377490282058715820e-01) (3, 1.20186187326908111572e-01) (4, -2.39701077342033386230e-01) (5, -1.27834796905517578125e+00) (6, 2.70787143707275390625e+00) (7, 8.44612479209899902344e-01) (8, -8.48346710205078125000e-01) (9, 6.61496639251708984375e-01) (10, 1.53107750415802001953e+00) (11, 2.02731281518936157227e-01) (12, 1.34240233898162841797e+00) (13, 9.06391203403472900391e-01) (14, -1.16750407218933105469e+00) (15, -2.62859582901000976562e+00) (16, -8.75534117221832275391e-01) (17, 2.66925729811191558838e-02) (18, 6.98565006256103515625e-01) (19, 1.66254675388336181641e+00) (20, 1.16729184985160827637e-01) (21, -2.61511765420436859131e-02) (22, -1.05242967605590820312e+00) (23, -3.64120006561279296875e+00) (24, 2.50168144702911376953e-01) (25, -5.80114245414733886719e-01) (26, -9.39177334308624267578e-01) (27, 5.68400382995605468750e-01) (28, 8.86873453855514526367e-02) (29, 1.07168209552764892578e+00) (30, 1.69861364364624023438e+00) (0, 2.11638331413269042969e+00) (1, 9.09346461296081542969e-01) (2, 5.17635196447372436523e-02) (3, 8.38502347469329833984e-01) (4, -7.05102026462554931641e-01) (5, 1.10891568660736083984e+00) (6, -1.74891459941864013672e+00) (7, -1.80447745323181152344e+00) (8, 4.51939821243286132812e-01) (9, 1.19322252273559570312e+00) (10, -1.37800908088684082031e+00) (11, -1.78889915347099304199e-01) (12, 2.47180283069610595703e-01) (13, 7.05720484256744384766e-01) (14, 7.00442016124725341797e-01) (15, 7.73136734962463378906e-01) (16, 9.98436033725738525391e-01) (17, 3.55121046304702758789e-01) (18, -1.23880803585052490234e+00) (19, -8.18856000900268554688e-01) (20, -3.92353415489196777344e-01) (21, 3.11683803796768188477e-01) (22, -1.82535862922668457031e+00) (23, 1.14919292926788330078e+00) (24, 8.87914717197418212891e-01) (25, 1.66838216781616210938e+00) (26, -1.37676954269409179688e+00) (27, -3.31504136323928833008e-01) (28, 1.07389581203460693359e+00) (29, -1.69591113924980163574e-01) (30, -1.58868122100830078125e+00) (0, 3.78148913383483886719e+00) (1, 8.91238212585449218750e-01) (2, 7.20359623432159423828e-01) (3, 1.17877669632434844971e-01) (4, -1.55881202220916748047e+00) (5, 8.85336697101593017578e-01) (6, -1.60197269916534423828e+00) (7, -2.14330577850341796875e+00) (8, 1.51603722572326660156e+00) (9, 3.31706070899963378906e+00) (10, -1.02267169952392578125e+00) (11, 1.28912675380706787109e+00) (12, -1.19653232395648956299e-01) (13, -9.02077794075012207031e-01) (14, 4.50240325927734375000e+00) (15, 1.45185863971710205078e+00) (16, -8.19184243679046630859e-01) (17, 3.33799958229064941406e-01) (18, -2.19541430473327636719e+00) (19, -3.09698128700256347656e+00) (20, -1.46209716796875000000e+00) (21, -1.45888340473175048828e+00) (22, -1.21942889690399169922e+00) (23, 1.38927817344665527344e+00) (24, 2.39064514636993408203e-01) (25, 1.68987667560577392578e+00) (26, 5.89813850820064544678e-02) (27, 2.86918252706527709961e-01) (28, 1.73009324073791503906e+00) (29, 1.00361776351928710938e+00) (30, -2.02565622329711914062e+00) (0, 1.91566264629364013672e+00) (1, 4.90879982709884643555e-01) (2, 4.30574655532836914062e-01) (3, 2.55526155233383178711e-01) (4, -6.89865350723266601562e-01) (5, 9.64983820915222167969e-01) (6, -1.89448630809783935547e+00) (7, -1.93658506870269775391e+00) (8, 3.39156299829483032227e-01) (9, 4.48413401842117309570e-01) (10, -1.77670121192932128906e+00) (11, -8.26811939477920532227e-02) (12, 2.58426427841186523438e-01) (13, -2.43687182664871215820e-01) (14, 2.35861945152282714844e+00) (15, 2.32064938545227050781e+00) (16, 1.16930449008941650391e+00) (17, 1.12405824661254882812e+00) (18, -7.83723771572113037109e-01) (19, -2.10103869438171386719e+00) (20, 8.34178745746612548828e-01) (21, -6.46378934383392333984e-01) (22, -1.46581053733825683594e+00) (23, 2.74740624427795410156e+00) (24, 3.43951493501663208008e-01) (25, 9.27496910095214843750e-01) (26, -6.37539863586425781250e-01) (27, -3.02252829074859619141e-01) (28, 9.14687216281890869141e-01) (29, -1.79713129997253417969e-01) (30, -1.93630957603454589844e+00) (0, -1.02648258209228515625e+00) (1, -3.34354668855667114258e-01) (2, 2.79559493064880371094e-01) (3, -1.37253689765930175781e+00) (4, 5.49541354179382324219e-01) (5, -1.41112375259399414062e+00) (6, -8.76978456974029541016e-01) (7, 3.77343535423278808594e-01) (8, -2.77275037765502929688e+00) (9, -9.07410979270935058594e-01) (10, 3.85317087173461914062e-01) (11, -1.54515147209167480469e+00) (12, -5.48013567924499511719e-01) (13, -1.68228626251220703125e+00) (14, -8.03530573844909667969e-01) (15, 8.09019863605499267578e-01) (16, -1.04281902313232421875e+00) (17, -9.87635314464569091797e-01) (18, 1.44824802875518798828e+00) (19, 2.48294413089752197266e-01) (20, 1.13542068004608154297e+00) (21, -1.86043158173561096191e-02) (22, 1.92658579349517822266e+00) (23, 1.01006042957305908203e+00) (24, -1.48539292812347412109e+00) (25, -2.41193509101867675781e+00) (26, -1.03388220071792602539e-01) (27, 1.69611287117004394531e+00) (28, 8.36363136768341064453e-01) (29, 6.38593614101409912109e-01) (30, 4.09745484590530395508e-01) (0, 1.67538547515869140625e+00) (1, -8.60852450132369995117e-02) (2, 1.12281394004821777344e+00) (3, 3.35129618644714355469e-01) (4, -3.78575384616851806641e-01) (5, 2.24354910850524902344e+00) (6, -2.09909796714782714844e+00) (7, -2.08494281768798828125e+00) (8, 8.99919450283050537109e-01) (9, -1.57894159201532602310e-04) (10, -2.33336830139160156250e+00) (11, 9.05545577406883239746e-02) (12, -9.17117536067962646484e-01) (13, -1.19368278980255126953e+00) (14, 2.94989323616027832031e+00) (15, 3.41799163818359375000e+00) (16, -2.12373554706573486328e-01) (17, 1.02268171310424804688e+00) (18, -2.03329086303710937500e+00) (19, -3.67628288269042968750e+00) (20, -2.02099189162254333496e-01) (21, 1.34107723832130432129e-01) (22, -1.55772328376770019531e+00) (23, 2.35007977485656738281e+00) (24, 4.47612255811691284180e-01) (25, 1.11463749408721923828e+00) (26, -1.76526233553886413574e-01) (27, -4.62366908788681030273e-01) (28, 1.31740438938140869141e+00) (29, 1.23856437206268310547e+00) (30, -1.35912418365478515625e+00) (0, 2.91520431637763977051e-02) (1, 4.61772322654724121094e-01) (2, 3.83914113044738769531e-01) (3, -3.76869589090347290039e-02) (4, 3.89362782239913940430e-01) (5, -5.90723633766174316406e-01) (6, 4.24337714910507202148e-01) (7, 2.23294124007225036621e-01) (8, -1.47927141189575195312e+00) (9, -2.42813855409622192383e-01) (10, 6.35435760021209716797e-01) (11, -7.70769417285919189453e-01) (12, -2.49351471662521362305e-01) (13, -1.45099118351936340332e-01) (14, 3.12798708677291870117e-01) (15, -2.93741494417190551758e-01) (16, -5.00005483627319335938e-01) (17, 1.16020105779170989990e-01) (18, 7.72588968276977539062e-01) (19, 3.16052973270416259766e-01) (20, 4.20963734388351440430e-01) (21, 3.03352415561676025391e-01) (22, 1.01566052436828613281e+00) (23, 6.38768136501312255859e-01) (24, -2.19559967517852783203e-02) (25, -2.62903302907943725586e-01) (26, 2.23576471209526062012e-01) (27, 1.09186089038848876953e+00) (28, 1.15739798545837402344e+00) (29, 9.53586041927337646484e-01) (30, 4.61292117834091186523e-01) (0, -1.03962290287017822266e+00) (1, -1.49151670932769775391e+00) (2, -2.30320811271667480469e+00) (3, 1.51157355308532714844e+00) (4, -7.04646706581115722656e-01) (5, 1.71955978870391845703e+00) (6, -2.81640030443668365479e-02) (7, -5.96225321292877197266e-01) (8, 2.36578702926635742188e+00) (9, -1.71451956033706665039e-01) (10, -1.55603611469268798828e+00) (11, 5.57177662849426269531e-01) (12, 8.65543246269226074219e-01) (13, 1.80419826507568359375e+00) (14, -8.18531453609466552734e-01) (15, 1.27171730995178222656e+00) (16, 3.08356928825378417969e+00) (17, -1.37594163417816162109e+00) (18, -1.44786560535430908203e+00) (19, -3.99859389290213584900e-03) (20, -1.47298860549926757812e+00) (21, 1.66263794898986816406e+00) (22, -1.27460074424743652344e+00) (23, -1.70153331756591796875e+00) (24, 2.77379727363586425781e+00) (25, 2.96844315528869628906e+00) (26, -8.11470508575439453125e-01) (27, -9.84518885612487792969e-01) (28, -1.43774837255477905273e-01) (29, -7.36517190933227539062e-01) (30, -2.38206243515014648438e+00) (0, 2.69567847251892089844e+00) (1, 2.01971960067749023438e+00) (2, 1.81641650199890136719e+00) (3, 6.34177207946777343750e-01) (4, 7.23639905452728271484e-01) (5, 1.00016367435455322266e+00) (6, -1.13624322414398193359e+00) (7, -5.61580419540405273438e-01) (8, -1.80853712558746337891e+00) (9, 1.09981775283813476562e+00) (10, -7.31866419315338134766e-01) (11, -2.01035261154174804688e+00) (12, 2.01280280947685241699e-01) (13, 7.10703074932098388672e-01) (14, 2.35101056098937988281e+00) (15, 3.21568655967712402344e+00) (16, 2.32097595930099487305e-01) (17, -9.26876962184906005859e-01) (18, 7.19116926193237304688e-01) (19, -2.33177170157432556152e-01) (20, -6.97079241275787353516e-01) (21, 1.48947417736053466797e+00) (22, 1.91399598121643066406e+00) (23, 2.87453508377075195312e+00) (24, -1.89727914333343505859e+00) (25, -8.87308418750762939453e-02) (26, -5.10583579540252685547e-01) (27, -6.66847050189971923828e-01) (28, 8.12613785266876220703e-01) (29, -6.42376095056533813477e-02) (30, -3.55733799934387207031e+00) (0, 1.72431802749633789062e+00) (1, 8.04457843303680419922e-01) (2, -4.55543607473373413086e-01) (3, 3.69600623846054077148e-01) (4, -1.26556539535522460938e+00) (5, 1.20464646816253662109e+00) (6, 3.65212649106979370117e-01) (7, -9.40501928329467773438e-01) (8, 1.74421644210815429688e+00) (9, 1.68078601360321044922e+00) (10, -5.81942915916442871094e-01) (11, 3.63588184118270874023e-01) (12, -1.41723960638046264648e-01) (13, 1.62173247337341308594e+00) (14, 1.35877394676208496094e+00) (15, 1.37140870094299316406e+00) (16, 1.80797874927520751953e+00) (17, -7.79592335224151611328e-01) (18, -2.15798330307006835938e+00) (19, 8.17625224590301513672e-01) (20, -9.55084383487701416016e-01) (21, 1.57938313484191894531e+00) (22, -1.88987469673156738281e+00) (23, -1.71326446533203125000e+00) (24, 1.89663851261138916016e+00) (25, 2.04610538482666015625e+00) (26, -8.63819718360900878906e-02) (27, -1.12617027759552001953e+00) (28, 2.95187294483184814453e-01) (29, -1.24023187160491943359e+00) (30, -1.81582403182983398438e+00) (31, 1.57876357436180114746e-01) (32, 1.37117594480514526367e-01) (33, -7.16829746961593627930e-02) (34, 1.67719516903162002563e-02) (35, -2.83706970512866973877e-02) (36, 5.65186291933059692383e-02) (37, 8.69439899921417236328e-01) (38, -4.71771389245986938477e-01) (39, -6.53183996677398681641e-01) (40, 4.04684185981750488281e-01) (41, 8.20061981678009033203e-01) (42, 3.27098369598388671875e-01) (43, 6.93847417831420898438e-01) (44, -2.41641744971275329590e-01) (45, 6.55991435050964355469e-01) (46, 2.84854114055633544922e-01) (47, 4.42732304334640502930e-01) (48, -2.20522895455360412598e-01) (49, 4.99641597270965576172e-01) (50, -3.35449367761611938477e-01) (51, -9.39171463251113891602e-02) (52, -1.98979198932647705078e-01) (53, 1.21782469749450683594e+00) (54, 4.13188338279724121094e-01) (55, 7.32174575328826904297e-01) (56, -1.30931967869400978088e-02) (57, -8.33884358406066894531e-01) (58, -7.59553909301757812500e-01) (59, 1.69767320156097412109e-01) (60, -8.34715962409973144531e-01) (61, -2.80222773551940917969e-01) (62, 8.91079902648925781250e-01) (63, 5.74124455451965332031e-01) (64, 6.71403527259826660156e-01) (65, 6.10940083861351013184e-02) (31, -1.21057486534118652344e+00) (32, -3.95014882087707519531e-02) (33, 1.85853683948516845703e+00) (34, 9.85649228096008300781e-01) (35, -5.09616672992706298828e-01) (36, 7.48752474784851074219e-01) (37, -8.53044688701629638672e-02) (38, 1.48903703689575195312e+00) (39, 1.61201858520507812500e+00) (40, -8.15079331398010253906e-01) (41, -1.36900889873504638672e+00) (42, 9.40747559070587158203e-01) (43, 4.65315699577331542969e-01) (44, -6.05010867118835449219e-01) (45, -2.53384429961442947388e-02) (46, -1.77446842193603515625e-01) (47, -2.09363770484924316406e+00) (48, -1.29679608345031738281e+00) (49, 7.29672849178314208984e-01) (50, 2.17069816589355468750e+00) (51, 1.16908729076385498047e+00) (52, -9.84916210174560546875e-01) (53, -1.61308383941650390625e+00) (54, 1.06018161773681640625e+00) (55, -6.34339272975921630859e-01) (56, 1.53556334972381591797e+00) (57, 1.34880387783050537109e+00) (58, 1.31261909008026123047e+00) (59, -1.53312182426452636719e+00) (60, 3.54693365097045898438e+00) (61, 8.18003475666046142578e-01) (62, 1.69510495662689208984e+00) (63, 1.07187557220458984375e+00) (64, 1.15028202533721923828e+00) (65, -2.32304945588111877441e-01) (31, 4.15550410747528076172e-01) (32, -2.92211860418319702148e-01) (33, -4.64490175247192382812e-01) (34, -1.44633635878562927246e-01) (35, 5.02275705337524414062e-01) (36, -1.55599609017372131348e-01) (37, 7.98226058483123779297e-01) (38, -9.48285818099975585938e-01) (39, -3.94590854644775390625e-01) (40, 4.80507582426071166992e-01) (41, 3.01639705896377563477e-01) (42, 1.56835272908210754395e-01) (43, 3.87584924697875976562e-01) (44, -1.26375243067741394043e-01) (45, 3.68541359901428222656e-01) (46, 3.66732627153396606445e-02) (47, 5.59003427624702453613e-02) (48, 8.64654555916786193848e-02) (49, -1.16934468969702720642e-02) (50, -1.86034560203552246094e-01) (51, -2.21432983875274658203e-01) (52, -2.09771722555160522461e-01) (53, 8.30166578292846679688e-01) (54, -1.29336327314376831055e-01) (55, 5.41160404682159423828e-01) (56, -2.71176487207412719727e-01) (57, -1.05757105350494384766e+00) (58, -6.37896597385406494141e-01) (59, 3.06520283222198486328e-01) (60, -5.74917554855346679688e-01) (61, 7.33326599001884460449e-02) (62, 3.23507428169250488281e-01) (63, -5.41449487209320068359e-01) (64, 6.62359073758125305176e-02) (65, 2.24104627966880798340e-01) (31, -3.51656973361968994141e-01) (32, -8.68520140647888183594e-02) (33, 8.77522110939025878906e-01) (34, 2.40968223661184310913e-02) (35, -6.00566565990447998047e-01) (36, -1.49694174528121948242e-01) (37, -5.71468234062194824219e-01) (38, 7.48429477214813232422e-01) (39, -1.49204000830650329590e-01) (40, -5.60480952262878417969e-01) (41, -6.59055858850479125977e-02) (42, -5.11322319507598876953e-01) (43, -2.09153909236192703247e-02) (44, -9.72412973642349243164e-02) (45, -4.73542749881744384766e-01) (46, -5.51037311553955078125e-01) (47, -4.45296287536621093750e-01) (48, -3.55592697858810424805e-01) (49, -1.14425383508205413818e-01) (50, 5.70734679698944091797e-01) (51, 3.50995779037475585938e-01) (52, 3.94547164440155029297e-01) (53, -1.01036417484283447266e+00) (54, -6.50447676889598369598e-04) (55, -2.76968270540237426758e-01) (56, 3.12639564275741577148e-01) (57, 1.63000917434692382812e+00) (58, 8.24813842773437500000e-01) (59, -1.28156058490276336670e-02) (60, 7.65343844890594482422e-01) (61, 6.06576859951019287109e-01) (62, -1.06059610843658447266e+00) (63, 3.99062484502792358398e-01) (64, -3.33791077136993408203e-01) (65, 1.58883854746818542480e-01) (31, 4.75758999586105346680e-01) (32, -3.31305325031280517578e-01) (33, -5.98904430866241455078e-01) (34, -2.07848548889160156250e-01) (35, 1.59211361408233642578e+00) (36, 3.11846770346164703369e-02) (37, 4.19916659593582153320e-01) (38, -7.30685830116271972656e-01) (39, 2.58013874292373657227e-01) (40, 5.72291791439056396484e-01) (41, 3.38054120540618896484e-01) (42, -1.29776850342750549316e-01) (43, 5.42886912822723388672e-01) (44, 7.98448085784912109375e-01) (45, 7.69411265850067138672e-01) (46, -5.33185675740242004395e-02) (47, 5.74279725551605224609e-01) (48, 1.23383425176143646240e-01) (49, 1.89220651984214782715e-01) (50, -3.28942090272903442383e-01) (51, 6.18092454969882965088e-02) (52, -3.84480692446231842041e-02) (53, 8.47626566886901855469e-01) (54, -3.01019489765167236328e-01) (55, 2.02934145927429199219e-01) (56, -8.52588653564453125000e-01) (57, -1.55015015602111816406e+00) (58, -6.07123196125030517578e-01) (59, -2.90299296379089355469e-01) (60, -7.27041900157928466797e-01) (61, 9.62840840220451354980e-02) (62, 4.91567641496658325195e-01) (63, -6.81451737880706787109e-01) (64, -7.19161853194236755371e-02) (65, 3.48626762628555297852e-01) (31, -3.86866897344589233398e-01) (32, 9.73095893859863281250e-01) (33, -4.57554429769515991211e-01) (34, -1.39930754899978637695e-01) (35, -2.16351318359375000000e+00) (36, 7.54570603370666503906e-01) (37, 6.46200299263000488281e-01) (38, -7.70154893398284912109e-01) (39, 2.42771670222282409668e-01) (40, 5.99432051181793212891e-01) (41, 1.33254066109657287598e-01) (42, 6.66709065437316894531e-01) (43, 1.61831587553024291992e-01) (44, -1.12755346298217773438e+00) (45, -4.69607412815093994141e-01) (46, 1.29581004381179809570e-01) (47, 1.13337300717830657959e-02) (48, -1.10819160938262939453e+00) (49, 1.62912189960479736328e+00) (50, 1.79777890443801879883e-01) (51, 8.57705354690551757812e-01) (52, -1.77795544266700744629e-01) (53, 1.81589886546134948730e-01) (54, 9.62435364723205566406e-01) (55, 2.20016106963157653809e-01) (56, -9.99780893325805664062e-02) (57, -4.54966723918914794922e-02) (58, -2.45733737945556640625e-01) (59, 4.17561233043670654297e-02) (60, -2.76383936405181884766e-01) (61, -4.93206828832626342773e-01) (62, 2.05714508891105651855e-01) (63, 5.54451383650302886963e-02) (64, 2.15616732835769653320e-01) (65, 1.39599191024899482727e-02) (31, 1.47398665547370910645e-01) (32, 1.47581040859222412109e-01) (33, -1.37931987643241882324e-01) (34, -1.11046999692916870117e-01) (35, -1.71096846461296081543e-01) (36, -2.22879141569137573242e-01) (37, 1.12218225002288818359e+00) (38, -8.13251614570617675781e-01) (39, -4.96145278215408325195e-01) (40, 4.09815073013305664062e-01) (41, 1.04907786846160888672e+00) (42, 1.23560130596160888672e-01) (43, 6.52473449707031250000e-01) (44, -4.89660799503326416016e-01) (45, 3.68505388498306274414e-01) (46, 2.55318731069564819336e-01) (47, 4.47214305400848388672e-01) (48, 1.07207782566547393799e-01) (49, 2.33337610960006713867e-01) (50, -5.98039150238037109375e-01) (51, -4.78322714567184448242e-01) (52, -1.52319511398673057556e-02) (53, 1.17903959751129150391e+00) (54, 1.16522572934627532959e-01) (55, 1.09497284889221191406e+00) (56, 2.52490639686584472656e-02) (57, -7.32827663421630859375e-01) (58, -7.44723916053771972656e-01) (59, 3.69217246770858764648e-01) (60, -7.39186167716979980469e-01) (61, -4.19712364673614501953e-01) (62, 7.35961675643920898438e-01) (63, 3.86145204305648803711e-01) (64, 3.90689551830291748047e-01) (65, -2.48470589518547058105e-01) (31, 6.45355939865112304688e-01) (32, -7.82859981060028076172e-01) (33, 7.93489217758178710938e-02) (34, -1.60829976201057434082e-01) (35, 9.95507478713989257812e-01) (36, -8.66831064224243164062e-01) (37, -7.15307891368865966797e-02) (38, -1.63319513201713562012e-01) (39, 3.53008173406124114990e-02) (40, -3.44503045082092285156e-01) (41, 5.28411865234375000000e-02) (42, 1.58812046051025390625e-01) (43, -5.16047656536102294922e-01) (44, 5.77409081161022186279e-02) (45, -1.74957454204559326172e-01) (46, 8.92139613628387451172e-01) (47, -7.02257633209228515625e-01) (48, 1.08551383018493652344e+00) (49, -1.25275313854217529297e+00) (50, 3.75315308570861816406e-01) (51, -5.76513767242431640625e-01) (52, -4.05282437801361083984e-01) (53, -4.11556839942932128906e-01) (54, -9.82857406139373779297e-01) (55, 1.06619082391262054443e-01) (56, -2.21061974763870239258e-01) (57, 1.83589458465576171875e-01) (58, 3.05709261447191238403e-02) (59, -5.49555897712707519531e-01) (60, -3.89800593256950378418e-02) (61, -6.18915319442749023438e-01) (62, 1.11568987369537353516e-01) (63, -9.01111721992492675781e-01) (64, -8.24921131134033203125e-02) (65, -3.19993048906326293945e-01) (31, -2.49351039528846740723e-01) (32, -8.63699197769165039062e-01) (33, -3.53448748588562011719e-01) (34, -6.48421883583068847656e-01) (35, 2.58752799034118652344e+00) (36, -9.71486628055572509766e-01) (37, -1.20188236236572265625e+00) (38, 7.67357587814331054688e-01) (39, 7.36961781978607177734e-01) (40, -3.23602944612503051758e-01) (41, 1.14157807826995849609e+00) (42, -2.12027049064636230469e+00) (43, -5.58379113674163818359e-01) (44, 2.45952391624450683594e+00) (45, 3.25919449329376220703e-01) (46, -3.89480888843536376953e-01) (47, 1.14741659164428710938e+00) (48, -6.99787540361285209656e-03) (49, -1.60555207729339599609e+00) (50, -1.17627632617950439453e+00) (51, -4.82591509819030761719e-01) (52, 7.04957246780395507812e-01) (53, -1.17743206024169921875e+00) (54, -1.33766722679138183594e+00) (55, -5.63359916210174560547e-01) (56, -6.36749684810638427734e-01) (57, 1.79474979639053344727e-01) (58, 7.86047875881195068359e-01) (59, 6.53958618640899658203e-01) (60, 7.91684329509735107422e-01) (61, 9.34418559074401855469e-01) (62, -1.40588212013244628906e+00) (63, 2.74813604354858398438e+00) (64, -8.36792409420013427734e-01) (65, -3.73126924037933349609e-01) (31, -2.48131267726421356201e-02) (32, 3.45279335975646972656e-01) (33, -5.40985763072967529297e-01) (34, -1.36454105377197265625e-01) (35, -1.15608558058738708496e-01) (36, 2.07217991352081298828e-01) (37, 7.11726784706115722656e-01) (38, -2.47496545314788818359e-01) (39, -2.32251420617103576660e-01) (40, 6.39964222908020019531e-01) (41, 7.74013340473175048828e-01) (42, -1.60208374261856079102e-01) (43, 3.14654529094696044922e-01) (44, 1.13809607923030853271e-01) (45, 4.95320528745651245117e-01) (46, -2.15344935655593872070e-01) (47, 5.33822536468505859375e-01) (48, 6.23869560658931732178e-02) (49, 3.15749853849411010742e-01) (50, -7.28628098964691162109e-01) (51, -3.19554269313812255859e-01) (52, -2.37043350934982299805e-01) (53, 9.69289779663085937500e-01) (54, 3.65412741899490356445e-01) (55, 6.40751183032989501953e-01) (56, -2.37472087144851684570e-01) (57, -9.97836470603942871094e-01) (58, -6.47318840026855468750e-01) (59, 4.59395766258239746094e-01) (60, -2.91210699081420898438e+00) (61, 1.51720032095909118652e-01) (62, 5.04536449909210205078e-01) (63, 5.46061396598815917969e-01) (64, 6.19689524173736572266e-01) (65, -1.84904616326093673706e-02) (31, 4.80537265539169311523e-01) (32, -1.82134583592414855957e-01) (33, -8.60222578048706054688e-01) (34, 3.42346765100955963135e-02) (35, 1.13376450538635253906e+00) (36, -2.04247888177633285522e-02) (37, 9.08434763550758361816e-02) (38, -7.61555433273315429688e-01) (39, 8.83799493312835693359e-01) (40, 5.43532907962799072266e-01) (41, -2.45348781347274780273e-01) (42, 3.88042271137237548828e-01) (43, -1.17391303181648254395e-01) (44, 5.46006977558135986328e-01) (45, 5.63682317733764648438e-01) (46, 4.45938527584075927734e-01) (47, 5.22845447063446044922e-01) (48, 5.32955884933471679688e-01) (49, -2.68493890762329101562e-01) (50, -7.85550117492675781250e-01) (51, -4.24106568098068237305e-01) (52, -2.88221418857574462891e-01) (53, 1.00520730018615722656e+00) (54, -4.31494504213333129883e-01) (55, 1.35858565568923950195e-01) (56, -6.82391345500946044922e-01) (57, -1.80938470363616943359e+00) (58, -7.29260623455047607422e-01) (59, 9.73177030682563781738e-02) (60, -7.38437235355377197266e-01) (61, 1.27864167094230651855e-01) (62, 5.68535327911376953125e-01) (63, -2.66290336847305297852e-01) (64, -1.02284967899322509766e-01) (65, -6.22960329055786132812e-02) (31, -6.11458897590637207031e-01) (32, 3.52744251489639282227e-01) (33, -2.07553673535585403442e-02) (34, 3.18961441516876220703e-01) (35, -5.18324673175811767578e-01) (36, 1.74826100468635559082e-01) (37, 7.99214482307434082031e-01) (38, -7.84960567951202392578e-01) (39, -5.50145149230957031250e-01) (40, 8.28903555870056152344e-01) (41, 4.49191451072692871094e-01) (42, 1.99006348848342895508e-01) (43, 1.07674646377563476562e+00) (44, -4.24134224653244018555e-01) (45, 1.05151496827602386475e-01) (46, -8.28663408756256103516e-01) (47, 1.99239253997802734375e-01) (48, -9.02717232704162597656e-01) (49, 8.19296836853027343750e-01) (50, -2.80336946249008178711e-01) (51, 5.49500048160552978516e-01) (52, -4.05969051644206047058e-03) (53, 8.54377985000610351562e-01) (54, 5.80101430416107177734e-01) (55, 6.87774717807769775391e-01) (56, 1.62924334406852722168e-01) (57, -2.30523437261581420898e-01) (58, -5.97250103950500488281e-01) (59, -1.69987916946411132812e-01) (60, -5.71981549263000488281e-01) (61, 4.02557969093322753906e-01) (62, 2.12995916604995727539e-01) (63, -1.77732706069946289062e-01) (64, 9.47094261646270751953e-02) (65, 2.19764661788940429688e+00) (31, 4.72422897815704345703e-01) (32, -6.64824187755584716797e-01) (33, -7.54312932491302490234e-01) (34, -1.31934568285942077637e-01) (35, 9.82260167598724365234e-01) (36, -3.69948536157608032227e-01) (37, 1.71841457486152648926e-01) (38, -1.08956587314605712891e+00) (39, 9.67348273843526840210e-03) (40, 6.65363907814025878906e-01) (41, -1.86827018857002258301e-01) (42, 1.84033364057540893555e-02) (43, 1.50265425443649291992e-01) (44, 3.39429862797260284424e-02) (45, 3.15401256084442138672e-01) (46, 6.54998347163200378418e-02) (47, 3.73376518487930297852e-01) (48, 2.63585418462753295898e-01) (49, -5.61398744583129882812e-01) (50, -3.50375473499298095703e-01) (51, -2.16780796647071838379e-01) (52, 5.40874386206269264221e-03) (53, 6.00128173828125000000e-01) (54, -7.63565063476562500000e-01) (55, 2.36873999238014221191e-01) (56, -7.65546321868896484375e-01) (57, -1.37081694602966308594e+00) (58, -7.49646246433258056641e-01) (59, 2.07659170031547546387e-01) (60, -7.16592550277709960938e-01) (61, 1.50399049744009971619e-02) (62, 8.29087123274803161621e-02) (63, -1.14950811862945556641e+00) (64, -5.03343224525451660156e-01) (65, 2.39250585436820983887e-01) (31, -2.33197480440139770508e-01) (32, -1.09135635197162628174e-01) (33, 4.39443588256835937500e-01) (34, 1.74414172768592834473e-01) (35, 2.44073942303657531738e-01) (36, 2.29245685040950775146e-02) (37, -5.59663951396942138672e-01) (38, 6.52566254138946533203e-01) (39, 5.98484575748443603516e-01) (40, -5.37055373191833496094e-01) (41, -6.07327342033386230469e-01) (42, -7.24069178104400634766e-02) (43, -3.66876244544982910156e-01) (44, 2.87162095308303833008e-01) (45, -9.56907793879508972168e-02) (46, -8.99078249931335449219e-02) (47, -4.01259988546371459961e-01) (48, -2.32273325324058532715e-01) (49, -3.55621874332427978516e-02) (50, 6.77277982234954833984e-01) (51, 4.78978097438812255859e-01) (52, 4.08526882529258728027e-02) (53, -6.89450979232788085938e-01) (54, -2.72230412811040878296e-02) (55, -6.71854615211486816406e-01) (56, 2.05135211348533630371e-01) (57, 6.37188851833343505859e-01) (58, 7.78951108455657958984e-01) (59, -3.19862872362136840820e-01) (60, 8.94343912601470947266e-01) (61, 1.22985750436782836914e-01) (62, -3.21874022483825683594e-01) (63, 5.77521398663520812988e-02) (64, -2.07086682319641113281e-01) (65, 5.55034935474395751953e-01) (31, -4.31715399026870727539e-01) (32, -8.57571542263031005859e-01) (33, -4.94362145662307739258e-01) (34, -3.16179990768432617188e-01) (35, -4.26321089267730712891e-01) (36, -4.68119859695434570312e-01) (37, -1.46804618835449218750e+00) (38, 8.22294592857360839844e-01) (39, 3.22782695293426513672e-01) (40, -3.62563669681549072266e-01) (41, 1.51546573638916015625e+00) (42, -1.84929156303405761719e+00) (43, -6.70659840106964111328e-01) (44, 2.58757877349853515625e+00) (45, 8.88533413410186767578e-01) (46, -2.03065231442451477051e-01) (47, 1.69158649444580078125e+00) (48, -1.43205359578132629395e-01) (49, -1.76308846473693847656e+00) (50, -1.90585172176361083984e+00) (51, -9.15785133838653564453e-01) (52, 1.11082291603088378906e+00) (53, -8.52844595909118652344e-01) (54, -1.01829648017883300781e+00) (55, -4.37764286994934082031e-01) (56, -5.17807543277740478516e-01) (57, -1.27416777610778808594e+00) (58, 4.67485368251800537109e-01) (59, 1.79037868976593017578e+00) (60, 7.37712740898132324219e-01) (61, 6.08053803443908691406e-01) (62, -1.29890930652618408203e+00) (63, 1.09624695777893066406e+00) (64, -1.33838200569152832031e+00) (65, -7.03784599900245666504e-02) (31, -1.27596512436866760254e-01) (32, -1.66683566570281982422e+00) (33, 1.07390153408050537109e+00) (34, 1.93705204874277114868e-02) (35, 2.26077318191528320312e+00) (36, -2.12709474563598632812e+00) (37, 3.48890590667724609375e+00) (38, -2.18450713157653808594e+00) (39, 2.84111291170120239258e-01) (40, 1.50509285926818847656e+00) (41, 6.24495565891265869141e-01) (42, 1.03600585460662841797e+00) (43, 1.40752279758453369141e+00) (44, -2.56292772293090820312e+00) (45, -4.05391216278076171875e-01) (46, -4.84468847513198852539e-01) (47, -2.40152287483215332031e+00) (48, 8.11621308326721191406e-01) (49, -1.81978642940521240234e+00) (50, 1.43131554126739501953e+00) (51, -1.01175510883331298828e+00) (52, -8.27570319175720214844e-01) (53, 8.45412611961364746094e-01) (54, -1.45937466621398925781e+00) (55, 2.60419464111328125000e+00) (56, 3.92952650785446166992e-01) (57, 8.19243609905242919922e-01) (58, -1.52374649047851562500e+00) (59, -1.02856302261352539062e+00) (60, -1.37869930267333984375e+00) (61, 1.74198765307664871216e-02) (62, 5.39058506488800048828e-01) (63, -4.29393386840820312500e+00) (64, -7.49210640788078308105e-02) (65, 1.10279798507690429688e+00) (31, -2.05270481109619140625e+00) (32, 1.30830180644989013672e+00) (33, -6.24545395374298095703e-01) (34, 1.25326323509216308594e+00) (35, 7.60236561298370361328e-01) (36, 1.65332499891519546509e-02) (37, 2.27791115641593933105e-01) (38, 1.99600234627723693848e-01) (39, 2.45731010437011718750e+01) (40, 1.45963287353515625000e+00) (41, 1.82522273063659667969e+00) (42, -7.68648028373718261719e-01) (43, 2.07583829760551452637e-01) (44, 3.79349499940872192383e-01) (45, -2.57431769371032714844e+00) (46, 4.02065575122833251953e-01) (47, -1.05002474784851074219e+00) (48, -4.59287732839584350586e-01) (49, -2.27374866604804992676e-01) (50, -1.22376847267150878906e+00) (51, 1.21239805221557617188e+00) (52, 2.08965331315994262695e-01) (53, -1.53415179252624511719e+00) (54, -9.95504036545753479004e-02) (55, -4.21464949846267700195e-01) (56, 1.45642030239105224609e+00) (57, 2.31654301285743713379e-01) (58, 1.37507498264312744141e+00) (59, -5.14898180961608886719e-01) (60, -1.15220439434051513672e+00) (61, -4.36633437871932983398e-01) (62, -3.13422173261642456055e-01) (63, -1.80385217070579528809e-01) (64, -5.00164151191711425781e-01) (65, 2.43121123313903808594e+00) (31, 3.30839425325393676758e-01) (32, 1.40674874186515808105e-01) (33, -2.95906335115432739258e-01) (34, -8.46757292747497558594e-02) (35, -1.16711115837097167969e+00) (36, -1.53147220611572265625e-01) (37, 1.19917726516723632812e+00) (38, -1.09525239467620849609e+00) (39, -1.36437737941741943359e+00) (40, 6.93834125995635986328e-01) (41, 3.20384025573730468750e-01) (42, 4.26760017871856689453e-01) (43, 9.25844371318817138672e-01) (44, -8.86998474597930908203e-01) (45, 5.29013313353061676025e-02) (46, 1.79120182991027832031e-01) (47, 2.80516147613525390625e-01) (48, 1.74487560987472534180e-01) (49, 2.95548379421234130859e-01) (50, -3.32869619131088256836e-01) (51, -2.21774935722351074219e-01) (52, -5.30036747455596923828e-01) (53, 1.05540037155151367188e+00) (54, 6.72562271356582641602e-02) (55, 1.19080507755279541016e+00) (56, -6.65590390563011169434e-02) (57, -1.15413382649421691895e-01) (58, -9.56482768058776855469e-01) (59, -9.31532606482505798340e-02) (60, -7.79736280441284179688e-01) (61, -5.16248762607574462891e-01) (62, 3.08843217790126800537e-02) (63, -7.03472316265106201172e-01) (64, 9.82233881950378417969e-02) (65, -3.11749517917633056641e-01) (31, 1.45149976015090942383e-01) (32, -8.28645467758178710938e-01) (33, 9.63557183742523193359e-01) (34, -8.35427522659301757812e-01) (35, 2.04621386528015136719e+00) (36, -1.05759847164154052734e+00) (37, 1.73441863059997558594e+00) (38, -1.87844380736351013184e-01) (39, -3.08154182434082031250e+01) (40, 5.26624083518981933594e-01) (41, -7.59303867816925048828e-02) (42, -1.81891888380050659180e-01) (43, 5.48896670341491699219e-01) (44, 1.24229609966278076172e+00) (45, 1.86738467216491699219e+00) (46, 1.08210539817810058594e+00) (47, 3.74742239713668823242e-01) (48, -3.48209857940673828125e-01) (49, 3.40559899806976318359e-01) (50, 1.83312368392944335938e+00) (51, -1.34372279047966003418e-01) (52, -2.14535856246948242188e+00) (53, 6.86452865600585937500e-01) (54, -1.61238878965377807617e-01) (55, 1.48881852626800537109e+00) (56, -1.62607282400131225586e-01) (57, 3.27998965978622436523e-01) (58, -3.30461144447326660156e-01) (59, -2.41360116004943847656e+00) (60, 1.93133378028869628906e+00) (61, -1.07804489135742187500e+00) (62, -4.15133666992187500000e+00) (63, 1.18307089805603027344e+00) (64, 2.85606312751770019531e+00) (65, 3.58227705955505371094e+00) (31, 3.15139800310134887695e-01) (32, 9.93187606334686279297e-01) (33, 2.92057152837514877319e-02) (34, -4.16164994239807128906e-01) (35, -2.41653776168823242188e+00) (36, 1.01513934135437011719e+00) (37, 4.03558373451232910156e-01) (38, -1.37314051389694213867e-01) (39, -3.79944086074829101562e-01) (40, 4.99366559088230133057e-02) (41, -6.69622719287872314453e-01) (42, 6.68008983135223388672e-01) (43, -1.05893509462475776672e-02) (44, -1.23166263103485107422e+00) (45, -2.23947152495384216309e-01) (46, 1.84733524918556213379e-01) (47, -2.90082365274429321289e-01) (48, 2.46814005076885223389e-02) (49, 2.13881397247314453125e+00) (50, 5.76402366161346435547e-01) (51, 9.95549082756042480469e-01) (52, -3.61054509878158569336e-01) (53, 7.03686594963073730469e-01) (54, 1.28910136222839355469e+00) (55, 2.02426552772521972656e-01) (56, 1.53921112418174743652e-01) (57, 1.21102023124694824219e+00) (58, -2.60744869709014892578e-01) (59, -9.88127410411834716797e-01) (60, -2.85885274410247802734e-01) (61, -2.56480336189270019531e-01) (62, -3.31722721457481384277e-02) (63, 1.11787416040897369385e-01) (64, 7.96286940574645996094e-01) (65, 9.89556983113288879395e-02) (31, 4.91354584693908691406e-01) (32, -5.68331003189086914062e-01) (33, -8.08181881904602050781e-01) (34, -2.24944531917572021484e-01) (35, 1.97215652465820312500e+00) (36, -1.30010157823562622070e-01) (37, 3.99018883705139160156e-01) (38, -1.28931033611297607422e+00) (39, 1.34593814611434936523e-01) (40, 1.18131625652313232422e+00) (41, 2.54653573036193847656e-01) (42, -6.37823492288589477539e-02) (43, 4.77741152048110961914e-01) (44, 5.73632597923278808594e-01) (45, 7.03323960304260253906e-01) (46, -2.88035333156585693359e-01) (47, 6.00571334362030029297e-01) (48, 2.17466786503791809082e-01) (49, -2.27350860834121704102e-01) (50, -5.41791200637817382812e-01) (51, 2.68638610839843750000e-01) (52, -1.35119482874870300293e-01) (53, 9.86734926700592041016e-01) (54, -6.97809815406799316406e-01) (55, 1.58331662416458129883e-01) (56, -1.05148887634277343750e+00) (57, -1.79645609855651855469e+00) (58, -8.24495196342468261719e-01) (59, -1.02540165185928344727e-01) (60, -9.13303196430206298828e-01) (61, 1.05326466262340545654e-01) (62, 1.51824802160263061523e-01) (63, -1.19393134117126464844e+00) (64, -5.42339682579040527344e-01) (65, 1.01285114884376525879e-01) (31, 1.51780456304550170898e-01) (32, 2.57484495639801025391e-01) (33, -3.39846968650817871094e-01) (34, -2.30486646294593811035e-01) (35, -1.59346744418144226074e-01) (36, 1.38725504279136657715e-01) (37, 5.59539318084716796875e-01) (38, -2.10192143917083740234e-01) (39, -4.81807328760623931885e-02) (40, 4.57913398742675781250e-01) (41, 7.12746381759643554688e-01) (42, -1.55595421791076660156e-01) (43, 3.60772222280502319336e-01) (44, 9.77106317877769470215e-02) (45, 3.20997178554534912109e-01) (46, 1.19436413049697875977e-01) (47, 6.15691900253295898438e-01) (48, 1.89542487263679504395e-01) (49, 9.94091667234897613525e-03) (50, -8.33401262760162353516e-01) (51, -4.56010103225708007812e-01) (52, -2.09362488240003585815e-02) (53, 9.01495456695556640625e-01) (54, 4.21550162136554718018e-02) (55, 5.91750502586364746094e-01) (56, -1.08320541679859161377e-01) (57, -8.36720108985900878906e-01) (58, -5.64348042011260986328e-01) (59, 4.01998132467269897461e-01) (60, -7.59568274021148681641e-01) (61, -2.83642336726188659668e-02) (62, 2.81843483448028564453e-01) (63, 3.71166586875915527344e-01) (64, 3.43972176313400268555e-01) (65, -3.09102773666381835938e-01) (31, 7.88846611976623535156e-01) (32, -6.63925647735595703125e-01) (33, 1.34725809097290039062e-01) (34, -7.30859935283660888672e-02) (35, 1.02906191349029541016e+00) (36, -7.45610535144805908203e-01) (37, -7.83323466777801513672e-01) (38, 5.01855969429016113281e-01) (39, 2.19181358814239501953e-01) (40, -8.87267410755157470703e-01) (41, -4.48113530874252319336e-01) (42, -2.46571689844131469727e-01) (43, -1.05071830749511718750e+00) (44, 4.60392773151397705078e-01) (45, -3.19271743297576904297e-01) (46, 9.02734518051147460938e-01) (47, -2.84227818250656127930e-01) (48, 1.31339466571807861328e+00) (49, -1.42665004730224609375e+00) (50, 2.52072155475616455078e-01) (51, -6.75643205642700195312e-01) (52, -5.32666360959410667419e-03) (53, -1.05564224720001220703e+00) (54, -1.05691564083099365234e+00) (55, -4.77308750152587890625e-01) (56, -2.40629926323890686035e-01) (57, 2.99865961074829101562e-01) (58, 4.33953285217285156250e-01) (59, 1.37917790561914443970e-02) (60, 4.15415763854980468750e-01) (61, -5.54599702358245849609e-01) (62, -4.66347992420196533203e-01) (63, -3.87186467647552490234e-01) (64, -2.96498894691467285156e-01) (65, -1.20530021190643310547e+00) (31, 2.74696022272109985352e-01) (32, -3.12581270933151245117e-01) (33, 2.47088208794593811035e-01) (34, -1.30085274577140808105e-01) (35, 6.38496816158294677734e-01) (36, -1.47642284631729125977e-01) (37, -3.12120705842971801758e-01) (38, 2.90131837129592895508e-01) (39, 1.18465244770050048828e-01) (40, -4.95255142450332641602e-01) (41, -4.69053268432617187500e-01) (42, 1.23364850878715515137e-01) (43, -6.15789353847503662109e-01) (44, -1.96060519665479660034e-02) (45, -2.22735509276390075684e-01) (46, 5.47170519828796386719e-01) (47, -4.32123541831970214844e-01) (48, 6.71474814414978027344e-01) (49, -3.27155798673629760742e-01) (50, 5.44925272464752197266e-01) (51, 2.54260706901550292969e+00) (52, -2.17746302485466003418e-01) (53, -7.23749399185180664062e-01) (54, -3.90289604663848876953e-01) (55, -4.16144758462905883789e-01) (56, 4.08539064228534698486e-02) (57, 3.35179626941680908203e-01) (58, 3.91482472419738769531e-01) (59, -3.10024350881576538086e-01) (60, 2.93263852596282958984e-01) (61, -4.78161066770553588867e-01) (62, -2.00797915458679199219e-01) (63, -2.28344321250915527344e-01) (64, -1.72738537192344665527e-01) (65, -7.99587249755859375000e-01) (31, -5.28153121471405029297e-01) (32, 1.57347336411476135254e-01) (33, 1.11425650119781494141e+00) (34, -2.49997153878211975098e-02) (35, -1.31313443183898925781e+00) (36, -4.07642006874084472656e-01) (37, -9.42575931549072265625e-02) (38, 9.32572185993194580078e-01) (39, -1.03026282787322998047e+00) (40, -1.22817361354827880859e+00) (41, 2.18208044767379760742e-01) (42, -3.15616935491561889648e-01) (43, -1.85640960931777954102e-01) (44, -1.05482816696166992188e+00) (45, -7.31418550014495849609e-01) (46, -1.03290379047393798828e-01) (47, -7.45336294174194335938e-01) (48, -6.26088559627532958984e-01) (49, -3.08428168296813964844e-01) (50, 8.75339925289154052734e-01) (51, -2.55736619234085083008e-01) (52, 3.60605180263519287109e-01) (53, -1.08518326282501220703e+00) (54, 5.60527265071868896484e-01) (55, 1.58568888902664184570e-01) (56, 1.21218383312225341797e+00) (57, 2.37963008880615234375e+00) (58, 6.22770726680755615234e-01) (59, 4.87066298723220825195e-01) (60, 1.07329905033111572266e+00) (61, 1.16227015852928161621e-01) (62, 4.18588459491729736328e-01) (63, 1.02667713165283203125e+00) (64, 1.15208648145198822021e-01) (65, -2.72220045328140258789e-01) (31, -5.13659536838531494141e-01) (32, 3.59121590852737426758e-01) (33, -3.75357754528522491455e-02) (34, 3.47622931003570556641e-02) (35, -1.15730941295623779297e+00) (36, 3.27164679765701293945e-01) (37, 1.20276403427124023438e+00) (38, -1.10569083690643310547e+00) (39, -6.06609582901000976562e-01) (40, 1.12251818180084228516e+00) (41, -2.68090609461069107056e-02) (42, 5.43397128582000732422e-01) (43, 1.27062499523162841797e+00) (44, -9.71278488636016845703e-01) (45, 5.85322491824626922607e-02) (46, -7.16324090957641601562e-01) (47, -8.06890279054641723633e-02) (48, -9.98277842998504638672e-01) (49, 1.12231957912445068359e+00) (50, 5.73668330907821655273e-02) (51, 4.96666908264160156250e-01) (52, -2.01730623841285705566e-01) (53, 1.16061472892761230469e+00) (54, 5.99757492542266845703e-01) (55, 8.00792396068572998047e-01) (56, 1.88312128186225891113e-01) (57, -1.15065097808837890625e-01) (58, -7.84444391727447509766e-01) (59, -5.08096098899841308594e-01) (60, -7.43043839931488037109e-01) (61, 1.84969455003738403320e-01) (62, 4.21874791383743286133e-01) (63, -3.48027527332305908203e-01) (64, 2.91243791580200195312e-01) (65, 1.72061491012573242188e+00) (31, -4.53205853700637817383e-01) (32, 8.25330674648284912109e-01) (33, -1.54374644160270690918e-01) (34, -1.61465838551521301270e-01) (35, -2.01636552810668945312e+00) (36, 7.98629462718963623047e-01) (37, -3.65532077848911285400e-02) (38, 3.66634488105773925781e-01) (39, -3.35968971252441406250e-01) (40, 6.47755041718482971191e-02) (41, 1.62194386124610900879e-01) (42, -3.69228065013885498047e-01) (43, 4.02413278818130493164e-01) (44, -3.08822333812713623047e-01) (45, -4.21676076948642730713e-02) (46, -4.46857750415802001953e-01) (47, 7.44750976562500000000e-01) (48, -6.84038400650024414062e-01) (49, 1.36423075199127197266e+00) (50, -5.81023156642913818359e-01) (51, 5.97769737243652343750e-01) (52, 6.29462659358978271484e-01) (53, 3.15388679504394531250e-01) (54, 1.15758478641510009766e+00) (55, 1.72553792595863342285e-01) (56, -1.03037625551223754883e-01) (57, 4.45214897394180297852e-01) (58, 2.32405755668878555298e-02) (59, 6.55317485332489013672e-01) (60, -9.50027480721473693848e-02) (61, 3.81801545619964599609e-01) (62, -7.36972212791442871094e-01) (63, 9.25652205944061279297e-01) (64, -6.18127100169658660889e-02) (65, -5.89076340198516845703e-01) (31, 4.94280219078063964844e-01) (32, 2.18952633440494537354e-02) (33, -1.03512060642242431641e+00) (34, -8.01859572529792785645e-02) (35, 1.90837347507476806641e+00) (36, 4.78872925043106079102e-01) (37, 3.56086403131484985352e-01) (38, -1.06051814556121826172e+00) (39, 9.37179327011108398438e-01) (40, 1.27116930484771728516e+00) (41, -2.24451735615730285645e-01) (42, 4.12046074867248535156e-01) (43, 1.45450919866561889648e-01) (44, 1.02284920215606689453e+00) (45, 7.53484785556793212891e-01) (46, 1.17843531072139739990e-01) (47, 7.69595682621002197266e-01) (48, 3.99381995201110839844e-01) (49, 6.53682231903076171875e-01) (50, -7.14101195335388183594e-01) (51, 1.94350272417068481445e-01) (52, -2.99664318561553955078e-01) (53, 1.15238761901855468750e+00) (54, -1.44409000873565673828e-01) (55, -3.90540510416030883789e-02) (56, -9.90191936492919921875e-01) (57, -2.40209126472473144531e+00) (58, -6.05241179466247558594e-01) (59, -3.58337342739105224609e-01) (60, -1.00305843353271484375e+00) (61, -6.09629824757575988770e-02) (62, 1.01562154293060302734e+00) (63, -7.83594608306884765625e-01) (64, -6.73132538795471191406e-02) (65, 1.28669604659080505371e-01) (31, -7.23627626895904541016e-01) (32, 5.13785839080810546875e-01) (33, -1.67655751109123229980e-01) (34, 5.77475093305110931396e-02) (35, -1.06241655349731445312e+00) (36, 6.81492209434509277344e-01) (37, 9.48903739452362060547e-01) (38, -7.34084308147430419922e-01) (39, -2.10738509893417358398e-01) (40, 9.80835378170013427734e-01) (41, 1.72291606664657592773e-01) (42, 3.20253074169158935547e-01) (43, 1.20810234546661376953e+00) (44, -6.71706318855285644531e-01) (45, 1.99249953031539916992e-01) (46, -9.70745384693145751953e-01) (47, 8.55021774768829345703e-02) (48, -1.14833259582519531250e+00) (49, 1.17527484893798828125e+00) (50, -9.35534313321113586426e-02) (51, 5.83016395568847656250e-01) (52, -5.00550158321857452393e-02) (53, 9.86918926239013671875e-01) (54, 8.71652364730834960938e-01) (55, 7.57947981357574462891e-01) (56, 2.60693013668060302734e-01) (57, -2.45828479528427124023e-01) (58, -5.44935047626495361328e-01) (59, -1.58565387129783630371e-01) (60, -6.47857189178466796875e-01) (61, 3.75533640384674072266e-01) (62, 4.72902953624725341797e-01) (63, -7.95452073216438293457e-02) (64, 3.01822841167449951172e-01) (65, 1.67786717414855957031e+00) (31, -1.74084746837615966797e+00) (32, 7.65361607074737548828e-01) (33, 6.58734142780303955078e-01) (34, 7.75625407695770263672e-01) (35, -3.05330038070678710938e-01) (36, 9.88386034965515136719e-01) (37, -4.72767233848571777344e-01) (38, 2.07712364196777343750e+00) (39, 3.93532872200012207031e-01) (40, -1.10943090915679931641e+00) (41, -4.53781485557556152344e-01) (42, -6.38877525925636291504e-02) (43, -6.18748545646667480469e-01) (44, 9.19599711894989013672e-01) (45, 2.09404602646827697754e-02) (46, -9.22562927007675170898e-02) (47, -2.02170446515083312988e-01) (48, -1.54906535148620605469e+00) (49, 6.66363656520843505859e-01) (50, 6.31923437118530273438e-01) (51, 9.63853001594543457031e-01) (52, -6.07797205448150634766e-01) (53, -1.40756845474243164062e+00) (54, 8.62235248088836669922e-01) (55, -8.74741435050964355469e-01) (56, 9.31980311870574951172e-01) (57, -2.65567004680633544922e-01) (58, 1.30294215679168701172e+00) (59, -5.98919689655303955078e-01) (60, 1.50546097755432128906e+00) (61, 2.81584262847900390625e-01) (62, 1.20060319900512695312e+01) (63, 1.96232151985168457031e+00) (64, 9.52061891555786132812e-01) (65, -1.13198041915893554688e+00) (31, -3.13135534524917602539e-01) (32, 1.34084331989288330078e+00) (33, -1.84831187129020690918e-01) (34, -3.66288125514984130859e-01) (35, -3.50712466239929199219e+00) (36, 9.77130651473999023438e-01) (37, -1.44183099269866943359e-01) (38, 4.82178688049316406250e-01) (39, -9.05771255493164062500e-01) (40, -4.96107399463653564453e-01) (41, -1.97923406958580017090e-01) (42, -6.18920207023620605469e-01) (43, -4.53405916690826416016e-01) (44, -8.20403039455413818359e-01) (45, -5.89351594448089599609e-01) (46, -3.35724413394927978516e-01) (47, 8.71009051799774169922e-01) (48, -6.05913817882537841797e-01) (49, 1.34971773624420166016e+00) (50, -5.87372183799743652344e-01) (51, 8.07400606572628021240e-03) (52, 1.23507905006408691406e+00) (53, -3.59708994626998901367e-01) (54, 1.28972136974334716797e+00) (55, 2.11387231945991516113e-01) (56, -1.09625943005084991455e-01) (57, 1.12504279613494873047e+00) (58, 1.94458335638046264648e-01) (59, 1.10756492614746093750e+00) (60, -3.69247719645500183105e-02) (61, 5.38761094212532043457e-02) (62, -1.64781129360198974609e+00) (63, 1.23568952083587646484e+00) (64, -4.83790636062622070312e-01) (65, 3.50412756204605102539e-01) (31, 4.71785694360733032227e-01) (32, -9.32745099067687988281e-01) (33, -2.60732397437095642090e-02) (34, -5.55701218545436859131e-02) (35, 1.21877646446228027344e+00) (36, -1.18898046016693115234e+00) (37, 1.98449358344078063965e-01) (38, -8.68086457252502441406e-01) (39, -7.54588618874549865723e-02) (40, 4.71598088741302490234e-01) (41, -2.26217269897460937500e-01) (42, 1.77941143512725830078e-01) (43, 4.95012402534484863281e-02) (44, -1.11633174121379852295e-01) (45, 7.40652531385421752930e-02) (46, 1.50801554322242736816e-01) (47, -5.47350287437438964844e-01) (48, 6.75959765911102294922e-01) (49, -1.46006345748901367188e+00) (50, 6.54850304126739501953e-02) (51, -7.78636634349822998047e-01) (52, -4.17914628982543945312e-01) (53, -1.23472198843955993652e-01) (54, -1.23775959014892578125e+00) (55, 3.61222773790359497070e-01) (56, -3.16509753465652465820e-01) (57, -6.01879417896270751953e-01) (58, -4.34238970279693603516e-01) (59, -6.48262083530426025391e-01) (60, -3.92610371112823486328e-01) (61, -2.33034223318099975586e-01) (62, 8.04553255438804626465e-02) (63, -1.34602236747741699219e+00) (64, -1.97859369218349456787e-02) (65, 8.16530227661132812500e-01) (31, -6.79595649242401123047e-01) (32, 6.40905380249023437500e-01) (33, -6.35769739747047424316e-02) (34, 2.80150920152664184570e-01) (35, -9.23971652984619140625e-01) (36, 6.74286544322967529297e-01) (37, 6.26166403293609619141e-01) (38, -5.05473017692565917969e-01) (39, -2.84456163644790649414e-01) (40, 7.42189943790435791016e-01) (41, 1.60592824220657348633e-01) (42, 2.75002062320709228516e-01) (43, 9.14299428462982177734e-01) (44, -7.70814418792724609375e-01) (45, 2.36576780676841735840e-01) (46, -1.12265193462371826172e+00) (47, 2.42793202400207519531e-01) (48, -1.17158091068267822266e+00) (49, 1.18968582153320312500e+00) (50, -6.35688155889511108398e-02) (51, 6.99509024620056152344e-01) (52, 8.57681035995483398438e-02) (53, 9.10378217697143554688e-01) (54, 9.86871063709259033203e-01) (55, 5.59537291526794433594e-01) (56, 3.24100375175476074219e-01) (57, -9.70677658915519714355e-02) (58, -4.74212318658828735352e-01) (59, 8.48449468612670898438e-02) (60, -4.28789854049682617188e-01) (61, 6.58229410648345947266e-01) (62, 3.21947969496250152588e-02) (63, 3.03638149052858352661e-02) (64, 1.02074831724166870117e-01) (65, 1.83506512641906738281e+00) (31, 1.59627914428710937500e-01) (32, -1.22055363655090332031e+00) (33, 2.34682857990264892578e-01) (34, 1.34987130761146545410e-01) (35, 2.85829758644104003906e+00) (36, -1.19002485275268554688e+00) (37, -4.92621548473834991455e-02) (38, -1.04253582656383514404e-01) (39, 3.80729548633098602295e-02) (40, 1.94697808474302291870e-02) (41, 3.24855118989944458008e-01) (42, -2.61665999889373779297e-01) (43, 5.64116686582565307617e-02) (44, 8.21849405765533447266e-01) (45, 3.34761887788772583008e-02) (46, -1.01131901144981384277e-01) (47, -5.01784563064575195312e-01) (48, 1.94049298763275146484e-01) (49, -1.48809790611267089844e+00) (50, 3.22605222463607788086e-01) (51, -3.16807538270950317383e-01) (52, -3.00685763359069824219e-01) (53, -1.11535751819610595703e+00) (54, -1.37850308418273925781e+00) (55, 8.39510411024093627930e-02) (56, -1.12842679023742675781e-01) (57, -3.30951511859893798828e-01) (58, 1.61757975816726684570e-01) (59, -4.81543898582458496094e-01) (60, 2.22418665885925292969e-01) (61, 1.44265741109848022461e-01) (62, 1.04957625269889831543e-01) (63, -9.04456853866577148438e-01) (64, -4.29380446672439575195e-01) (65, 8.14030766487121582031e-02) (31, -7.88579523563385009766e-01) (32, 3.13375741243362426758e-01) (33, 9.37614500522613525391e-01) (34, -3.15870583057403564453e-01) (35, 1.38369190692901611328e+00) (36, 1.62094309926033020020e-01) (37, -2.60404676198959350586e-01) (38, -3.75537335872650146484e-01) (39, -5.86602592468261718750e+00) (40, -6.89119696617126464844e-02) (41, 4.09217548370361328125e+00) (42, -2.11584901809692382812e+00) (43, 3.68117153644561767578e-01) (44, 1.71907579898834228516e+00) (45, 3.31991583108901977539e-01) (46, 1.06817841529846191406e-01) (47, 2.97091197967529296875e+00) (48, -9.65374767780303955078e-01) (49, 2.40083057433366775513e-02) (50, -9.62819457054138183594e-01) (51, 2.42935633659362792969e+00) (52, 2.18394112586975097656e+00) (53, -2.77185589075088500977e-01) (54, 1.24925963580608367920e-01) (55, -1.70008525252342224121e-01) (56, -3.06641340255737304688e-01) (57, -3.55631411075592041016e-01) (58, -1.40109375119209289551e-01) (59, 2.04740524291992187500e+00) (60, -8.75194668769836425781e-01) (61, 1.01043927669525146484e+00) (62, -2.38261771202087402344e+00) (63, 1.23111379146575927734e+00) (64, -3.76885128021240234375e+00) (65, -3.92146849632263183594e+00) (31, 6.49150550365447998047e-01) (32, -3.57191175222396850586e-01) (33, -1.12099027633666992188e+00) (34, -7.99703299999237060547e-02) (35, 3.28980326652526855469e-01) (36, -3.56809258460998535156e-01) (37, 5.89319646358489990234e-01) (38, -1.24502515792846679688e+00) (39, 1.78970307111740112305e-01) (40, 1.02572953701019287109e+00) (41, -4.12064909934997558594e-01) (42, 6.23405396938323974609e-01) (43, -2.79238969087600708008e-02) (44, -3.32352370023727416992e-01) (45, 1.63423135876655578613e-01) (46, 4.38341379165649414062e-01) (47, 1.73720464110374450684e-01) (48, 6.53697073459625244141e-01) (49, -5.00838220119476318359e-01) (50, -4.32004570960998535156e-01) (51, -5.49306213855743408203e-01) (52, -4.17836338281631469727e-01) (53, 9.44527804851531982422e-01) (54, -6.99156165122985839844e-01) (55, 4.66292649507522583008e-01) (56, -6.16799533367156982422e-01) (57, -1.24144768714904785156e+00) (58, -9.96222257614135742188e-01) (59, 1.21534764766693115234e-01) (60, -1.14257943630218505859e+00) (61, -5.66127479076385498047e-01) (62, 5.39039254188537597656e-01) (63, -1.42697060108184814453e+00) (64, 1.63891881704330444336e-01) (65, -6.71644955873489379883e-02) (31, -2.35306695103645324707e-01) (32, 3.60328942537307739258e-01) (33, 9.98286843299865722656e-01) (34, 4.13798429071903228760e-02) (35, -2.16551709175109863281e+00) (36, -3.17732065916061401367e-01) (37, 3.70119176805019378662e-02) (38, 4.74281609058380126953e-01) (39, -1.40900111198425292969e+00) (40, -6.66546881198883056641e-01) (41, -7.86005333065986633301e-02) (42, -8.47847834229469299316e-02) (43, -3.28574359416961669922e-01) (44, -1.34928250312805175781e+00) (45, -5.03345906734466552734e-01) (46, 2.04973965883255004883e-01) (47, -7.28987574577331542969e-01) (48, -1.96481347084045410156e-01) (49, -1.49891242384910583496e-01) (50, 3.98926138877868652344e-01) (51, -2.57950007915496826172e-01) (52, 1.98253437876701354980e-01) (53, -4.17976886034011840820e-01) (54, 3.73808324337005615234e-01) (55, 4.27351951599121093750e-01) (56, 7.82158374786376953125e-01) (57, 2.10036253929138183594e+00) (58, 4.63095083832740783691e-02) (59, 7.16459006071090698242e-02) (60, 7.28919923305511474609e-01) (61, -7.50602260231971740723e-02) (62, -1.06028616428375244141e+00) (63, 2.88890302181243896484e-01) (64, 1.04055859148502349854e-01) (65, -5.23553729057312011719e-01) (31, -6.93605601787567138672e-01) (32, -1.01409375667572021484e+00) (33, -9.61507037281990051270e-02) (34, 1.29442358016967773438e+00) (35, -2.44479227066040039062e+00) (36, 8.01760852336883544922e-01) (37, -6.28282189369201660156e-01) (38, -1.77338230609893798828e+00) (39, -6.05377137660980224609e-01) (40, 3.92424553632736206055e-01) (41, -3.75055027008056640625e+00) (42, 1.68303191661834716797e+00) (43, -1.92291736602783203125e+00) (44, 4.47479546070098876953e-01) (45, -5.84238708019256591797e-01) (46, 1.17174282670021057129e-01) (47, 5.27707099914550781250e-01) (48, -1.35036480426788330078e+00) (49, 1.17750811576843261719e+00) (50, 9.51698541641235351562e-01) (51, 3.35899591445922851562e+00) (52, -2.64473259449005126953e-01) (53, 2.36350297927856445312e-01) (54, -1.56387791037559509277e-01) (55, -2.24211716651916503906e+00) (56, -6.96691811084747314453e-01) (57, -1.18871915340423583984e+00) (58, 5.34258842468261718750e-01) (59, 7.78961420059204101562e-01) (60, 2.15939450263977050781e+00) (61, -1.24442923069000244141e+00) (62, -3.04864123463630676270e-02) (63, -7.43943214416503906250e-01) (64, -1.09303247928619384766e+00) (65, 7.61315882205963134766e-01) (31, -5.00963985919952392578e-01) (32, 1.09862875938415527344e+00) (33, 4.89308029413223266602e-01) (34, 2.18825504183769226074e-01) (35, -3.34148383140563964844e+00) (36, 9.25122499465942382812e-01) (37, -2.91240930557250976562e-01) (38, 7.96932876110076904297e-01) (39, -1.17663705348968505859e+00) (40, -6.01608037948608398438e-01) (41, 1.48250535130500793457e-01) (42, -1.60940624773502349854e-02) (43, -7.33611941337585449219e-01) (44, -9.08708691596984863281e-01) (45, -9.00166690349578857422e-01) (46, -2.37424783408641815186e-02) (47, 1.59489646553993225098e-01) (48, -6.01863086223602294922e-01) (49, 1.28808343410491943359e+00) (50, 4.31083887815475463867e-01) (51, -1.85856312513351440430e-01) (52, 9.22341406345367431641e-01) (53, -8.35398316383361816406e-01) (54, 1.38612473011016845703e+00) (55, -7.14393630623817443848e-02) (56, 4.01974171400070190430e-01) (57, 1.28485357761383056641e+00) (58, 6.22018456459045410156e-01) (59, 1.12825834751129150391e+00) (60, 7.74664103984832763672e-01) (61, -1.07358790934085845947e-01) (62, -5.09361028671264648438e-01) (63, 9.61123824119567871094e-01) (64, -4.26392227411270141602e-01) (65, -1.76123175770044326782e-02) (31, -5.29211938381195068359e-01) (32, 6.73832178115844726562e-01) (33, 2.02600628137588500977e-01) (34, 6.72879070043563842773e-02) (35, -1.75222301483154296875e+00) (36, 8.14885795116424560547e-01) (37, 3.94818335771560668945e-02) (38, 8.88198316097259521484e-01) (39, -5.16208291053771972656e-01) (40, -3.40689510107040405273e-01) (41, 5.84066569805145263672e-01) (42, -3.62545073032379150391e-01) (43, -1.11417129635810852051e-01) (44, -3.27655583620071411133e-01) (45, -6.74724936485290527344e-01) (46, -1.28906130790710449219e-01) (47, 3.12036484479904174805e-01) (48, -6.94340407848358154297e-01) (49, 9.78460669517517089844e-01) (50, 3.26457247138023376465e-02) (51, 5.38266956806182861328e-01) (52, 7.50951468944549560547e-01) (53, -5.71522235870361328125e-01) (54, 1.17655527591705322266e+00) (55, -1.35078042745590209961e-01) (56, 4.98757421970367431641e-01) (57, 9.78084802627563476562e-01) (58, 5.72767496109008789062e-01) (59, 8.07071685791015625000e-01) (60, 6.66370868682861328125e-01) (61, 4.99610006809234619141e-02) (62, -6.26586854457855224609e-01) (63, 1.33349716663360595703e+00) (64, -9.40868631005287170410e-02) (65, -3.97260010242462158203e-01) (66, -2.61931657791137695312e-01) (67, 5.89119493961334228516e-01) (68, -2.25177466869354248047e-01) (69, 1.18361108005046844482e-01) (70, -8.45111161470413208008e-02) (71, -1.94145083427429199219e-01) (72, -3.62116843461990356445e-01) (73, 8.74788612127304077148e-02) (74, 1.28044277429580688477e-01) (75, -3.56160074472427368164e-01) (76, -9.61773172020912170410e-02) (77, -4.14517641067504882812e-01) (78, -9.00181680917739868164e-02) (79, 3.48843783140182495117e-01) (80, -3.28927896916866302490e-02) (81, -1.19406676292419433594e+00) (82, 5.40786921977996826172e-01) (83, -5.18461406230926513672e-01) (84, -1.10233879089355468750e+00) (85, -9.81174632906913757324e-02) (86, -1.36288985610008239746e-01) (87, -3.50610822439193725586e-01) (88, 2.60060399770736694336e-01) (89, 4.88585293292999267578e-01) (90, 4.03603576123714447021e-02) (91, -4.54309493303298950195e-01) (92, 2.13368367403745651245e-02) (93, -4.09831814467906951904e-02) (94, -3.92018139362335205078e-01) (95, 8.12617599964141845703e-01) (96, -1.22607378289103507996e-02) (97, -6.13161399960517883301e-02) (98, -3.64868879318237304688e-01) (99, 9.66177582740783691406e-02) (100, -4.34640526771545410156e-01) (101, -2.86410063505172729492e-01) (102, -6.20312429964542388916e-02) (103, 3.39948207139968872070e-01) (104, 2.40673109889030456543e-01) (105, 5.27683235704898834229e-02) (106, -1.67689874768257141113e-01) (66, 1.26265466213226318359e+00) (67, 2.26855754852294921875e+00) (68, -8.56228023767471313477e-02) (69, -1.96661204099655151367e-01) (70, -1.52039021253585815430e-01) (71, 8.82782578468322753906e-01) (72, 1.18109583854675292969e+00) (73, -2.23689451813697814941e-01) (74, -9.52411592006683349609e-01) (75, 9.49307680130004882812e-01) (76, -4.26972389221191406250e-01) (77, 2.07295805215835571289e-01) (78, -1.02728426456451416016e+00) (79, -4.05133694410324096680e-01) (80, -9.32495057582855224609e-01) (81, -1.52635931968688964844e+00) (82, 2.44636750221252441406e+00) (83, 9.51823499053716659546e-03) (84, 7.11810052394866943359e-01) (85, 1.06854009628295898438e+00) (86, -6.91096901893615722656e-01) (87, 6.08048558235168457031e-01) (88, -9.66584324836730957031e-01) (89, 7.58465826511383056641e-02) (90, 9.62231278419494628906e-01) (91, 5.54061770439147949219e-01) (92, 8.08245480060577392578e-01) (93, -4.83231872320175170898e-01) (94, 7.14076220989227294922e-01) (95, 3.13185691833496093750e+00) (96, 2.15354803949594497681e-02) (97, -1.13460576534271240234e+00) (98, 2.02797606587409973145e-01) (99, -1.31996572017669677734e+00) (100, -8.55961799621582031250e+00) (101, -6.24949455261230468750e-01) (102, 2.16993257403373718262e-01) (103, -8.93905878067016601562e-01) (104, 6.53171658515930175781e-01) (105, 1.09737038612365722656e+00) (106, 1.28860878944396972656e+00) (66, 4.28264021873474121094e-01) (67, -8.06043982505798339844e-01) (68, 4.60824519395828247070e-01) (69, -2.66017764806747436523e-01) (70, 5.10149784386157989502e-02) (71, 3.63838076591491699219e-01) (72, 5.78590571880340576172e-01) (73, -8.69660917669534683228e-03) (74, -6.23249351978302001953e-01) (75, 3.37848305702209472656e-01) (76, 1.74231186509132385254e-01) (77, 3.28115046024322509766e-01) (78, 3.21948617696762084961e-01) (79, -4.82528001070022583008e-01) (80, -3.36864024400711059570e-01) (81, 2.48709201812744140625e+00) (82, -2.44865179061889648438e-01) (83, 7.24712252616882324219e-01) (84, 4.20562326908111572266e-01) (85, 6.05140067636966705322e-02) (86, 2.70784407854080200195e-01) (87, 3.55963885784149169922e-01) (88, -3.21929246187210083008e-01) (89, -4.46093410253524780273e-01) (90, -1.59974753856658935547e-01) (91, 5.30925154685974121094e-01) (92, -1.41622737050056457520e-01) (93, 2.27571576833724975586e-01) (94, 3.72560620307922363281e-01) (95, -8.24883580207824707031e-01) (96, -5.15525996685028076172e-01) (97, 8.80595520138740539551e-02) (98, 3.18007826805114746094e-01) (99, 8.62009972333908081055e-02) (100, -2.19710543751716613770e-01) (101, 3.99701356887817382812e-01) (102, -6.86154887080192565918e-02) (103, -5.63447475433349609375e-01) (104, -2.84518599510192871094e-01) (105, -1.39458790421485900879e-01) (106, -1.76749855279922485352e-01) (66, 1.48442965000867843628e-02) (67, -2.00633347034454345703e-01) (68, 1.40806734561920166016e-01) (69, 1.33607268333435058594e-01) (70, 1.08249008655548095703e-01) (71, 1.63787528872489929199e-02) (72, -4.16077561676502227783e-02) (73, -2.48982116580009460449e-01) (74, 1.50672510266304016113e-01) (75, 2.65567630529403686523e-01) (76, -8.29125642776489257812e-02) (77, 4.14124965667724609375e-01) (78, 8.60669557005167007446e-03) (79, -1.04883551597595214844e-01) (80, 3.61724913120269775391e-01) (81, -2.27489411830902099609e-01) (82, 8.24999094009399414062e-01) (83, 8.53639617562294006348e-02) (84, 6.32062864303588867188e+00) (85, -2.35023006796836853027e-01) (86, 1.05966761708259582520e-01) (87, 2.03753635287284851074e-01) (88, -4.40324455499649047852e-01) (89, -2.10041105747222900391e-01) (90, -1.26827076077461242676e-01) (91, 4.13989782333374023438e-01) (92, -2.20057576894760131836e-01) (93, 5.71412816643714904785e-02) (94, 4.16379868984222412109e-01) (95, -2.93379098176956176758e-01) (96, -6.09799809753894805908e-02) (97, 2.53111839294433593750e-01) (98, 4.81284141540527343750e-01) (99, 1.24818272888660430908e-01) (100, 8.51904749870300292969e-01) (101, -7.04842954874038696289e-02) (102, -7.66431912779808044434e-02) (103, -1.69355481863021850586e-01) (104, -2.04480186104774475098e-01) (105, -2.74032711982727050781e-01) (106, 6.98220849037170410156e-01) (66, -2.91818320751190185547e-01) (67, -2.29436323046684265137e-01) (68, -4.78346496820449829102e-02) (69, 1.02655805647373199463e-01) (70, 6.96009919047355651855e-02) (71, -3.98942142724990844727e-01) (72, -1.38971015810966491699e-01) (73, 1.24151930212974548340e-01) (74, 1.07743525505065917969e+00) (75, -5.46843335032463073730e-02) (76, 1.04974508285522460938e-01) (77, -3.85562330484390258789e-01) (78, 1.13848634064197540283e-01) (79, 5.05936853587627410889e-02) (80, 9.54242110252380371094e-01) (81, -7.30511605739593505859e-01) (82, 4.23026037216186523438e+00) (83, -5.52621185779571533203e-01) (84, -1.23605775833129882812e+00) (85, -2.58889496326446533203e-01) (86, 3.83689478039741516113e-02) (87, 1.34682074189186096191e-01) (88, 4.93905961513519287109e-01) (89, 2.23351523280143737793e-01) (90, -5.84126971662044525146e-02) (91, -6.29573047161102294922e-01) (92, 6.19850084185600280762e-02) (93, 8.54829996824264526367e-02) (94, -6.05694770812988281250e-01) (95, 4.82529550790786743164e-01) (96, -1.17531009018421173096e-01) (97, -9.75176915526390075684e-02) (98, -5.20368039608001708984e-01) (99, 8.52990895509719848633e-02) (100, 5.80489993095397949219e-01) (101, -2.96985179185867309570e-01) (102, -1.87229245901107788086e-01) (103, -4.48170810937881469727e-01) (104, 9.80497226119041442871e-02) (105, 8.23868289589881896973e-02) (106, 4.54474776983261108398e-01) (66, -8.78190040588378906250e-01) (67, 3.95293092727661132812e+00) (68, -7.19185352325439453125e-01) (69, 8.33260357379913330078e-01) (70, -1.00926554203033447266e+00) (71, 4.38106395304203033447e-02) (72, -9.97456133365631103516e-01) (73, 9.45186167955398559570e-02) (74, -1.86599314212799072266e-01) (75, -1.08043301105499267578e+00) (76, -9.92629706859588623047e-01) (77, -3.08106362819671630859e-01) (78, -7.28231251239776611328e-01) (79, 8.72415423393249511719e-01) (80, -8.04741561412811279297e-01) (81, -9.80776667594909667969e-01) (82, 1.66826641559600830078e+00) (83, -8.60447525978088378906e-01) (84, 1.35487675666809082031e+00) (85, 2.72484600543975830078e-01) (86, -1.29845273494720458984e+00) (87, -1.09106767177581787109e+00) (88, 9.52159687876701354980e-02) (89, 4.72662121057510375977e-01) (90, 1.10087215900421142578e+00) (91, -2.63559013605117797852e-01) (92, 1.54196366667747497559e-01) (93, -1.04097366333007812500e+00) (94, -1.03549612686038017273e-03) (95, 3.01640725135803222656e+00) (96, 8.13590764999389648438e-01) (97, -7.15726241469383239746e-02) (98, -5.39175383746623992920e-02) (99, -1.70390054583549499512e-01) (100, -2.91613888740539550781e+00) (101, -1.01218128204345703125e+00) (102, 9.18036639690399169922e-01) (103, 3.50366860628128051758e-01) (104, 1.01780641078948974609e+00) (105, 5.14492452144622802734e-01) (106, 2.01077789068222045898e-01) (66, 1.18556335568428039551e-01) (67, -2.02688872814178466797e-01) (68, -1.32383212447166442871e-01) (69, 1.02485232055187225342e-01) (70, -7.39128738641738891602e-02) (71, 2.19437390565872192383e-01) (72, 4.23104502260684967041e-02) (73, -2.50202029943466186523e-01) (74, 2.85464469343423843384e-02) (75, 5.09815104305744171143e-02) (76, -9.63825583457946777344e-02) (77, 3.27242612838745117188e-01) (78, -9.76929441094398498535e-03) (79, -8.80427833180874586105e-04) (80, -9.08470898866653442383e-02) (81, -1.31421491503715515137e-01) (82, 1.06173078529536724091e-03) (83, 1.19042433798313140869e-01) (84, 9.06342506408691406250e-01) (85, 1.15239985287189483643e-01) (86, 6.14007636904716491699e-02) (87, 9.37792472541332244873e-03) (88, -2.79853314161300659180e-01) (89, -1.52766466140747070312e-01) (90, -1.68576896190643310547e-01) (91, 3.89908999204635620117e-01) (92, 1.93885445594787597656e-01) (93, -5.62750995159149169922e-02) (94, 2.78491467237472534180e-01) (95, -3.07060897350311279297e-01) (96, -2.49046385288238525391e-02) (97, -4.24522235989570617676e-02) (98, 4.10655975341796875000e-01) (99, -9.34373736381530761719e-02) (100, 4.20881032943725585938e+00) (101, -1.37074634432792663574e-01) (102, 3.58107686042785644531e-02) (103, 7.09049999713897705078e-02) (104, -7.83136188983917236328e-02) (105, 9.19794738292694091797e-02) (106, 4.26206290721893310547e-01) (66, -2.58772581815719604492e-01) (67, -2.67727792263031005859e-01) (68, 9.74840149283409118652e-02) (69, -3.76724481582641601562e-01) (70, 5.05075335502624511719e-01) (71, 4.85218055546283721924e-02) (72, -5.38319014012813568115e-02) (73, 8.75560566782951354980e-02) (74, 1.17286920547485351562e+00) (75, 2.73662675172090530396e-02) (76, 4.49367284774780273438e-01) (77, -2.92053759098052978516e-01) (78, 3.35218429565429687500e-01) (79, 3.55810746550559997559e-02) (80, 9.97906386852264404297e-01) (81, -8.58891546726226806641e-01) (82, 1.12628608942031860352e-01) (83, -4.86938208341598510742e-01) (84, -3.83311891555786132812e+00) (85, -4.86245691776275634766e-01) (86, 2.76069134473800659180e-01) (87, 1.31127998232841491699e-01) (88, 2.52851575613021850586e-01) (89, 1.77405372262001037598e-01) (90, -4.79764074087142944336e-01) (91, -4.72264260053634643555e-01) (92, -1.42646104097366333008e-01) (93, 4.17746424674987792969e-01) (94, -3.47914576530456542969e-01) (95, -2.17358469963073730469e-01) (96, -5.06906032562255859375e-01) (97, 3.25318306684494018555e-01) (98, -2.36215829849243164062e-01) (99, 2.17063784599304199219e-01) (100, 2.04082816839218139648e-01) (101, 1.84059813618659973145e-01) (102, -5.92000186443328857422e-01) (103, -1.00100457668304443359e+00) (104, -7.05476880073547363281e-01) (105, -4.55307722091674804688e-01) (106, -7.51146674156188964844e-02) (66, 4.14146691560745239258e-01) (67, 1.95014464855194091797e+00) (68, 2.49614730477333068848e-01) (69, -2.74150937795639038086e-01) (70, 1.07292439788579940796e-02) (71, 1.42178130149841308594e+00) (72, 3.80193322896957397461e-01) (73, -1.10784602165222167969e+00) (74, -2.22437286376953125000e+00) (75, 6.12777061760425567627e-02) (76, -1.70272327959537506104e-02) (77, 1.23204147815704345703e+00) (78, 1.20692506432533264160e-01) (79, -4.24406416714191436768e-02) (80, -1.71541452407836914062e+00) (81, 1.91343402862548828125e+00) (82, 2.63012886047363281250e+00) (83, 4.66247320175170898438e-01) (84, -9.02161538600921630859e-01) (85, 1.20212292671203613281e+00) (86, -2.35326021909713745117e-01) (87, 6.33570551872253417969e-02) (88, -1.73638010025024414062e+00) (89, -5.81379711627960205078e-01) (90, 4.39542949199676513672e-01) (91, 1.86850190162658691406e+00) (92, 3.94405126571655273438e-01) (93, -1.04500539600849151611e-01) (94, 1.67792904376983642578e+00) (95, 7.64073073863983154297e-01) (96, -3.75088721513748168945e-01) (97, 3.26760746538639068604e-02) (98, 1.56540334224700927734e+00) (99, -6.58999323844909667969e-01) (100, -2.39671111106872558594e+00) (101, -3.85004766285419464111e-02) (102, 1.84808462858200073242e-01) (103, 3.43744345009326934814e-02) (104, -5.99353790283203125000e-01) (105, 1.57360695302486419678e-02) (106, -1.24881416559219360352e-01) (66, -3.91203254461288452148e-01) (67, 2.91305512189865112305e-01) (68, -6.90018892288208007812e-01) (69, 4.96959060430526733398e-01) (70, -7.65286564826965332031e-01) (71, -4.62596118450164794922e-01) (72, -4.27277684211730957031e-01) (73, 5.21220564842224121094e-01) (74, -6.26029670238494873047e-01) (75, -7.66088247299194335938e-01) (76, -5.24027109146118164062e-01) (77, -5.87069988250732421875e-01) (78, -8.11814010143280029297e-01) (79, 4.13156688213348388672e-01) (80, -1.90093898773193359375e+00) (81, -5.79375147819519042969e-01) (82, -3.24310326576232910156e+00) (83, -2.34730541706085205078e-01) (84, 1.63904345035552978516e+00) (85, 2.16043448448181152344e+00) (86, -1.02307617664337158203e+00) (87, -4.54926460981369018555e-01) (88, 5.97754359245300292969e-01) (89, 6.81743979454040527344e-01) (90, 4.97194886207580566406e-01) (91, -4.40597534179687500000e-01) (92, 3.94277870655059814453e-01) (93, -6.64871215820312500000e-01) (94, -5.00943422317504882812e-01) (95, -1.43400502204895019531e+00) (96, 1.64092755317687988281e+00) (97, -3.86721521615982055664e-01) (98, -4.59880083799362182617e-01) (99, -1.02301454544067382812e+00) (100, -5.89143812656402587891e-01) (101, -5.38780391216278076172e-01) (102, 1.41681599617004394531e+00) (103, -4.91205751895904541016e-01) (104, -8.91501363366842269897e-03) (105, -5.50313591957092285156e-02) (106, -6.35599374771118164062e-01) (66, 2.92057842016220092773e-01) (67, 1.31441250443458557129e-01) (68, -7.72309228777885437012e-02) (69, 1.84372350573539733887e-01) (70, 8.49438086152076721191e-02) (71, 5.10193169116973876953e-01) (72, 8.01059976220130920410e-02) (73, -4.89264786243438720703e-01) (74, -3.26213389635086059570e-01) (75, 1.46753892302513122559e-01) (76, -8.33393260836601257324e-02) (77, 5.16711294651031494141e-01) (78, -1.76802992820739746094e-01) (79, -5.52516505122184753418e-02) (80, -2.88511872291564941406e-01) (81, 4.51703548431396484375e-01) (82, 3.59963588416576385498e-02) (83, 7.19722136855125427246e-02) (84, 2.14824008941650390625e+00) (85, 1.87072306871414184570e-01) (86, 7.30606913566589355469e-02) (87, 6.87743276357650756836e-02) (88, -4.85166460275650024414e-01) (89, -2.87211090326309204102e-01) (90, 7.12131010368466377258e-03) (91, 5.70725500583648681641e-01) (92, 2.72201180458068847656e-01) (93, -3.08153368532657623291e-02) (94, 4.87056374549865722656e-01) (95, 1.76696367561817169189e-02) (96, 2.67072189599275588989e-02) (97, -1.78314045071601867676e-01) (98, 5.73060691356658935547e-01) (99, -2.16717600822448730469e-01) (100, 8.99017810821533203125e+00) (101, -1.00179791450500488281e-01) (102, 3.33882905542850494385e-02) (103, 2.18347981572151184082e-01) (104, -1.20729031041264533997e-02) (105, 3.14098507165908813477e-01) (106, 1.36198782920837402344e+00) (66, 2.35372617840766906738e-01) (67, -1.02422559261322021484e+00) (68, 2.80986428260803222656e-01) (69, -5.16189873218536376953e-01) (70, 9.07171964645385742188e-01) (71, -6.76751434803009033203e-01) (72, 1.13710179924964904785e-01) (73, 3.30348163843154907227e-01) (74, 1.13783061504364013672e+00) (75, 4.34473961591720581055e-01) (76, 5.65989911556243896484e-01) (77, -1.39334306120872497559e-01) (78, 4.63896542787551879883e-01) (79, -8.59027877449989318848e-02) (80, 4.82007861137390136719e-01) (81, -5.07065236568450927734e-01) (82, -3.69766545295715332031e+00) (83, -1.57773524522781372070e-01) (84, 1.95313906669616699219e+00) (85, -7.78117835521697998047e-01) (86, 1.14614582061767578125e+00) (87, 1.33496627211570739746e-01) (88, 4.54985857009887695312e-01) (89, 7.65796974301338195801e-02) (90, -1.26870787143707275391e+00) (91, -3.46329152584075927734e-01) (92, -4.06021982431411743164e-01) (93, 1.30545949935913085938e+00) (94, -3.67310732603073120117e-01) (95, -1.61329519748687744141e+00) (96, -9.24446284770965576172e-01) (97, 4.81694459915161132812e-01) (98, -4.52663600444793701172e-01) (99, 7.97205209732055664062e-01) (100, 1.24550700187683105469e+00) (101, 5.18332660198211669922e-01) (102, -9.96334016323089599609e-01) (103, -8.35047543048858642578e-01) (104, -1.74200785160064697266e+00) (105, -6.60049080848693847656e-01) (106, 3.30109477043151855469e-01) (66, -9.27758142352104187012e-02) (67, 1.64752379059791564941e-01) (68, 1.63282342255115509033e-02) (69, 9.70407128334045410156e-02) (70, 2.79521316289901733398e-01) (71, -4.89120453596115112305e-01) (72, -1.73747614026069641113e-01) (73, 1.84925064444541931152e-01) (74, 9.30645704269409179688e-01) (75, -1.86591640114784240723e-01) (76, 2.01267331838607788086e-01) (77, -2.77272671461105346680e-01) (78, -6.30051549524068832397e-03) (79, 8.95624086260795593262e-02) (80, 5.07513403892517089844e-01) (81, 6.23875081539154052734e-01) (82, 2.33218717575073242188e+00) (83, -4.86128598451614379883e-01) (84, -4.81727942824363708496e-02) (85, -5.88106095790863037109e-01) (86, 2.47342288494110107422e-01) (87, -1.34538663551211357117e-02) (88, 3.34012091159820556641e-01) (89, 3.53181213140487670898e-02) (90, -2.92479157447814941406e-01) (91, -4.14320558309555053711e-01) (92, -6.40376329421997070312e-01) (93, 3.86901199817657470703e-01) (94, -3.64268004894256591797e-01) (95, 5.72306334972381591797e-01) (96, -1.37585175037384033203e+00) (97, 5.41626036167144775391e-01) (98, -5.58350503444671630859e-01) (99, 8.51652562618255615234e-01) (100, -5.30832946300506591797e-01) (101, -1.10759109258651733398e-01) (102, -6.71041011810302734375e-01) (103, -9.26413357257843017578e-01) (104, -6.54624104499816894531e-01) (105, -5.28690278530120849609e-01) (106, 1.14105425775051116943e-01) (66, 3.32058638334274291992e-01) (67, -6.27946972846984863281e-01) (68, 2.12622284889221191406e-01) (69, -1.54448047280311584473e-01) (70, 2.95268148183822631836e-01) (71, 4.69373643398284912109e-01) (72, 2.03239113092422485352e-01) (73, -4.29381042718887329102e-01) (74, 1.70526728034019470215e-01) (75, 2.65046447515487670898e-01) (76, 2.72412449121475219727e-01) (77, 5.94756484031677246094e-01) (78, 1.88243880867958068848e-01) (79, -2.09002032876014709473e-01) (80, 4.59564507007598876953e-01) (81, 4.85483765602111816406e-01) (82, -9.95722830295562744141e-01) (83, 7.39807486534118652344e-01) (84, 3.54660654067993164062e+00) (85, -9.03775468468666076660e-02) (86, 2.40394905209541320801e-01) (87, 2.49039530754089355469e-01) (88, -9.39077496528625488281e-01) (89, -8.61760377883911132812e-01) (90, -3.74652087688446044922e-01) (91, 1.15706467628479003906e+00) (92, 1.08908955007791519165e-02) (93, 2.20871344208717346191e-01) (94, 9.65773165225982666016e-01) (95, -9.14604604244232177734e-01) (96, 1.35593682527542114258e-01) (97, -1.77515875548124313354e-02) (98, 4.59205776453018188477e-01) (99, 1.66796222329139709473e-02) (100, 1.08222401142120361328e+00) (101, 1.78650096058845520020e-01) (102, -2.03703820705413818359e-01) (103, -8.83206576108932495117e-02) (104, -5.97258992493152618408e-02) (105, -1.11259140074253082275e-01) (106, -1.41208922863006591797e+00) (66, -4.70878839492797851562e-01) (67, 4.29182678461074829102e-01) (68, -1.96058258414268493652e-01) (69, 2.69457161426544189453e-01) (70, -1.47961527109146118164e-01) (71, -6.44054651260375976562e-01) (72, -4.30064648389816284180e-01) (73, 3.11572104692459106445e-01) (74, 7.43861019611358642578e-01) (75, -3.55731159448623657227e-01) (76, -4.34235744178295135498e-02) (77, -8.16729366779327392578e-01) (78, -5.76586760580539703369e-02) (79, 3.33853721618652343750e-01) (80, 5.14031529426574707031e-01) (81, -1.06164383888244628906e+00) (82, 3.16917270421981811523e-01) (83, -6.63329720497131347656e-01) (84, -8.78729641437530517578e-01) (85, -3.25151532888412475586e-01) (86, -1.25671103596687316895e-01) (87, -2.98597276210784912109e-01) (88, 7.03547120094299316406e-01) (89, 4.03464317321777343750e-01) (90, 9.20814350247383117676e-02) (91, -1.06805968284606933594e+00) (92, -1.66593387722969055176e-01) (93, -1.46685943007469177246e-01) (94, -8.31620454788208007812e-01) (95, 6.13350927829742431641e-01) (96, -6.36655613780021667480e-02) (97, 2.18090228736400604248e-02) (98, -6.86194419860839843750e-01) (99, 1.44381180405616760254e-01) (100, 7.07406848669052124023e-02) (101, -4.30993378162384033203e-01) (102, -9.07268375158309936523e-02) (103, -2.76766628026962280273e-01) (104, 2.57244706153869628906e+00) (105, -1.02841146290302276611e-01) (106, -9.59130644798278808594e-01) (66, 3.33526730537414550781e-01) (67, -5.55801808834075927734e-01) (68, 6.21668815612792968750e-01) (69, -6.37374103069305419922e-01) (70, 5.94125688076019287109e-01) (71, 2.78037190437316894531e-01) (72, 3.01653385162353515625e-01) (73, 6.82901740074157714844e-02) (74, -1.09069061279296875000e+00) (75, 1.73061728477478027344e-01) (76, 4.24707651138305664062e-01) (77, 3.91006857156753540039e-01) (78, 6.71705365180969238281e-01) (79, -4.34960722923278808594e-01) (80, -1.00724613666534423828e+00) (81, 3.25023269653320312500e+00) (82, -9.32215988636016845703e-01) (83, 5.25545179843902587891e-01) (84, -1.66906431317329406738e-01) (85, -3.92386168241500854492e-02) (86, 6.70603096485137939453e-01) (87, 1.82796180248260498047e-01) (88, -1.89036265015602111816e-01) (89, -1.80455148220062255859e-01) (90, -7.40117430686950683594e-01) (91, 4.36473131179809570312e-01) (92, -3.38313072919845581055e-01) (93, 8.18572759628295898438e-01) (94, 4.18595045804977416992e-01) (95, -1.79817712306976318359e+00) (96, -6.58707618713378906250e-01) (97, 2.64667063951492309570e-01) (98, 1.48185566067695617676e-01) (99, 2.79031991958618164062e-01) (100, -8.20696771144866943359e-01) (101, 8.19009661674499511719e-01) (102, -5.95732033252716064453e-01) (103, 9.11371856927871704102e-02) (104, -7.25411176681518554688e-01) (105, -3.96497696638107299805e-01) (106, 2.47656539082527160645e-01) (66, 4.98795419931411743164e-01) (67, 5.82199878990650177002e-02) (68, 2.64237880706787109375e-01) (69, 2.32494845986366271973e-02) (70, -1.60017833113670349121e-01) (71, 1.31513571739196777344e+00) (72, 5.35152375698089599609e-01) (73, -7.40698158740997314453e-01) (74, -8.59074234962463378906e-01) (75, 3.82513374090194702148e-01) (76, -7.75974467396736145020e-02) (77, 8.37062835693359375000e-01) (78, -2.96544097363948822021e-02) (79, -4.37685400247573852539e-01) (80, -2.00902268290519714355e-01) (81, 4.11729693412780761719e-01) (82, 1.89641964435577392578e+00) (83, 8.56505632400512695312e-01) (84, -1.92312371730804443359e+00) (85, 9.23246800899505615234e-01) (86, -3.08522135019302368164e-01) (87, 5.30440211296081542969e-01) (88, -1.29714965820312500000e+00) (89, -7.32844293117523193359e-01) (90, 6.37440204620361328125e-01) (91, 1.55724132061004638672e+00) (92, 8.33303153514862060547e-01) (93, -5.97104251384735107422e-01) (94, 1.51615726947784423828e+00) (95, -5.73079586029052734375e-01) (96, 1.43913042545318603516e+00) (97, -4.75512593984603881836e-01) (98, 1.30097901821136474609e+00) (99, -1.34263849258422851562e+00) (100, -1.36718153953552246094e+00) (101, 2.18639314174652099609e-01) (102, 4.98221874237060546875e-01) (103, 1.12726044654846191406e+00) (104, 1.07643544673919677734e+00) (105, 3.78971487283706665039e-01) (106, -2.13156551122665405273e-01) (66, -1.43092960119247436523e-01) (67, -3.54344397783279418945e-01) (68, -5.88246807456016540527e-02) (69, 7.22716525197029113770e-02) (70, -5.26149392127990722656e-01) (71, 7.78657913208007812500e-01) (72, -8.71020779013633728027e-02) (73, -8.22947263717651367188e-01) (74, -2.14371532201766967773e-01) (75, 1.49433493614196777344e-01) (76, -3.82129400968551635742e-02) (77, 2.34541058540344238281e-01) (78, -1.14554598927497863770e-01) (79, -1.07768349349498748779e-01) (80, 5.81441164016723632812e-01) (81, -8.44856142997741699219e-01) (82, -1.63795495033264160156e+00) (83, 1.76138266921043395996e-01) (84, 8.50425541400909423828e-01) (85, 4.43382263183593750000e-01) (86, -4.65793907642364501953e-01) (87, 1.03835433721542358398e-01) (88, -4.96361881494522094727e-01) (89, -2.40413293242454528809e-01) (90, 3.22793185710906982422e-01) (91, 3.32183003425598144531e-01) (92, 1.37701559066772460938e+00) (93, -4.31120932102203369141e-01) (94, 4.19396013021469116211e-01) (95, 6.75100609660148620605e-02) (96, 2.16881084442138671875e+00) (97, -9.93417918682098388672e-01) (98, 5.29943764209747314453e-01) (99, -1.49999225139617919922e+00) (100, 9.60701763629913330078e-01) (101, 1.68403208255767822266e-01) (102, 6.91132009029388427734e-01) (103, 1.25980019569396972656e+00) (104, 2.29811239242553710938e+00) (105, 9.50188815593719482422e-01) (106, -3.38852167129516601562e-01) (66, 5.87900340557098388672e-01) (67, -4.16064083576202392578e-01) (68, 3.03376466035842895508e-01) (69, -3.90898019075393676758e-01) (70, 5.29790148138999938965e-02) (71, 6.98891043663024902344e-01) (72, 5.45778155326843261719e-01) (73, -1.96778297424316406250e-01) (74, -1.10972809791564941406e+00) (75, 5.33783078193664550781e-01) (76, 3.18592518568038940430e-01) (77, 6.38093292713165283203e-01) (78, 5.55055029690265655518e-02) (79, -4.93491530418395996094e-01) (80, -7.99087703227996826172e-01) (81, 8.60441803932189941406e-01) (82, -1.22369146347045898438e+00) (83, 8.93277764320373535156e-01) (84, 2.40212440490722656250e+00) (85, 3.99063736200332641602e-01) (86, 8.91158282756805419922e-02) (87, 3.05198103189468383789e-01) (88, -6.25364303588867187500e-01) (89, -5.70352256298065185547e-01) (90, -9.68486592173576354980e-02) (91, 9.44817960262298583984e-01) (92, 1.77357792854309082031e-01) (93, 2.84271657466888427734e-01) (94, 6.92414581775665283203e-01) (95, -2.74897694587707519531e-01) (96, -1.27402737736701965332e-01) (97, -1.91983699798583984375e-01) (98, 5.49746692180633544922e-01) (99, -3.82656902074813842773e-01) (100, -3.51649284362792968750e-01) (101, 5.23201763629913330078e-01) (102, -1.05411857366561889648e-01) (103, 1.43045186996459960938e-01) (104, -1.32441565394401550293e-01) (105, 3.05009111762046813965e-02) (106, -3.10254096984863281250e-01) (66, 2.58871138095855712891e-01) (67, -1.26193046569824218750e-01) (68, 1.82129502296447753906e-01) (69, 8.50486978888511657715e-02) (70, 2.38116532564163208008e-01) (71, -5.84117369726300239563e-04) (72, 1.13974891602993011475e-01) (73, 1.65580600500106811523e-01) (74, 5.53910613059997558594e-01) (75, 7.23588913679122924805e-02) (76, -1.10845282673835754395e-01) (77, 4.23102796077728271484e-01) (78, 8.59057754278182983398e-02) (79, -5.84225766360759735107e-02) (80, 7.86302685737609863281e-01) (81, 5.52044868469238281250e+00) (82, -8.74641120433807373047e-01) (83, 3.74712347984313964844e-01) (84, 4.64465999603271484375e+00) (85, -2.90151536464691162109e-01) (86, 1.83693543076515197754e-01) (87, 1.32751613855361938477e-01) (88, -3.34329277276992797852e-01) (89, -4.93619471788406372070e-01) (90, -1.24979980289936065674e-01) (91, 2.88987696170806884766e-01) (92, -7.05007463693618774414e-02) (93, 3.10743656009435653687e-02) (94, 4.52251851558685302734e-01) (95, -7.71122574806213378906e-01) (96, -1.14477314054965972900e-01) (97, 2.29606300592422485352e-01) (98, 4.87980157136917114258e-01) (99, 2.41971239447593688965e-01) (100, 5.33368885517120361328e-01) (101, -1.20982468128204345703e-01) (102, -2.31868773698806762695e-01) (103, -1.23760116100311279297e+00) (104, -1.79404869675636291504e-01) (105, -6.16656877100467681885e-02) (106, 3.73802602291107177734e-01) (66, 3.99987310171127319336e-01) (67, -9.17578697204589843750e-01) (68, 1.05019234120845794678e-01) (69, 2.33717992901802062988e-01) (70, -2.16380283236503601074e-01) (71, 6.96612834930419921875e-01) (72, 4.80648368597030639648e-01) (73, -3.19817543029785156250e-01) (74, -9.46698486804962158203e-01) (75, 1.66938230395317077637e-01) (76, -1.35432273149490356445e-01) (77, 3.95757436752319335938e-01) (78, 3.11584565788507461548e-02) (79, -4.40994769334793090820e-01) (80, -8.20639908313751220703e-01) (81, 9.22997474670410156250e-01) (82, -1.34314763545989990234e+00) (83, 8.99809658527374267578e-01) (84, 2.00694155693054199219e+00) (85, 5.97948968410491943359e-01) (86, -7.25695341825485229492e-02) (87, 2.38200202584266662598e-01) (88, -5.08790552616119384766e-01) (89, -4.04021948575973510742e-01) (90, 2.43735879659652709961e-01) (91, 6.59749984741210937500e-01) (92, 4.63973760604858398438e-01) (93, -2.86065369844436645508e-01) (94, 6.10115170478820800781e-01) (95, -1.10460031032562255859e+00) (96, 5.09549021720886230469e-01) (97, -1.86133906245231628418e-01) (98, 5.12892067432403564453e-01) (99, -4.34653759002685546875e-01) (100, 4.69968877732753753662e-02) (101, 4.76251840591430664062e-01) (102, 6.10382020473480224609e-01) (103, -1.10553413629531860352e-01) (104, 8.28768685460090637207e-02) (105, 7.04763159155845642090e-02) (106, -7.12782680988311767578e-01) (66, -1.99891597032546997070e-01) (67, -1.27634322270750999451e-02) (68, 4.80991229414939880371e-02) (69, 9.35448799282312393188e-03) (70, -6.20126165449619293213e-02) (71, -2.46766969561576843262e-01) (72, -1.11186401918530464172e-02) (73, 6.99594840407371520996e-02) (74, 1.97344735264778137207e-01) (75, -7.51648703590035438538e-03) (76, 1.06154188513755798340e-01) (77, -3.26879709959030151367e-01) (78, -1.97045579552650451660e-02) (79, 6.64400532841682434082e-02) (80, 5.31162954866886138916e-02) (81, 1.10478308051824569702e-02) (82, 6.25513315200805664062e-01) (83, -2.57069677114486694336e-01) (84, -4.08724355697631835938e+00) (85, -1.09347067773342132568e-01) (86, 1.36224934831261634827e-02) (87, -6.04330524802207946777e-02) (88, 4.92219567298889160156e-01) (89, 2.46558487415313720703e-01) (90, 1.78533717989921569824e-01) (91, -3.11069577932357788086e-01) (92, -3.80394682288169860840e-02) (93, 1.48825226351618766785e-02) (94, -3.63589078187942504883e-01) (95, 3.44665437936782836914e-01) (96, -3.77520471811294555664e-02) (97, -2.12205499410629272461e-02) (98, -5.31250476837158203125e-01) (99, 1.84552967548370361328e-01) (100, -5.00903546810150146484e-01) (101, 6.97733908891677856445e-02) (102, 2.74728257209062576294e-02) (103, -2.55711138248443603516e-01) (104, -1.04821473360061645508e-01) (105, 3.20846103131771087646e-02) (106, -4.50230211019515991211e-01) (66, 6.20525702834129333496e-02) (67, -2.02783495187759399414e-01) (68, -6.97677135467529296875e-02) (69, -1.10690064728260040283e-01) (70, 5.61869218945503234863e-02) (71, 1.24698929488658905029e-01) (72, 1.26469507813453674316e-01) (73, 8.63336771726608276367e-02) (74, -2.15838640928268432617e-01) (75, 1.78933553397655487061e-02) (76, 8.36018770933151245117e-02) (77, 3.84077690541744232178e-02) (78, -5.76439052820205688477e-02) (79, -4.53142598271369934082e-02) (80, 7.84581303596496582031e-02) (81, -3.35856109857559204102e-01) (82, -3.05253815650939941406e+00) (83, 3.65223646163940429688e-01) (84, 1.30901813507080078125e+00) (85, 3.24718430638313293457e-02) (86, -4.09386381506919860840e-02) (87, 5.48295341432094573975e-02) (88, -1.61190599203109741211e-01) (89, -8.06528776884078979492e-02) (90, 3.07238399982452392578e-02) (91, 2.57218033075332641602e-01) (92, -1.67899310588836669922e-01) (93, 1.37436658143997192383e-01) (94, 2.00924545526504516602e-01) (95, 1.91303319297730922699e-03) (96, -9.85594764351844787598e-02) (97, 2.18775331974029541016e-01) (98, 4.11904975771903991699e-02) (99, 1.96961150504648685455e-03) (100, 7.84971296787261962891e-01) (101, 2.31133773922920227051e-01) (102, -4.63751852512359619141e-02) (103, -1.75538629293441772461e-01) (104, -1.87071472406387329102e-01) (105, -1.79546579718589782715e-01) (106, -3.07911694049835205078e-01) (66, -6.74445331096649169922e-01) (67, 9.20797407627105712891e-01) (68, -3.50695133209228515625e-01) (69, 4.19385433197021484375e-01) (70, -1.22966751456260681152e-01) (71, -4.38800305128097534180e-01) (72, -7.22847223281860351562e-01) (73, 4.68788519501686096191e-02) (74, 9.97971534729003906250e-01) (75, -4.04482126235961914062e-01) (76, -2.95308947563171386719e-01) (77, -5.99086165428161621094e-01) (78, -3.21011781692504882812e-01) (79, 5.62106013298034667969e-01) (80, 3.77280026674270629883e-01) (81, -7.45684444904327392578e-01) (82, -3.35382509231567382812e+00) (83, -1.14139211177825927734e+00) (84, -1.27503645420074462891e+00) (85, -1.98980733752250671387e-01) (86, -2.17330247163772583008e-01) (87, -4.49723243713378906250e-01) (88, 3.76163125038146972656e-01) (89, 5.43936371803283691406e-01) (90, 2.13485375046730041504e-01) (91, -7.91798472404479980469e-01) (92, -3.27423922717571258545e-02) (93, -2.19859063625335693359e-01) (94, -4.82964217662811279297e-01) (95, 1.05058348178863525391e+00) (96, -6.71057701110839843750e-02) (97, -7.16468021273612976074e-02) (98, -3.51795941591262817383e-01) (99, 2.68665611743927001953e-01) (100, -6.22509121894836425781e-01) (101, -4.87639278173446655273e-01) (102, -2.34415248036384582520e-01) (103, -3.50728750228881835938e-01) (104, 3.40525098145008087158e-02) (105, 8.25278609991073608398e-02) (106, -1.30711090564727783203e+00) (66, -1.00352481007575988770e-01) (67, 5.62228262424468994141e-01) (68, -1.44112244248390197754e-01) (69, 2.53086477518081665039e-01) (70, 1.87561988830566406250e-01) (71, -6.78991913795471191406e-01) (72, -3.86099994182586669922e-01) (73, 4.43502724170684814453e-01) (74, 9.40182209014892578125e-01) (75, -4.56154197454452514648e-01) (76, -1.56012713909149169922e-01) (77, 4.03791517019271850586e-02) (78, -1.95955932140350341797e-01) (79, 4.34561163187026977539e-01) (80, 3.85256350040435791016e-01) (81, 8.99965763092041015625e-01) (82, 9.83299016952514648438e-01) (83, -3.10352116823196411133e-01) (84, 3.03218543529510498047e-01) (85, -7.45730519294738769531e-01) (86, 2.63501540757715702057e-03) (87, -4.58325415849685668945e-01) (88, 3.53101372718811035156e-01) (89, 3.90206992626190185547e-01) (90, 3.67983942851424217224e-03) (91, -2.12413266301155090332e-01) (92, -7.47950971126556396484e-01) (93, 1.82199925184249877930e-01) (94, -1.28696992993354797363e-01) (95, 1.13515540957450866699e-01) (96, -1.08656644821166992188e+00) (97, 4.85665172338485717773e-01) (98, -2.17583000659942626953e-01) (99, 1.05862033367156982422e+00) (100, -6.57177746295928955078e-01) (101, -5.06465733051300048828e-01) (102, -4.71984088420867919922e-01) (103, -3.23961645364761352539e-01) (104, -1.84614673256874084473e-01) (105, -2.47074335813522338867e-01) (106, 1.20912981033325195312e+00) (66, 6.82756721973419189453e-01) (67, -5.85869550704956054688e-01) (68, 5.17412424087524414062e-01) (69, -4.97355490922927856445e-01) (70, 2.34725102782249450684e-01) (71, 4.89923506975173950195e-01) (72, 5.17954528331756591797e-01) (73, -3.51708710193634033203e-01) (74, -9.30436372756958007812e-01) (75, 3.86760115623474121094e-01) (76, 3.88092786073684692383e-01) (77, 4.90440279245376586914e-01) (78, 3.40035229921340942383e-01) (79, -4.44318592548370361328e-01) (80, -3.62095206975936889648e-01) (81, 1.95904111862182617188e+00) (82, -5.56265190243721008301e-02) (83, 8.07187855243682861328e-01) (84, 5.36712527275085449219e-01) (85, 2.78760373592376708984e-01) (86, 2.67730623483657836914e-01) (87, 3.04544419050216674805e-01) (88, -4.70763355493545532227e-01) (89, -6.52652978897094726562e-01) (90, -2.16665670275688171387e-01) (91, 6.91494882106781005859e-01) (92, 1.65860503911972045898e-02) (93, 4.96527016162872314453e-01) (94, 5.21696865558624267578e-01) (95, -6.65387272834777832031e-01) (96, -3.17819297313690185547e-01) (97, -1.62110254168510437012e-02) (98, 4.22756463289260864258e-01) (99, -1.19232580065727233887e-01) (100, -4.10296797752380371094e-01) (101, 6.56099319458007812500e-01) (102, -1.78337603807449340820e-01) (103, 4.45590108633041381836e-01) (104, -1.08921483159065246582e-01) (105, -1.49463117122650146484e-01) (106, 5.59737347066402435303e-02) (66, -1.35941997170448303223e-01) (67, -1.64843931794166564941e-01) (68, -2.80902031809091567993e-02) (69, -5.18244914710521697998e-02) (70, -6.87657296657562255859e-02) (71, -4.99964863061904907227e-01) (72, -1.49841666221618652344e-01) (73, 4.65423166751861572266e-01) (74, 2.16387733817100524902e-01) (75, -6.26167282462120056152e-02) (76, 6.42607361078262329102e-02) (77, -6.48807466030120849609e-01) (78, 7.01170861721038818359e-02) (79, -5.96237331628799438477e-02) (80, 3.76109093427658081055e-01) (81, -3.38223099708557128906e-01) (82, 2.12560296058654785156e-01) (83, -1.14923827350139617920e-02) (84, -2.14668011665344238281e+00) (85, -2.23376527428627014160e-01) (86, -4.40624505281448364258e-02) (87, -3.14302332699298858643e-02) (88, 5.87034523487091064453e-01) (89, 2.25964233279228210449e-01) (90, 8.36711004376411437988e-02) (91, -7.13116407394409179688e-01) (92, -2.51837909221649169922e-01) (93, -5.91568648815155029297e-02) (94, -5.89206576347351074219e-01) (95, -8.36433544754981994629e-02) (96, -5.94132691621780395508e-02) (97, 2.70160764455795288086e-01) (98, -6.79905891418457031250e-01) (99, 1.63905575871467590332e-01) (100, -9.59416770935058593750e+00) (101, 1.10077477991580963135e-01) (102, 6.95073679089546203613e-02) (103, -2.87066251039505004883e-01) (104, 3.73993478715419769287e-02) (105, -1.61329582333564758301e-01) (106, -1.32603943347930908203e+00) (66, -4.03373539447784423828e-01) (67, 2.30577850341796875000e+00) (68, 5.34017741680145263672e-01) (69, 1.66116327047348022461e-01) (70, 1.24563944339752197266e+00) (71, 1.50121307373046875000e+00) (72, -3.59511412680149078369e-02) (73, -1.50388985872268676758e-01) (74, -2.05131697654724121094e+00) (75, -1.05494379997253417969e+00) (76, -7.32094705104827880859e-01) (77, 2.38749235868453979492e-01) (78, 5.45689761638641357422e-01) (79, 4.86688524484634399414e-01) (80, -2.81329917907714843750e+00) (81, 5.88357973098754882812e+00) (82, 4.01533603668212890625e+00) (83, 4.04941529035568237305e-01) (84, -1.91498458385467529297e+00) (85, 2.28494954109191894531e+00) (86, 1.72588694095611572266e+00) (87, -6.05402052402496337891e-01) (88, -7.29818880558013916016e-01) (89, 7.18000590801239013672e-01) (90, -1.39862632751464843750e+00) (91, 1.49460911750793457031e+00) (92, 1.18330216407775878906e+00) (93, 1.92566788196563720703e+00) (94, 9.01335358619689941406e-01) (95, -1.61432659626007080078e+00) (96, 1.64576733112335205078e+00) (97, -1.20900440216064453125e+00) (98, 7.33015656471252441406e-01) (99, -8.27719390392303466797e-01) (100, -5.00416851043701171875e+00) (101, -7.51889824867248535156e-01) (102, -1.24567949771881103516e+00) (103, 8.48703682422637939453e-01) (104, 1.43434357643127441406e+00) (105, 1.29093825817108154297e+00) (106, 1.47949159145355224609e+00) (66, 6.16076755523681640625e+00) (67, -9.59087967872619628906e-01) (68, 5.50210893154144287109e-01) (69, -6.19414687156677246094e-01) (70, 7.77941346168518066406e-01) (71, 3.91593247652053833008e-01) (72, 1.02638435363769531250e+00) (73, -1.66891396045684814453e-01) (74, -8.18307161331176757812e-01) (75, 6.10818266868591308594e-01) (76, 8.15071761608123779297e-01) (77, 3.35275828838348388672e-01) (78, 7.21662104129791259766e-01) (79, -2.78996884822845458984e-01) (80, -7.26607963442802429199e-02) (81, 4.57933425903320312500e-01) (82, -3.68346548080444335938e+00) (83, 4.59480106830596923828e-01) (84, 4.77564668655395507812e+00) (85, 1.68474182486534118652e-01) (86, 9.29404497146606445312e-01) (87, 3.21455746889114379883e-01) (88, -3.33343893289566040039e-01) (89, -2.76674926280975341797e-01) (90, -1.32850015163421630859e+00) (91, 1.24971255660057067871e-01) (92, 1.60200551152229309082e-01) (93, 1.12846279144287109375e+00) (94, 3.33269536495208740234e-01) (95, -1.21923887729644775391e+00) (96, -2.96324789524078369141e-01) (97, -1.35915324091911315918e-01) (98, 2.87038296461105346680e-01) (99, -2.22357645630836486816e-01) (100, 7.58986473083496093750e-01) (101, 8.47839176654815673828e-01) (102, -7.71482646465301513672e-01) (103, 8.85548353195190429688e-01) (104, -4.18530285358428955078e-01) (105, -2.04797863960266113281e-01) (106, 7.79362082481384277344e-01) (66, 4.52813118696212768555e-01) (67, 8.23955178260803222656e-01) (68, 1.57883584499359130859e-01) (69, -2.15873075649142265320e-03) (70, 2.73016840219497680664e-01) (71, 1.62413269281387329102e-02) (72, 3.96878331899642944336e-01) (73, -4.62085194885730743408e-03) (74, -6.62915632128715515137e-02) (75, 1.29860341548919677734e-01) (76, -8.62736403942108154297e-02) (77, 2.08582878112792968750e-02) (78, 1.68581139296293258667e-02) (79, -2.54499930888414382935e-02) (80, -2.43649035692214965820e-01) (81, 2.17180937528610229492e-01) (82, -3.90479660034179687500e+00) (83, 3.05235981941223144531e-01) (84, 3.24113988876342773438e+00) (85, -1.90283264964818954468e-02) (86, 2.21545845270156860352e-01) (87, 4.96438518166542053223e-02) (88, 1.71828072052448987961e-03) (89, -1.00873403251171112061e-01) (90, 2.32118949294090270996e-01) (91, 1.56359285116195678711e-01) (92, -1.80466547608375549316e-01) (93, 1.53984278440475463867e-01) (94, 1.50435715913772583008e-01) (95, 1.39073893427848815918e-01) (96, -2.63222783803939819336e-01) (97, 2.55488067865371704102e-01) (98, 1.75933875143527984619e-02) (99, 1.28595590591430664062e-01) (100, 9.11980509757995605469e-01) (101, -1.53953164815902709961e-01) (102, -1.75686120986938476562e-01) (103, -3.36472004652023315430e-01) (104, -5.58708012104034423828e-01) (105, -1.57917082309722900391e-01) (106, -2.89971530437469482422e-01) (66, 2.76547491550445556641e-01) (67, -6.84367001056671142578e-01) (68, 4.00145858526229858398e-01) (69, -5.76618731021881103516e-01) (70, 7.35059201717376708984e-01) (71, 6.85777096077799797058e-03) (72, 2.21622884273529052734e-01) (73, 2.21461579203605651855e-01) (74, -5.99901795387268066406e-01) (75, 4.72788542509078979492e-01) (76, 6.36461198329925537109e-01) (77, 1.60596638917922973633e-01) (78, 4.49982076883316040039e-01) (79, -3.98526608943939208984e-01) (80, 5.43488636612892150879e-02) (81, 3.50118875503540039062e-01) (82, 3.26071357727050781250e+00) (83, 1.15754734724760055542e-02) (84, -5.76572835445404052734e-01) (85, 9.10108257085084915161e-03) (86, 7.17125296592712402344e-01) (87, 3.22060823440551757812e-01) (88, -2.08301141858100891113e-01) (89, 2.32271701097488403320e-02) (90, -1.05451595783233642578e+00) (91, 1.43994152545928955078e-01) (92, -7.75604844093322753906e-01) (93, 9.19604420661926269531e-01) (94, 1.29755347967147827148e-01) (95, -1.30348682403564453125e+00) (96, -1.47508192062377929688e+00) (97, 6.93716406822204589844e-01) (98, -1.07364371418952941895e-01) (99, 4.50231879949569702148e-01) (100, -9.02104556560516357422e-01) (101, 6.23207569122314453125e-01) (102, -9.85699832439422607422e-01) (103, -1.05219140648841857910e-01) (104, -7.58545517921447753906e-01) (105, -1.01437199115753173828e+00) (106, -2.09476221352815628052e-02) (66, -1.89390275627374649048e-02) (67, -1.44220113754272460938e-01) (68, 2.77075171470642089844e-01) (69, -2.71637946367263793945e-01) (70, 2.09132060408592224121e-01) (71, -6.73717379570007324219e-01) (72, 1.14347990602254867554e-02) (73, 5.60074687004089355469e-01) (74, -9.93547365069389343262e-02) (75, 1.28961950540542602539e-01) (76, 6.68036758899688720703e-01) (77, -3.52849662303924560547e-01) (78, 4.14152413606643676758e-01) (79, -2.32700660824775695801e-01) (80, -3.39641332626342773438e-01) (81, 4.20248210430145263672e-01) (82, -1.61877679824829101562e+00) (83, 2.94574350118637084961e-01) (84, 1.35126435756683349609e+00) (85, -5.86136341094970703125e-01) (86, 4.25991237163543701172e-01) (87, 7.26295076310634613037e-03) (88, 5.23768961429595947266e-01) (89, 8.36891457438468933105e-02) (90, -1.59203037619590759277e-01) (91, -4.08939629793167114258e-01) (92, -8.68278145790100097656e-01) (93, 1.43804103136062622070e-01) (94, -4.64092701673507690430e-01) (95, -2.20493227243423461914e-01) (96, -1.20921456813812255859e+00) (97, 1.05716788768768310547e+00) (98, -6.01311385631561279297e-01) (99, 9.12269592285156250000e-01) (100, 2.33251184225082397461e-01) (101, 3.79165351390838623047e-01) (102, -3.46163474023342132568e-02) (103, -1.03313541412353515625e+00) (104, -1.31015825271606445312e+00) (105, -1.13972365856170654297e+00) (106, -9.67875301837921142578e-01) (66, 9.99983668327331542969e-01) (67, -1.92245006561279296875e+00) (68, 5.74848532676696777344e-01) (69, -7.11415350437164306641e-01) (70, 7.94260442256927490234e-01) (71, 8.26324522495269775391e-01) (72, 1.30505120754241943359e+00) (73, -3.28169554471969604492e-01) (74, 5.58923818171024322510e-02) (75, 1.51035225391387939453e+00) (76, 6.76019310951232910156e-01) (77, 7.84511327743530273438e-01) (78, 5.88408887386322021484e-01) (79, -1.00402212142944335938e+00) (80, 3.17515544593334197998e-02) (81, 7.71102249622344970703e-01) (82, 2.46962404251098632812e+00) (83, 9.71656441688537597656e-01) (84, -4.99896109104156494141e-01) (85, 2.58741915225982666016e-01) (86, 8.57870519161224365234e-01) (87, 1.17983376979827880859e+00) (88, -7.90819466114044189453e-01) (89, -9.23126518726348876953e-01) (90, -1.02700042724609375000e+00) (91, 8.51975142955780029297e-01) (92, 4.50905650854110717773e-01) (93, 8.99522364139556884766e-01) (94, 8.08936595916748046875e-01) (95, -1.03570687770843505859e+00) (96, 7.65256360173225402832e-02) (97, -1.84837609529495239258e-01) (98, 6.06396615505218505859e-01) (99, -5.95824301242828369141e-01) (100, 3.04412573575973510742e-01) (101, 7.99890875816345214844e-01) (102, -7.92515099048614501953e-01) (103, -4.87329512834548950195e-01) (104, -3.14212292432785034180e-01) (105, 8.31261649727821350098e-02) (106, 3.20077180862426757812e-01) (66, 5.70383250713348388672e-01) (67, -2.47299051284790039062e+00) (68, 5.87924420833587646484e-01) (69, -3.50468337535858154297e-01) (70, 4.97362226247787475586e-01) (71, 1.74139887094497680664e-02) (72, 6.76009833812713623047e-01) (73, 6.63802260532975196838e-03) (74, 1.15381348133087158203e+00) (75, 7.17078983783721923828e-01) (76, 6.04804396629333496094e-01) (77, 2.59482204914093017578e-01) (78, 6.76204741001129150391e-01) (79, -6.78341507911682128906e-01) (80, 1.44570946693420410156e+00) (81, 7.33614444732666015625e-01) (82, -1.14626693725585937500e+00) (83, 7.09570288658142089844e-01) (84, 4.85013097524642944336e-01) (85, -3.32255691289901733398e-01) (86, 6.57702982425689697266e-01) (87, 6.56466007232666015625e-01) (88, -7.08319321274757385254e-02) (89, -6.69419586658477783203e-01) (90, -4.69105929136276245117e-01) (91, 9.91939529776573181152e-02) (92, -1.02468907833099365234e-01) (93, 2.91761726140975952148e-01) (94, -5.44997714459896087646e-02) (95, -8.12938153743743896484e-01) (96, -3.80120337009429931641e-01) (97, 3.12031030654907226562e-01) (98, -4.51988686108961701393e-04) (99, 7.21204429864883422852e-02) (100, 5.79944133758544921875e+00) (101, 4.35393750667572021484e-01) (102, -2.76933461427688598633e-01) (103, -1.53381180763244628906e+00) (104, -7.36348628997802734375e-01) (105, -5.58200001716613769531e-01) (106, -5.41953921318054199219e-01) (66, 4.80785816907882690430e-01) (67, -1.31840741634368896484e+00) (68, 6.52159929275512695312e-01) (69, -8.07409822940826416016e-01) (70, 9.01951372623443603516e-01) (71, -1.47471446543931961060e-02) (72, 3.32173407077789306641e-01) (73, 2.98261284828186035156e-01) (74, -4.94199126958847045898e-01) (75, 7.02633202075958251953e-01) (76, 9.19983386993408203125e-01) (77, -2.80956208705902099609e-01) (78, 8.90392363071441650391e-01) (79, -5.72111070156097412109e-01) (80, 2.24685352295637130737e-02) (81, 9.11732077598571777344e-01) (82, -1.02401375770568847656e+00) (83, 4.05300319194793701172e-01) (84, 6.48858785629272460938e-01) (85, -1.22658401727676391602e-01) (86, 1.14107203483581542969e+00) (87, 4.01396989822387695312e-01) (88, 1.74237951636314392090e-01) (89, -8.84740799665451049805e-02) (90, -1.36239576339721679688e+00) (91, -2.32758641242980957031e-01) (92, -1.43779203295707702637e-01) (93, 1.40949535369873046875e+00) (94, -2.07142397761344909668e-01) (95, -5.87369263172149658203e-01) (96, -6.81207239627838134766e-01) (97, 2.93079167604446411133e-01) (98, -3.93114000558853149414e-01) (99, 2.09601104259490966797e-01) (100, 1.04206979274749755859e+00) (101, 8.00037860870361328125e-01) (102, -1.11251223087310791016e+00) (103, 1.64531752467155456543e-01) (104, -8.01585197448730468750e-01) (105, -5.47682642936706542969e-01) (106, 1.64186179637908935547e-01) (66, 6.10804334282875061035e-02) (67, -8.08495402336120605469e-01) (68, -4.73848022520542144775e-02) (69, -3.49711030721664428711e-01) (70, 2.09786266088485717773e-01) (71, -1.16666093468666076660e-01) (72, 9.27311778068542480469e-02) (73, 1.02116608619689941406e+00) (74, -1.56622493267059326172e+00) (75, -6.28903687000274658203e-01) (76, 4.10069048404693603516e-01) (77, -3.33871804177761077881e-02) (78, 3.16057443618774414062e-01) (79, -4.66922447085380554199e-02) (80, -3.02753686904907226562e+00) (81, 1.68181741237640380859e+00) (82, 5.20337152481079101562e+00) (83, 6.48307800292968750000e-01) (84, -1.38286423683166503906e+00) (85, -4.15195941925048828125e-01) (86, 1.19611255824565887451e-01) (87, -3.50357294082641601562e-01) (88, 6.07276558876037597656e-01) (89, 6.06140971183776855469e-01) (90, -1.45206436514854431152e-01) (91, 1.75078779458999633789e-01) (92, -1.11049497127532958984e+00) (93, 3.69613915681838989258e-01) (94, -2.99161881208419799805e-01) (95, -7.51714050769805908203e-01) (96, -1.63381659984588623047e+00) (97, 1.40974509716033935547e+00) (98, -3.81125450134277343750e-01) (99, 9.38338756561279296875e-01) (100, -1.12083721160888671875e+00) (101, 9.25249993801116943359e-01) (102, -6.73725157976150512695e-02) (103, -1.22813868522644042969e+00) (104, -1.26528644561767578125e+00) (105, -1.26986324787139892578e+00) (106, 7.90599107742309570312e-01) (66, 4.21955525875091552734e-01) (67, -8.98815035820007324219e-01) (68, 7.61430919170379638672e-01) (69, -6.14977240562438964844e-01) (70, 6.84409260749816894531e-01) (71, -1.84417277574539184570e-01) (72, 4.91084575653076171875e-01) (73, 6.50008916854858398438e-01) (74, -9.85588967800140380859e-01) (75, 1.77213087677955627441e-01) (76, 2.58823394775390625000e-01) (77, -1.72474518418312072754e-01) (78, 1.04175686836242675781e+00) (79, -6.12013280391693115234e-01) (80, -1.72275876998901367188e+00) (81, 3.75736284255981445312e+00) (82, -1.45587468147277832031e+00) (83, 9.24135148525238037109e-01) (84, 1.69814419746398925781e+00) (85, 9.09622162580490112305e-02) (86, 1.07092511653900146484e+00) (87, 7.43213146924972534180e-02) (88, 4.00912404060363769531e-01) (89, 2.43239015340805053711e-01) (90, -5.82671046257019042969e-01) (91, 8.46386551856994628906e-02) (92, -7.17949330806732177734e-01) (93, 6.95932149887084960938e-01) (94, -1.67969629168510437012e-01) (95, -1.55499505996704101562e+00) (96, -1.37287914752960205078e+00) (97, 1.36553823947906494141e+00) (98, -4.88547295331954956055e-01) (99, 8.03315699100494384766e-01) (100, -2.19778697937726974487e-02) (101, 1.24975991249084472656e+00) (102, -4.48901057243347167969e-01) (103, -6.98066890239715576172e-01) (104, -1.47281157970428466797e+00) (105, -1.24201107025146484375e+00) (106, -1.61100399494171142578e+00) (66, -1.95743858814239501953e-01) (67, -2.37064242362976074219e-01) (68, 1.31499961018562316895e-01) (69, -2.18906000256538391113e-01) (70, 2.04578086733818054199e-01) (71, -6.57371163368225097656e-01) (72, -3.85457016527652740479e-02) (73, 5.12712776660919189453e-01) (74, 6.24858796596527099609e-01) (75, 1.91183090209960937500e-01) (76, 2.93172955513000488281e-01) (77, -8.36048007011413574219e-01) (78, 9.35442820191383361816e-02) (79, -2.23638907074928283691e-01) (80, 5.39420306682586669922e-01) (81, -6.59634411334991455078e-01) (82, 7.53336325287818908691e-02) (83, -1.93702682852745056152e-01) (84, -2.14387083053588867188e+00) (85, -4.91218775510787963867e-01) (86, 6.22726716101169586182e-02) (87, -2.95501649379730224609e-02) (88, 8.42803597450256347656e-01) (89, 3.51622760295867919922e-01) (90, -6.90023938659578561783e-04) (91, -1.03773474693298339844e+00) (92, -3.61135274171829223633e-01) (93, 2.50081062316894531250e-01) (94, -8.49410295486450195312e-01) (95, 4.12818998098373413086e-01) (96, -3.81251484155654907227e-01) (97, 2.78161734342575073242e-01) (98, -8.04890751838684082031e-01) (99, 2.46987596154212951660e-01) (100, -1.01166982650756835938e+01) (101, 2.06236794590950012207e-01) (102, -1.59914404153823852539e-01) (103, -5.25936186313629150391e-01) (104, -1.86193898320198059082e-01) (105, -2.73432821035385131836e-01) (106, -1.62329757213592529297e+00) (66, -3.37874650955200195312e-01) (67, -3.09408642351627349854e-02) (68, -5.23657053709030151367e-02) (69, -9.46929156780242919922e-02) (70, -1.05244465172290802002e-01) (71, -5.13219177722930908203e-01) (72, -2.94191241264343261719e-01) (73, 5.68549215793609619141e-01) (74, 3.67168694734573364258e-01) (75, -2.58152872323989868164e-01) (76, 5.41083514690399169922e-02) (77, -5.71202397346496582031e-01) (78, 1.42616555094718933105e-01) (79, -8.68090540170669555664e-02) (80, 3.20917636156082153320e-01) (81, -2.55323559045791625977e-01) (82, -2.06283047795295715332e-01) (83, -1.94302111864089965820e-01) (84, -1.04187762737274169922e+00) (85, -3.43038022518157958984e-01) (86, -1.23842172324657440186e-02) (87, -1.47815749049186706543e-01) (88, 6.39514088630676269531e-01) (89, 3.47558617591857910156e-01) (90, 1.23954035341739654541e-01) (91, -7.38517224788665771484e-01) (92, -3.67651283740997314453e-01) (93, 3.93610243918374180794e-04) (94, -6.41806364059448242188e-01) (95, 2.57271409034729003906e-01) (96, -2.55606204271316528320e-01) (97, 2.23468467593193054199e-01) (98, -5.93044757843017578125e-01) (99, 2.06034496426582336426e-01) (100, -1.33280715942382812500e+01) (101, 8.88376682996749877930e-02) (102, -2.99453064799308776855e-02) (103, -2.32045948505401611328e-01) (104, -2.48148717219009995461e-04) (105, -2.61240303516387939453e-01) (106, -1.36904036998748779297e+00) (66, -1.67834043502807617188e-01) (67, 4.39172595739364624023e-01) (68, -1.38802647590637207031e-01) (69, 1.53526857495307922363e-01) (70, -1.76773369312286376953e-02) (71, -2.59791404008865356445e-01) (72, -1.26278355717658996582e-01) (73, 1.85870721936225891113e-01) (74, 3.97505402565002441406e-01) (75, -1.59589260816574096680e-01) (76, -1.11984677612781524658e-01) (77, -5.79843044281005859375e-01) (78, -4.43423762917518615723e-02) (79, 2.11207717657089233398e-01) (80, 1.47075921297073364258e-01) (81, -6.40650987625122070312e-01) (82, 5.95213413238525390625e-01) (83, -3.46750110387802124023e-01) (84, -1.23883855342864990234e+00) (85, -2.28389762341976165771e-02) (86, -1.09870888292789459229e-01) (87, -1.48565635085105895996e-01) (88, 3.98195803165435791016e-01) (89, 3.65614116191864013672e-01) (90, 1.58777937293052673340e-01) (91, -6.73767149448394775391e-01) (92, 2.63030803762376308441e-03) (93, -7.82642364501953125000e-02) (94, -4.49278682470321655273e-01) (95, 5.38792312145233154297e-01) (96, -1.08105525374412536621e-01) (97, -4.67572547495365142822e-02) (98, -5.54676055908203125000e-01) (99, 6.08119033277034759521e-02) (100, 2.03496068716049194336e-01) (101, -3.39015185832977294922e-01) (102, 3.41165065765380859375e-02) (103, -1.62078782916069030762e-01) (104, 6.71935006976127624512e-02) (105, 1.47081479430198669434e-01) (106, -1.19569754600524902344e+00) (66, 3.12280058860778808594e-01) (67, 1.37062108516693115234e+00) (68, 9.63788628578186035156e-02) (69, -7.10826337337493896484e-01) (70, 1.22918047010898590088e-01) (71, 9.14228200912475585938e-01) (72, -9.44549276027828454971e-04) (73, -3.89322131872177124023e-01) (74, -1.76538431644439697266e+00) (75, 1.58700540661811828613e-01) (76, 5.57777881622314453125e-01) (77, 5.01621186733245849609e-01) (78, 6.20492622256278991699e-02) (79, -1.37736991047859191895e-01) (80, -1.48213040828704833984e+00) (81, -3.87374460697174072266e-01) (82, 1.31507098674774169922e+00) (83, 1.42138168215751647949e-01) (84, -7.29653954505920410156e-01) (85, 7.29548454284667968750e-01) (86, 1.73223204910755157471e-02) (87, 1.92459985613822937012e-01) (88, -8.44563543796539306641e-01) (89, -2.35524728894233703613e-01) (90, -3.09897631406784057617e-01) (91, 1.07673871517181396484e+00) (92, 5.19556961953639984131e-02) (93, 4.43946391344070434570e-01) (94, 8.30896019935607910156e-01) (95, 9.67480719089508056641e-01) (96, -5.12939810752868652344e-01) (97, -1.43596172332763671875e-01) (98, 8.70189905166625976562e-01) (99, -4.08056825399398803711e-01) (100, -1.82316374778747558594e+00) (101, 7.30936586856842041016e-01) (102, -2.82353520393371582031e-01) (103, -2.82103568315505981445e-01) (104, -8.14576983451843261719e-01) (105, -7.79221117496490478516e-01) (106, 1.33473083376884460449e-01) (66, -7.14415371417999267578e-01) (67, 1.57443606853485107422e+00) (68, -1.11781024932861328125e+00) (69, 9.89857733249664306641e-01) (70, -8.75130832195281982422e-01) (71, -2.88248211145401000977e-01) (72, -1.92343318462371826172e+00) (73, 2.53063831478357315063e-02) (74, 8.78831863403320312500e-01) (75, -8.11578929424285888672e-01) (76, -1.40224516391754150391e+00) (77, -4.83737140893936157227e-01) (78, -1.00205147266387939453e+00) (79, 8.52985620498657226562e-01) (80, 1.13325402140617370605e-01) (81, -1.98293721675872802734e+00) (82, -2.57241785526275634766e-01) (83, -4.46134775876998901367e-01) (84, 6.01867079734802246094e-01) (85, 3.92600536346435546875e-01) (86, -1.14738547801971435547e+00) (87, -7.43201017379760742188e-01) (88, 5.71800053119659423828e-01) (89, 4.83257353305816650391e-01) (90, 1.06212639808654785156e+00) (91, -4.75241065025329589844e-01) (92, 1.98789432644844055176e-01) (93, -1.16941773891448974609e+00) (94, -4.94773209095001220703e-01) (95, -6.31691396236419677734e-01) (96, 6.90734922885894775391e-01) (97, -3.64554554224014282227e-01) (98, -3.27085524797439575195e-01) (99, 2.67719360999763011932e-03) (100, 3.58800858259201049805e-01) (101, -1.15975320339202880859e+00) (102, 9.42394912242889404297e-01) (103, -1.88431963324546813965e-01) (104, 4.83869433403015136719e-01) (105, 2.56714999675750732422e-01) (106, -9.46761071681976318359e-01) (66, 3.65532711148262023926e-02) (67, 8.92562150955200195312e-01) (68, -2.20033869147300720215e-01) (69, -5.62708616256713867188e-01) (70, 6.64089441299438476562e-01) (71, -1.10182892531156539917e-02) (72, -3.03275555372238159180e-01) (73, -7.23383247852325439453e-01) (74, 1.23160898685455322266e+00) (75, 2.61564347892999649048e-02) (76, 7.20432817935943603516e-01) (77, 5.48211991786956787109e-01) (78, 3.36321592330932617188e-01) (79, -6.36198595166206359863e-02) (80, 7.27304577827453613281e-01) (81, 3.50964546203613281250e-01) (82, 2.57306885719299316406e+00) (83, -4.74827587604522705078e-01) (84, -1.85655260086059570312e+00) (85, -6.97117090225219726562e-01) (86, 5.37089228630065917969e-01) (87, 1.90433282405138015747e-02) (88, -4.87213492393493652344e-01) (89, 1.31338790059089660645e-01) (90, -7.79633879661560058594e-01) (91, 2.94078230857849121094e-01) (92, -1.88094452023506164551e-02) (93, 7.65070140361785888672e-01) (94, 2.51736551523208618164e-01) (95, 3.03010225296020507812e+00) (96, -9.12631273269653320312e-01) (97, -2.23095387220382690430e-01) (98, 3.19109916687011718750e-01) (99, 7.05539047718048095703e-01) (100, -1.71324431896209716797e+00) (101, 1.38145133852958679199e-01) (102, -1.05746233463287353516e+00) (103, -9.08963978290557861328e-02) (104, -6.95501625537872314453e-01) (105, -3.07836830615997314453e-01) (106, 1.10099899768829345703e+00) (66, -4.65110719203948974609e-01) (67, 1.40742504596710205078e+00) (68, -5.94147205352783203125e-01) (69, 1.02424168586730957031e+00) (70, -1.37394225597381591797e+00) (71, 3.38867872953414916992e-01) (72, -3.91490131616592407227e-01) (73, -4.31698054075241088867e-01) (74, -6.78221344947814941406e-01) (75, -8.07895600795745849609e-01) (76, -1.37483024597167968750e+00) (77, 5.95084428787231445312e-01) (78, -3.87147128582000732422e-01) (79, 2.45262593030929565430e-01) (80, -8.77603173255920410156e-01) (81, 6.20410144329071044922e-01) (82, -1.02631175518035888672e+00) (83, 2.52244472503662109375e-01) (84, 1.21580399572849273682e-01) (85, 2.17398062348365783691e-01) (86, -1.24462711811065673828e+00) (87, -6.17293834686279296875e-01) (88, -2.74265855550765991211e-01) (89, 1.41770631074905395508e-01) (90, 1.68903672695159912109e+00) (91, 5.70535242557525634766e-01) (92, 1.97454228997230529785e-01) (93, -1.82664370536804199219e+00) (94, 5.12133955955505371094e-01) (95, 5.77591478824615478516e-01) (96, 1.10258555412292480469e+00) (97, 2.12877154350280761719e-01) (98, 7.73718595504760742188e-01) (99, -1.49626672267913818359e-01) (100, 1.21142044663429260254e-01) (101, -4.61296796798706054688e-01) (102, 1.71756219863891601562e+00) (103, 1.87377750873565673828e+00) (104, 1.43515479564666748047e+00) (105, 4.24273282289505004883e-01) (106, 4.88523393869400024414e-01) (66, -3.47446799278259277344e-01) (67, -1.38088023662567138672e+00) (68, 1.63805171847343444824e-01) (69, -4.36579912900924682617e-01) (70, 2.80968666076660156250e-01) (71, -1.04977869987487792969e+00) (72, -1.71505913138389587402e-01) (73, 8.79222929477691650391e-01) (74, -8.42582643032073974609e-01) (75, -1.14626727998256683350e-01) (76, 3.04201483726501464844e-01) (77, -9.53222036361694335938e-01) (78, 5.90322554111480712891e-01) (79, -6.33918419480323791504e-02) (80, -2.02972143888473510742e-01) (81, -3.80776524543762207031e-01) (82, -2.87080359458923339844e+00) (83, 5.79073168337345123291e-02) (84, 1.86083042621612548828e+00) (85, -6.58201098442077636719e-01) (86, 6.81828916072845458984e-01) (87, -9.82822403311729431152e-02) (88, 1.34901773929595947266e+00) (89, 3.79706114530563354492e-01) (90, -9.57354605197906494141e-01) (91, -1.26186990737915039062e+00) (92, -1.03173422813415527344e+00) (93, 8.31403374671936035156e-01) (94, -1.12909448146820068359e+00) (95, -8.84269118309020996094e-01) (96, -1.03988504409790039062e+00) (97, 1.28122222423553466797e+00) (98, -1.29667747020721435547e+00) (99, 1.00011897087097167969e+00) (100, 6.31684243679046630859e-01) (101, 1.17462098598480224609e+00) (102, -1.99962019920349121094e-01) (103, 1.40074908733367919922e-01) (104, -7.66990542411804199219e-01) (105, -9.62706327438354492188e-01) (106, -3.66066336631774902344e-01) (66, 1.80058076977729797363e-01) (67, 1.08081944286823272705e-01) (68, -1.21249012649059295654e-01) (69, 4.75026130676269531250e-01) (70, -3.63545417785644531250e-01) (71, -3.89709360897541046143e-02) (72, 1.21600769460201263428e-01) (73, -3.78568395972251892090e-02) (74, -9.99789714813232421875e-01) (75, -9.93199646472930908203e-02) (76, -4.68864113092422485352e-01) (77, 2.85444855690002441406e-01) (78, -1.76254838705062866211e-01) (79, 3.15052159130573272705e-02) (80, -9.17856693267822265625e-01) (81, 6.03601455688476562500e-01) (82, 7.82135605812072753906e-01) (83, 4.47811484336853027344e-01) (84, 2.75768613815307617188e+00) (85, 2.46657267212867736816e-01) (86, -2.51003086566925048828e-01) (87, -1.81583359837532043457e-01) (88, -1.39003381133079528809e-01) (89, -2.68790066242218017578e-01) (90, 3.96666556596755981445e-01) (91, 3.69677841663360595703e-01) (92, 1.96818292140960693359e-01) (93, -4.61331516504287719727e-01) (94, 2.32426941394805908203e-01) (95, -2.59979143738746643066e-02) (96, 4.64661240577697753906e-01) (97, -2.72493600845336914062e-01) (98, 3.08629572391510009766e-01) (99, -2.36248552799224853516e-01) (100, 4.95921075344085693359e-02) (101, -2.01823920011520385742e-01) (102, 5.56150615215301513672e-01) (103, 5.84813833236694335938e-01) (104, 4.22457844018936157227e-01) (105, 4.12412643432617187500e-01) (106, -2.71016657352447509766e-01) (66, 1.43542543053627014160e-01) (67, -1.99636355042457580566e-01) (68, -3.85840125381946563721e-02) (69, -7.84318074584007263184e-02) (70, 9.84924212098121643066e-02) (71, -5.69500923156738281250e-02) (72, 2.43037641048431396484e-01) (73, 5.51500171422958374023e-02) (74, -2.01155662536621093750e-01) (75, -9.96764227747917175293e-02) (76, 7.26300030946731567383e-02) (77, -4.57790344953536987305e-01) (78, -1.04855867102742195129e-02) (79, 2.63761095702648162842e-02) (80, -2.48971685767173767090e-01) (81, 5.65842449665069580078e-01) (82, 1.39372134208679199219e+00) (83, 1.89820066094398498535e-01) (84, -1.88621509075164794922e+00) (85, -2.77350265532732009888e-02) (86, -1.91861465573310852051e-02) (87, -2.00017280876636505127e-02) (88, 4.48723435401916503906e-01) (89, 3.97251918911933898926e-03) (90, -1.53572574257850646973e-01) (91, -3.97829383611679077148e-01) (92, -4.49586734175682067871e-02) (93, 1.31414487957954406738e-01) (94, -2.68760919570922851562e-01) (95, 1.39862328767776489258e-01) (96, -1.58856898546218872070e-01) (97, -1.34035751223564147949e-01) (98, -5.10779380798339843750e-01) (99, 7.22885224968194961548e-03) (100, -9.11252081394195556641e-01) (101, 2.17850998044013977051e-01) (102, -1.09591618180274963379e-01) (103, 8.26338678598403930664e-02) (104, -2.19689100980758666992e-01) (105, 2.95116510242223739624e-02) (106, -1.71236741542816162109e+00) (66, -7.45324492454528808594e-02) (67, -3.14998179674148559570e-01) (68, -3.63230332732200622559e-02) (69, -5.71945644915103912354e-02) (70, 2.69859671592712402344e-01) (71, -1.06457746028900146484e+00) (72, -1.09460599720478057861e-01) (73, 7.51538157463073730469e-01) (74, 9.13827538490295410156e-01) (75, 2.19244975596666336060e-02) (76, 1.17391556501388549805e-01) (77, -9.23463821411132812500e-01) (78, -1.36996313929557800293e-01) (79, 1.50969803333282470703e-01) (80, 8.13320502638816833496e-02) (81, -2.67567515373229980469e-01) (82, -2.01522803306579589844e+00) (83, -4.51918929815292358398e-01) (84, 1.54999887943267822266e+00) (85, -7.13482677936553955078e-01) (86, 1.21824136003851890564e-02) (87, 2.46972199529409408569e-02) (88, 1.19799947738647460938e+00) (89, 5.08766055107116699219e-01) (90, -2.78072237968444824219e-01) (91, -1.43233788013458251953e+00) (92, -6.23981177806854248047e-01) (93, 3.63738745450973510742e-01) (94, -1.32338595390319824219e+00) (95, 3.23116153478622436523e-01) (96, -7.32971072196960449219e-01) (97, 3.02128970623016357422e-01) (98, -1.24621474742889404297e+00) (99, 8.23385775089263916016e-01) (100, 1.11374068260192871094e+00) (101, -1.85021266341209411621e-01) (102, -3.18758308887481689453e-01) (103, -1.85530316829681396484e+00) (104, 6.33115947246551513672e-01) (105, -1.60830412060022354126e-02) (106, 1.31049573421478271484e-01) (66, -6.31036877632141113281e-01) (67, 4.38656687736511230469e-01) (68, -5.11271595954895019531e-01) (69, 4.94089365005493164062e-01) (70, -3.35563987493515014648e-01) (71, -3.99335235357284545898e-01) (72, -4.50968146324157714844e-01) (73, 2.87552028894424438477e-01) (74, 1.05852973461151123047e+00) (75, -2.81373590230941772461e-01) (76, -2.87763446569442749023e-01) (77, -4.40988034009933471680e-01) (78, -3.93410116434097290039e-01) (79, 4.52225655317306518555e-01) (80, 6.42281711101531982422e-01) (81, -1.81028258800506591797e+00) (82, 1.06416893005371093750e+00) (83, -7.16222822666168212891e-01) (84, -8.24560597538948059082e-02) (85, -1.79494962096214294434e-01) (86, -4.49958056211471557617e-01) (87, -2.07104027271270751953e-01) (88, 5.03886342048645019531e-01) (89, 4.22410577535629272461e-01) (90, 1.41809836030006408691e-01) (91, -6.42534732818603515625e-01) (92, -4.36629652976989746094e-02) (93, -5.17080783843994140625e-01) (94, -5.76096296310424804688e-01) (95, 6.23197972774505615234e-01) (96, 2.47997909784317016602e-01) (97, -3.10177151113748550415e-02) (98, -3.07739883661270141602e-01) (99, 3.98167259991168975830e-02) (100, 5.20774960517883300781e-01) (101, -6.22606873512268066406e-01) (102, 1.18805170059204101562e-01) (103, -3.63272935152053833008e-01) (104, 2.24152401089668273926e-01) (105, 1.68552473187446594238e-01) (106, 7.27841407060623168945e-02) (66, -8.29877138137817382812e-01) (67, 1.12180519104003906250e+00) (68, -5.88520467281341552734e-01) (69, 5.96860051155090332031e-01) (70, -4.61675792932510375977e-01) (71, -3.02739888429641723633e-01) (72, -1.00259101390838623047e+00) (73, -1.40759954228997230530e-02) (74, 2.55264341831207275391e-01) (75, -6.69038474559783935547e-01) (76, -5.98257601261138916016e-01) (77, 2.81404554843902587891e-01) (78, -4.09677356481552124023e-01) (79, 7.42159962654113769531e-01) (80, 9.03563350439071655273e-02) (81, -1.66138720512390136719e+00) (82, 1.52392303943634033203e+00) (83, -8.44607412815093994141e-01) (84, -5.36910355091094970703e-01) (85, -7.73429200053215026855e-02) (86, -6.40184223651885986328e-01) (87, -7.81669199466705322266e-01) (88, 4.83202308416366577148e-01) (89, 6.18628084659576416016e-01) (90, 5.06937384605407714844e-01) (91, -6.62175178527832031250e-01) (92, -4.06741835176944732666e-02) (93, -6.85017585754394531250e-01) (94, -5.58292210102081298828e-01) (95, 9.13824439048767089844e-01) (96, 5.48576235771179199219e-01) (97, -1.91247612237930297852e-01) (98, -3.27647268772125244141e-01) (99, 1.31490990519523620605e-01) (100, -8.07060718536376953125e-01) (101, -6.33455634117126464844e-01) (102, 4.74211722612380981445e-01) (103, 7.74512529373168945312e-01) (104, 6.65002763271331787109e-01) (105, 2.90703713893890380859e-01) (106, 9.50703382492065429688e-01) (66, -3.90378594398498535156e-01) (67, 7.85427629947662353516e-01) (68, -4.57014083862304687500e-01) (69, 4.54889655113220214844e-01) (70, -3.30534964799880981445e-01) (71, -3.33389550447463989258e-01) (72, -4.16400313377380371094e-01) (73, 1.50516003370285034180e-01) (74, 5.73455095291137695312e-01) (75, -5.07084190845489501953e-01) (76, -2.36078545451164245605e-01) (77, -6.15393877029418945312e-01) (78, -2.92754471302032470703e-01) (79, 4.50918942689895629883e-01) (80, 4.26968485116958618164e-01) (81, -2.42992997169494628906e+00) (82, 4.68376576900482177734e-01) (83, -6.01313889026641845703e-01) (84, -9.22516524791717529297e-01) (85, -4.17135283350944519043e-02) (86, -4.78978842496871948242e-01) (87, -3.85769903659820556641e-01) (88, 5.80895483493804931641e-01) (89, 3.41138064861297607422e-01) (90, 4.09476995468139648438e-01) (91, -6.82799518108367919922e-01) (92, 1.25865027308464050293e-01) (93, -4.21512156724929809570e-01) (94, -5.51668763160705566406e-01) (95, 1.12485373020172119141e+00) (96, 4.61725980043411254883e-01) (97, -1.40347719192504882812e-01) (98, -4.68157500028610229492e-01) (99, -1.09985999763011932373e-01) (100, -5.01335225999355316162e-03) (101, -5.75599551200866699219e-01) (102, 1.94243252277374267578e-01) (103, 5.65205514430999755859e-01) (104, 3.27133536338806152344e-01) (105, 1.39910787343978881836e-01) (106, 1.73097684979438781738e-01) (66, -3.01961660385131835938e-01) (67, 3.39080572128295898438e-01) (68, 1.57843492925167083740e-02) (69, 7.21352323889732360840e-02) (70, 2.17875614762306213379e-01) (71, -7.71442949771881103516e-01) (72, -3.79371434450149536133e-01) (73, 7.21153736114501953125e-01) (74, 5.83372749388217926025e-02) (75, -3.36619049310684204102e-01) (76, 1.98921933770179748535e-02) (77, -1.99110433459281921387e-01) (78, -7.17705264687538146973e-02) (79, 4.05662417411804199219e-01) (80, 8.14494937658309936523e-02) (81, 6.09300374984741210938e-01) (82, 8.21899831295013427734e-01) (83, -5.24572908878326416016e-01) (84, 9.24861550331115722656e-01) (85, -6.00748777389526367188e-01) (86, 2.87030845880508422852e-01) (87, -4.07903432846069335938e-01) (88, 4.96139794588088989258e-01) (89, 5.60227870941162109375e-01) (90, -2.50699639320373535156e-01) (91, -3.88904720544815063477e-01) (92, -1.08147752285003662109e+00) (93, 2.69344866275787353516e-01) (94, -3.80268156528472900391e-01) (95, -3.53166200220584869385e-02) (96, -1.65906500816345214844e+00) (97, 6.15548908710479736328e-01) (98, -3.74078512191772460938e-01) (99, 1.01229166984558105469e+00) (100, -4.22657132148742675781e-01) (101, -1.69197887182235717773e-01) (102, -4.93810534477233886719e-01) (103, -1.25226944684982299805e-01) (104, -6.13807618618011474609e-01) (105, -6.50854706764221191406e-01) (106, 1.19917392730712890625e-02) (66, 3.80723237991333007812e-01) (67, -5.65667152404785156250e-01) (68, 2.08033278584480285645e-01) (69, -2.31217235326766967773e-01) (70, 2.06117099151015281677e-03) (71, 6.46021246910095214844e-01) (72, 4.50881302356719970703e-01) (73, -2.95845687389373779297e-01) (74, -9.45651769638061523438e-01) (75, 2.53941804170608520508e-01) (76, 1.75692245364189147949e-01) (77, 7.57538437843322753906e-01) (78, 2.42720976471900939941e-01) (79, -2.67472684383392333984e-01) (80, -6.30851805210113525391e-01) (81, 9.38959896564483642578e-01) (82, -1.55116057395935058594e+00) (83, 9.44980502128601074219e-01) (84, 8.96135449409484863281e-01) (85, 3.65389347076416015625e-01) (86, 1.48170277476310729980e-01) (87, 2.66972213983535766602e-01) (88, -6.16002798080444335938e-01) (89, -4.32044327259063720703e-01) (90, -1.97452947497367858887e-01) (91, 9.91667270660400390625e-01) (92, 1.96896586567163467407e-02) (93, 1.49191170930862426758e-01) (94, 8.65249872207641601562e-01) (95, -1.00601315498352050781e+00) (96, 1.63141310214996337891e-01) (97, 8.83831828832626342773e-02) (98, 6.47585213184356689453e-01) (99, -1.68607115745544433594e-01) (100, 2.35926255583763122559e-01) (101, 3.93067479133605957031e-01) (102, 1.99607059359550476074e-01) (103, 5.15503585338592529297e-01) (104, -4.39448021352291107178e-02) (105, 4.21329634264111518860e-03) (106, 1.52911579608917236328e+00) (66, -2.19077140092849731445e-01) (67, 4.56155598163604736328e-01) (68, -1.30478471517562866211e-01) (69, 5.07812574505805969238e-02) (70, -2.74116545915603637695e-01) (71, -2.56117463111877441406e-01) (72, -1.62764653563499450684e-01) (73, 1.56310558319091796875e-01) (74, 8.01071599125862121582e-02) (75, -1.74299642443656921387e-01) (76, -1.05710856616497039795e-01) (77, -2.15196639299392700195e-01) (78, -1.57543629407882690430e-01) (79, 1.69064905494451522827e-02) (80, -1.07288308441638946533e-01) (81, -1.09801411628723144531e+00) (82, -4.59743052721023559570e-01) (83, -8.68244171142578125000e-02) (84, -1.09423720836639404297e+00) (85, 2.16412264853715896606e-02) (86, -3.46734315156936645508e-01) (87, -1.07099287211894989014e-01) (88, 3.22135567665100097656e-01) (89, 1.67772740125656127930e-01) (90, 4.34810340404510498047e-01) (91, -2.40217611193656921387e-01) (92, -1.89068973064422607422e-01) (93, -3.54690223932266235352e-01) (94, -2.74542450904846191406e-01) (95, 3.08436304330825805664e-01) (96, 2.20192242413759231567e-02) (97, 2.18513220548629760742e-01) (98, -2.30316489934921264648e-01) (99, 3.07072736322879791260e-02) (100, -8.87944984436035156250e+00) (101, -1.00789129734039306641e-01) (102, 2.62707293033599853516e-01) (103, -5.42268216609954833984e-01) (104, 2.02817767858505249023e-01) (105, -5.81506416201591491699e-02) (106, -3.42644989490509033203e-01) (66, -4.99887347221374511719e-01) (67, 1.89978271722793579102e-01) (68, 1.61828137934207916260e-02) (69, 4.57982793450355529785e-02) (70, 7.63540416955947875977e-02) (71, -7.36258745193481445312e-01) (72, -3.42551112174987792969e-01) (73, 4.20415312051773071289e-01) (74, 2.28577896952629089355e-01) (75, -1.89123496413230895996e-01) (76, 8.07529594749212265015e-03) (77, -9.88081395626068115234e-01) (78, 7.39514082670211791992e-02) (79, 1.71936348080635070801e-01) (80, -6.89027532935142517090e-02) (81, -2.87890791893005371094e-01) (82, -5.42789930477738380432e-03) (83, -4.72467452287673950195e-01) (84, 2.61118471622467041016e-01) (85, -2.79787361621856689453e-01) (86, -6.58378079533576965332e-02) (87, -1.52403637766838073730e-01) (88, 8.93990337848663330078e-01) (89, 6.11428141593933105469e-01) (90, -4.80466820299625396729e-02) (91, -9.41358089447021484375e-01) (92, -2.18794718384742736816e-01) (93, 5.87214119732379913330e-02) (94, -1.00087165832519531250e+00) (95, 7.74608328938484191895e-02) (96, -3.00994068384170532227e-01) (97, 2.96151906251907348633e-01) (98, -1.02997088432312011719e+00) (99, 3.40604424476623535156e-01) (100, -3.74659389257431030273e-01) (101, -1.06682956218719482422e-01) (102, 2.94696483761072158813e-02) (103, -8.59268456697463989258e-02) (104, -1.22873798012733459473e-01) (105, -2.72108614444732666016e-01) (106, -1.87366223335266113281e+00) (66, 4.57727313041687011719e-01) (67, -5.09324729442596435547e-01) (68, 1.47273063659667968750e-01) (69, -3.44129681587219238281e-01) (70, -2.99145448952913284302e-02) (71, 3.57362091541290283203e-01) (72, 3.78253042697906494141e-01) (73, -7.73827880620956420898e-02) (74, -6.83493077754974365234e-01) (75, 2.58669793605804443359e-01) (76, 9.96363759040832519531e-02) (77, 6.25069975852966308594e-01) (78, 1.27958282828330993652e-01) (79, -3.79014313220977783203e-01) (80, -3.59737128019332885742e-01) (81, 9.31563496589660644531e-01) (82, -3.73957186937332153320e-01) (83, 6.65179252624511718750e-01) (84, 7.55102932453155517578e-01) (85, 1.03607237339019775391e-01) (86, 9.82677191495895385742e-02) (87, 2.45089963078498840332e-01) (88, -4.62307900190353393555e-01) (89, -4.57200020551681518555e-01) (90, -1.81927815079689025879e-01) (91, 7.60852515697479248047e-01) (92, 1.13453909754753112793e-01) (93, 7.39683806896209716797e-02) (94, 5.58653950691223144531e-01) (95, -9.15822625160217285156e-01) (96, 8.80613829940557479858e-03) (97, 1.53876513242721557617e-01) (98, 4.69041526317596435547e-01) (99, -6.17714785039424896240e-02) (100, 3.10976326465606689453e-01) (101, 4.89210188388824462891e-01) (102, 1.49823352694511413574e-01) (103, 2.41599097847938537598e-01) (104, -1.12056396901607513428e-01) (105, -9.69220548868179321289e-02) (106, 2.00015711784362792969e+00) (66, 3.35994005203247070312e-01) (67, 1.01247847080230712891e+00) (68, 1.09952604398131370544e-02) (69, -7.79512882232666015625e-01) (70, 1.09914921224117279053e-01) (71, 1.07615017890930175781e+00) (72, 1.72561421990394592285e-01) (73, -1.00216364860534667969e+00) (74, -1.31187248229980468750e+00) (75, 3.02450835704803466797e-01) (76, 5.46694695949554443359e-01) (77, 6.11408889293670654297e-01) (78, -2.20023557543754577637e-01) (79, -3.02648216485977172852e-01) (80, -3.45094650983810424805e-01) (81, -1.10322570800781250000e+00) (82, 1.56699323654174804688e+00) (83, 1.79788514971733093262e-01) (84, -1.21780264377593994141e+00) (85, 7.03278064727783203125e-01) (86, -2.42969572544097900391e-01) (87, 3.37785243988037109375e-01) (88, -1.01425158977508544922e+00) (89, -4.32733774185180664062e-01) (90, -1.14835366606712341309e-01) (91, 8.53510439395904541016e-01) (92, 6.61540389060974121094e-01) (93, 3.41288894414901733398e-01) (94, 8.87370645999908447266e-01) (95, 1.87698209285736083984e+00) (96, -1.26903548836708068848e-01) (97, -7.46479690074920654297e-01) (98, 9.09742236137390136719e-01) (99, -1.06842994689941406250e+00) (100, -9.00492310523986816406e-01) (101, 3.11630427837371826172e-01) (102, -2.08780154585838317871e-01) (103, 9.78538453578948974609e-01) (104, 1.66474923491477966309e-01) (105, -5.59994935989379882812e-01) (106, -1.90734282135963439941e-01) (66, -6.26437783241271972656e-01) (67, 5.67266941070556640625e-01) (68, -5.39022743701934814453e-01) (69, 8.28186094760894775391e-01) (70, -8.38963210582733154297e-01) (71, -3.25328588485717773438e-01) (72, -4.69536513090133666992e-01) (73, 2.43967756628990173340e-01) (74, 3.68484377861022949219e-01) (75, -9.54834818840026855469e-01) (76, -8.62726926803588867188e-01) (77, -2.67362922430038452148e-01) (78, -4.42448556423187255859e-01) (79, 3.71824681758880615234e-01) (80, 3.43543380498886108398e-01) (81, 2.34535083174705505371e-01) (82, -7.64383733272552490234e-01) (83, -5.85165917873382568359e-02) (84, -1.21006920933723449707e-01) (85, -2.85474151372909545898e-01) (86, -8.36392283439636230469e-01) (87, -5.18110752105712890625e-01) (88, 4.78536725044250488281e-01) (89, 2.36363977193832397461e-01) (90, 1.27759134769439697266e+00) (91, -2.00382292270660400391e-01) (92, -1.98743358254432678223e-01) (93, -1.41786205768585205078e+00) (94, -3.99918854236602783203e-01) (95, 7.66163021326065063477e-02) (96, 2.66646176576614379883e-01) (97, 3.74125540256500244141e-01) (98, -2.92797982692718505859e-01) (99, 3.10974180698394775391e-01) (100, 6.20251297950744628906e-01) (101, -6.53266251087188720703e-01) (102, 1.26586377620697021484e+00) (103, 2.63020604848861694336e-01) (104, 6.05590641498565673828e-01) (105, 1.38416036963462829590e-01) (106, -7.39645510911941528320e-02) (66, -3.00849914550781250000e-01) (67, -2.44794338941574096680e-01) (68, -1.03895016945898532867e-03) (69, 4.49371367692947387695e-01) (70, -1.70959636569023132324e-01) (71, -5.18129542469978332520e-02) (72, -2.54405140876770019531e-01) (73, -4.67932820320129394531e-01) (74, 1.12254774570465087891e+00) (75, -2.73320496082305908203e-01) (76, -3.74033033847808837891e-01) (77, 6.18454515933990478516e-01) (78, 1.14850215613842010498e-01) (79, 3.34309190511703491211e-01) (80, 5.58993875980377197266e-01) (81, 1.51974722743034362793e-01) (82, -2.95275902748107910156e+00) (83, 2.01945696026086807251e-02) (84, 7.36263453960418701172e-01) (85, -2.93807893991470336914e-01) (86, -1.21388614177703857422e-01) (87, -3.31909567117691040039e-01) (88, -2.92842507362365722656e-01) (89, -4.66165654361248016357e-02) (90, 9.52792614698410034180e-02) (91, 5.55480778217315673828e-01) (92, 3.20256441831588745117e-01) (93, -2.08485364913940429688e-01) (94, 4.15926635265350341797e-01) (95, -7.71165192127227783203e-01) (96, 4.25305426120758056641e-01) (97, -8.36889222264289855957e-02) (98, 5.37468612194061279297e-01) (99, 9.12991985678672790527e-02) (100, -4.67726960778236389160e-02) (101, -3.65804523229598999023e-01) (102, -1.69800817966461181641e-01) (103, 1.74078216552734375000e+01) (104, -3.48102673888206481934e-02) (105, 2.16633111238479614258e-01) (106, 6.17570519447326660156e-01) (66, -1.96705982089042663574e-01) (67, 4.49799507856369018555e-01) (68, -2.95260787010192871094e-01) (69, 5.65102994441986083984e-01) (70, -3.79728019237518310547e-01) (71, 3.41239422559738159180e-01) (72, -3.31281542778015136719e-01) (73, -8.67783844470977783203e-01) (74, 3.83781820535659790039e-01) (75, -1.20292380452156066895e-01) (76, -5.02646565437316894531e-01) (77, -2.84676961600780487061e-02) (78, -4.20159369707107543945e-01) (79, 2.77901202440261840820e-01) (80, -1.28200307488441467285e-01) (81, -1.30053877830505371094e+00) (82, -2.95054125785827636719e+00) (83, -4.11940515041351318359e-01) (84, 2.06403136253356933594e+00) (85, 4.10379767417907714844e-01) (86, -4.79047477245330810547e-01) (87, -9.36811119318008422852e-02) (88, -3.21486145257949829102e-01) (89, -2.22804263234138488770e-01) (90, 6.88201367855072021484e-01) (91, -1.19015932083129882812e-01) (92, 9.03159260749816894531e-01) (93, -6.05218708515167236328e-01) (94, 3.31330537796020507812e-01) (95, 1.19564163684844970703e+00) (96, 8.41013133525848388672e-01) (97, -8.94759476184844970703e-01) (98, 3.71072828769683837891e-01) (99, -6.39671087265014648438e-01) (100, 6.99035406112670898438e-01) (101, -7.66638159751892089844e-01) (102, 5.03290474414825439453e-01) (103, 1.54944553971290588379e-01) (104, 3.23074012994766235352e-01) (105, 8.52152168750762939453e-01) (106, -3.10065120458602905273e-01) (107, -2.21378639340400695801e-01) (108, -1.46626484394073486328e+00) (109, 8.56318473815917968750e-01) (110, -5.00814756378531455994e-04) (111, 3.56923162937164306641e-01) (112, -3.45224350690841674805e-01) (113, 6.39839991927146911621e-02) (114, 3.65184932947158813477e-01) (115, -3.46094191074371337891e-01) (116, 4.71460056304931640625e+00) (117, 1.78509086370468139648e-01) (118, -6.72232031822204589844e-01) (119, 1.12125122547149658203e+00) (120, -5.71194291114807128906e-01) (121, -1.98527038097381591797e-01) (122, 1.69741666316986083984e+00) (123, 3.05262893438339233398e-01) (124, -1.12283074855804443359e+00) (125, -7.32973366975784301758e-02) (126, 6.49138212203979492188e-01) (127, -3.11552345752716064453e-01) (128, 1.81928962469100952148e-01) (129, -1.19032241404056549072e-01) (130, 4.81365025043487548828e-02) (131, 7.66321778297424316406e-01) (132, 1.03350985050201416016e+00) (133, -2.03490018844604492188e-01) (134, 1.34145843982696533203e+00) (135, 7.25448191165924072266e-01) (136, -8.67186486721038818359e-01) (137, 1.28775584697723388672e+00) (138, -6.08832478523254394531e-01) (139, 5.20986795425415039062e-01) (140, -1.42224514484405517578e+00) (141, 1.38737928867340087891e+00) (142, 2.01613950729370117188e+00) (143, -8.86675000190734863281e-01) (144, -2.82565385103225708008e-01) (145, -1.27858594059944152832e-01) (146, 2.95624732971191406250e-02) (147, 9.15182113647460937500e-01) (148, -1.55710446834564208984e+00) (149, -5.48476696014404296875e+00) (150, -2.74159264564514160156e+00) (151, -3.06578427553176879883e-01) (152, -2.59413629770278930664e-01) (153, 6.48973524570465087891e-01) (154, -3.90913993120193481445e-01) (155, -1.00622522830963134766e+00) (156, -3.85766208171844482422e-01) (157, -8.49015653133392333984e-01) (158, 1.02778576314449310303e-01) (159, 5.49552962183952331543e-02) (160, -5.54469883441925048828e-01) (161, 9.75448712706565856934e-02) (162, 5.43058589100837707520e-02) (163, 1.32274374365806579590e-01) (164, -3.62591803073883056641e-01) (165, -2.62920117378234863281e+00) (166, -5.84070205688476562500e-01) (167, 8.56286108493804931641e-01) (107, 2.42964610457420349121e-01) (108, -2.23630332946777343750e+00) (109, -1.24818313121795654297e+00) (110, 8.70803475379943847656e-01) (111, 5.40479838848114013672e-01) (112, -3.28704081475734710693e-02) (113, 5.00133216381072998047e-01) (114, -3.77711027860641479492e-01) (115, -1.54040277004241943359e-01) (116, 2.05296087265014648438e+00) (117, 5.85432410240173339844e-01) (118, -4.22606259584426879883e-01) (119, -5.01560717821121215820e-02) (120, 5.77970206737518310547e-01) (121, 1.56014949083328247070e-01) (122, -1.33088970184326171875e+00) (123, 6.41403272747993469238e-02) (124, -1.98722213506698608398e-01) (125, 1.96021795272827148438e-01) (126, -1.54518574476242065430e-01) (127, -2.77921818196773529053e-02) (128, -7.40624368190765380859e-01) (129, 7.06843674182891845703e-01) (130, 3.58553797006607055664e-01) (131, -1.06639899313449859619e-01) (132, -1.41663241386413574219e+00) (133, -6.79499387741088867188e-01) (134, -5.68339109420776367188e-01) (135, 5.59542417526245117188e-01) (136, 4.57731097936630249023e-01) (137, 2.56752848625183105469e+00) (138, -4.12503987550735473633e-01) (139, -9.47168529033660888672e-01) (140, 3.66764634847640991211e-01) (141, -1.98877349495887756348e-01) (142, -7.03313410282135009766e-01) (143, -2.08670687675476074219e+00) (144, -5.51165878772735595703e-01) (145, -1.24795734882354736328e+00) (146, 2.17004776000976562500e-01) (147, 8.00628423690795898438e-01) (148, -2.00138807296752929688e-01) (149, -2.42319512367248535156e+00) (150, -7.43452250957489013672e-01) (151, 8.49030017852783203125e-02) (152, 4.90941256284713745117e-01) (153, -4.73011761903762817383e-01) (154, -2.09053829312324523926e-01) (155, 1.22927188873291015625e+00) (156, 4.25458937883377075195e-01) (157, 7.22490787506103515625e-01) (158, 1.51774153113365173340e-01) (159, -1.32186129689216613770e-01) (160, -7.10289061069488525391e-01) (161, 1.16932833194732666016e+00) (162, -3.02851110696792602539e-01) (163, 1.17393791675567626953e+00) (164, -5.08623123168945312500e-01) (165, 3.99446916580200195312e+00) (166, -6.08740091323852539062e-01) (167, -2.42500948905944824219e+00) (107, -7.86575376987457275391e-02) (108, 4.95496451854705810547e-01) (109, 3.43158006668090820312e-01) (110, 3.08946877717971801758e-01) (111, -5.45979380607604980469e-01) (112, -1.35323178768157958984e+00) (113, 1.27118074893951416016e+00) (114, -6.88832029700279235840e-02) (115, 6.18900954723358154297e-01) (116, 4.10812973976135253906e-01) (117, 1.49803447723388671875e+00) (118, -5.63430726528167724609e-01) (119, -1.25304549932479858398e-01) (120, 3.87942701578140258789e-01) (121, -6.57295882701873779297e-01) (122, 6.86662495136260986328e-01) (123, 8.07606101036071777344e-01) (124, -5.63337616622447967529e-02) (125, 8.43278586864471435547e-01) (126, -3.63848745822906494141e-01) (127, 8.07312309741973876953e-01) (128, -2.66501754522323608398e-01) (129, 6.24841153621673583984e-01) (130, -5.45264303684234619141e-01) (131, -4.88920301198959350586e-01) (132, -1.34534835815429687500e-01) (133, -1.85688292980194091797e+00) (134, 3.03508732467889785767e-02) (135, 1.77405670285224914551e-01) (136, 6.48702144622802734375e-01) (137, 1.47359922528266906738e-01) (138, -2.20433577895164489746e-01) (139, 5.83312749862670898438e-01) (140, -1.65334746241569519043e-01) (141, 2.74821221828460693359e-01) (142, -6.76355063915252685547e-02) (143, 2.97536432743072509766e-01) (144, -1.86404263973236083984e+00) (145, -1.79100394248962402344e+00) (146, -1.69222995638847351074e-01) (147, 2.82163351774215698242e-01) (148, -6.17048025131225585938e-01) (149, -4.70192432403564453125e-01) (150, -1.01662528514862060547e+00) (151, -6.14100515842437744141e-01) (152, 2.11633846163749694824e-01) (153, -3.36817860603332519531e-01) (154, -5.67298471927642822266e-01) (155, 1.05906367301940917969e-01) (156, -1.36964333057403564453e+00) (157, -6.60984754562377929688e-01) (158, -4.83537286520004272461e-01) (159, 8.43039870262145996094e-01) (160, -7.60166287422180175781e-01) (161, -4.97864693403244018555e-01) (162, 5.70469677448272705078e-01) (163, 4.30949449539184570312e-01) (164, -2.60973244905471801758e-01) (165, -3.43880563974380493164e-01) (166, 1.95893973112106323242e-01) (167, 1.41866421699523925781e+00) (107, -1.62325873970985412598e-01) (108, 1.22662889957427978516e+00) (109, 3.11433374881744384766e-01) (110, -5.07490456104278564453e-01) (111, -1.56826987862586975098e-01) (112, 2.10525035858154296875e-01) (113, -3.05495858192443847656e-01) (114, 5.53428649902343750000e-01) (115, 1.70514345169067382812e+00) (116, 5.66259920597076416016e-01) (117, -3.96705687046051025391e-01) (118, -7.59849667549133300781e-01) (119, 4.61167506873607635498e-02) (120, -1.75850726664066314697e-02) (121, -4.60903942584991455078e-01) (122, -7.59874209761619567871e-02) (123, 1.65710198879241943359e+00) (124, 4.20831084251403808594e-01) (125, 1.81436628103256225586e-01) (126, -2.91855335235595703125e-01) (127, -1.84710063040256500244e-02) (128, 3.89406263828277587891e-01) (129, 5.44501878321170806885e-02) (130, -3.78047436475753784180e-01) (131, -5.87336957454681396484e-01) (132, 2.40572825074195861816e-01) (133, 3.69305670261383056641e-01) (134, 4.37438488006591796875e+00) (135, -2.24823072552680969238e-01) (136, 8.93464386463165283203e-02) (137, -1.18218317627906799316e-01) (138, -1.37932479381561279297e+00) (139, 1.12908639013767242432e-01) (140, -3.69530260562896728516e-01) (141, -5.64362585544586181641e-01) (142, -1.72655463218688964844e-01) (143, -3.93991857767105102539e-01) (144, 3.63925814628601074219e-01) (145, 2.76824891567230224609e-01) (146, -3.72674524784088134766e-01) (147, 1.33314383029937744141e+00) (148, 2.98969596624374389648e-01) (149, -1.73732304573059082031e+00) (150, -6.67812451720237731934e-02) (151, -3.27094644308090209961e-01) (152, -6.04383945465087890625e-01) (153, 3.29870849847793579102e-01) (154, -1.76776361465454101562e+00) (155, -6.11873507499694824219e-01) (156, -3.90900611877441406250e-01) (157, -3.17000091075897216797e-01) (158, -2.38302769139409065247e-03) (159, 3.51188600063323974609e-01) (160, 5.78630805015563964844e-01) (161, -7.19949424266815185547e-01) (162, 5.57006716728210449219e-01) (163, 7.77283251285552978516e-01) (164, -1.56477496027946472168e-01) (165, 3.75186967849731445312e+00) (166, -7.58369684219360351562e-01) (167, 1.91302216053009033203e+00) (107, 4.76851582527160644531e-01) (108, 2.22030669450759887695e-01) (109, 4.71783787012100219727e-01) (110, -2.30811193585395812988e-01) (111, 2.24805340170860290527e-01) (112, -2.95435413718223571777e-02) (113, -5.52939713001251220703e-01) (114, 4.01490300893783569336e-01) (115, -4.74922299385070800781e-01) (116, -6.22917473316192626953e-01) (117, -7.92008638381958007812e-01) (118, -1.20953392982482910156e+00) (119, 1.04390823841094970703e+00) (120, -6.69716417789459228516e-01) (121, 3.03133398294448852539e-01) (122, -5.10976612567901611328e-01) (123, 9.75564718246459960938e-01) (124, -1.26359510421752929688e+00) (125, -6.09362781047821044922e-01) (126, -2.36419230699539184570e-01) (127, -3.28034132719039916992e-01) (128, 3.65615606307983398438e-01) (129, -4.92337256669998168945e-01) (130, 3.46922904253005981445e-01) (131, 7.73285269737243652344e-01) (132, -1.40411525964736938477e-01) (133, 6.26461029052734375000e-01) (134, 7.90216445922851562500e+00) (135, 5.82888305187225341797e-01) (136, -6.74025297164916992188e-01) (137, -2.15773254632949829102e-01) (138, -1.81831717491149902344e+00) (139, 5.87782263755798339844e-01) (140, -8.86904954910278320312e-01) (141, 3.27366530895233154297e-01) (142, 4.58200484514236450195e-01) (143, -1.06817209720611572266e+00) (144, 6.76332950592041015625e-01) (145, 6.84615015983581542969e-01) (146, 2.16043367981910705566e-01) (147, -1.62850904464721679688e+00) (148, -3.18848085403442382812e+00) (149, 9.21965301036834716797e-01) (150, -8.07329475879669189453e-01) (151, -1.12933182716369628906e+00) (152, -4.47293430566787719727e-01) (153, 6.41373917460441589355e-02) (154, 2.91537702083587646484e-01) (155, 1.76653176546096801758e-01) (156, -3.92602950334548950195e-01) (157, -3.48396062850952148438e-01) (158, 1.10025659203529357910e-01) (159, -2.68158823251724243164e-01) (160, 1.12379181385040283203e+00) (161, -1.44011050462722778320e-01) (162, -8.17268490791320800781e-02) (163, -1.31150162220001220703e+00) (164, 1.23180937767028808594e+00) (165, 1.62443602085113525391e+00) (166, 1.52035746723413467407e-02) (167, 2.14791822433471679688e+00) (107, 5.22325456142425537109e-01) (108, 4.78628963232040405273e-01) (109, -9.35999214649200439453e-01) (110, -9.91888120770454406738e-02) (111, 6.66754364967346191406e-01) (112, 2.22442841529846191406e+00) (113, -2.81083106994628906250e-01) (114, 1.83941498398780822754e-01) (115, -3.80206018686294555664e-01) (116, -4.67368870973587036133e-01) (117, -3.09728384017944335938e-01) (118, 1.76951259374618530273e-01) (119, -7.74199604988098144531e-01) (120, 1.21249549090862274170e-01) (121, 1.04405558109283447266e+00) (122, -1.40692019462585449219e+00) (123, -2.42476433515548706055e-01) (124, 1.03951787948608398438e+00) (125, -2.76284337043762207031e+00) (126, 5.32909333705902099609e-01) (127, -1.37814089655876159668e-01) (128, 2.38547734916210174561e-02) (129, -3.69525998830795288086e-01) (130, 8.42515230178833007812e-01) (131, 5.72240911424160003662e-03) (132, -7.31795430183410644531e-01) (133, 4.04041558504104614258e-01) (134, 8.72744619846343994141e-02) (135, -4.68293905258178710938e-01) (136, -5.35719156265258789062e-01) (137, -7.08217382431030273438e-01) (138, -3.71549874544143676758e-02) (139, -9.46744978427886962891e-01) (140, -8.06792736053466796875e-01) (141, -1.11779427528381347656e+00) (142, 1.59030128270387649536e-02) (143, -9.13778841495513916016e-01) (144, 2.10688740015029907227e-01) (145, 6.23043632507324218750e+00) (146, 2.93679058551788330078e-01) (147, -1.85195922851562500000e-01) (148, 1.37216997146606445312e+00) (149, 1.23106336593627929688e+00) (150, 1.93147885799407958984e+00) (151, 2.18299090862274169922e-01) (152, -3.74408841133117675781e-01) (153, -2.12301397323608398438e+00) (154, 5.62345311045646667480e-02) (155, 6.78813397884368896484e-01) (156, 2.08622622489929199219e+00) (157, 1.48172402381896972656e+00) (158, -1.18279643356800079346e-01) (159, -8.08860898017883300781e-01) (160, 1.20266270637512207031e+00) (161, 1.04709632694721221924e-01) (162, -4.20855045318603515625e-01) (163, -3.95516425371170043945e-01) (164, 1.09479916095733642578e+00) (165, 6.89443171024322509766e-01) (166, -6.22947327792644500732e-03) (167, 2.33885109424591064453e-01) (107, -1.92640841007232666016e-01) (108, 7.54696190357208251953e-01) (109, 6.66718110442161560059e-02) (110, -8.78856062889099121094e-01) (111, 7.81326413154602050781e-01) (112, -3.58553218841552734375e+00) (113, 8.18559706211090087891e-01) (114, -3.46358627080917358398e-01) (115, -6.04059219360351562500e-01) (116, -5.84233522415161132812e-01) (117, 1.39019012451171875000e+00) (118, -7.26048767566680908203e-01) (119, -2.39175677299499511719e-01) (120, -8.70951414108276367188e-01) (121, 4.69667077064514160156e-01) (122, 1.10947084426879882812e+00) (123, 1.72104105353355407715e-01) (124, 3.66806119680404663086e-01) (125, -7.83722519874572753906e-01) (126, -7.97980189323425292969e-01) (127, 4.52277287840843200684e-02) (128, 2.93896257877349853516e-01) (129, -6.13032400608062744141e-01) (130, 1.98852002620697021484e-01) (131, -1.17643737792968750000e+00) (132, -5.16501069068908691406e-01) (133, -1.43289268016815185547e+00) (134, -1.82265520095825195312e+00) (135, -1.43747437000274658203e+00) (136, -1.28424990177154541016e+00) (137, -7.36074984073638916016e-01) (138, 4.89383965730667114258e-01) (139, 1.52652847766876220703e+00) (140, 1.04563879966735839844e+00) (141, 3.39243888854980468750e-01) (142, 2.49124336242675781250e+00) (143, 3.11049890518188476562e+00) (144, -1.58729434013366699219e+00) (145, -1.57343816757202148438e+00) (146, 6.07293665409088134766e-01) (147, -1.00180220603942871094e+00) (148, 9.28728401660919189453e-01) (149, 2.20012974739074707031e+00) (150, 2.76215481758117675781e+00) (151, 9.81961548328399658203e-01) (152, 4.57784533500671386719e-01) (153, 4.93303567171096801758e-01) (154, 1.28995820879936218262e-01) (155, 6.90867424011230468750e-01) (156, -1.23745512962341308594e+00) (157, -5.66292047500610351562e-01) (158, -1.24991261959075927734e+00) (159, -3.09262633323669433594e-01) (160, -8.98993849754333496094e-01) (161, 3.64600419998168945312e-01) (162, -3.94428968429565429688e-01) (163, -1.03121924400329589844e+00) (164, 1.44363307952880859375e+00) (165, 6.69500708580017089844e-01) (166, 4.51076537370681762695e-01) (167, -5.96760690212249755859e-01) (107, -1.53502926230430603027e-01) (108, -1.68257021903991699219e+00) (109, 8.79874467849731445312e-01) (110, 1.06454002857208251953e+00) (111, -4.69476133584976196289e-02) (112, -2.62430524826049804688e+00) (113, 6.93865954875946044922e-01) (114, -2.88183355331420898438e+00) (115, -1.68318915367126464844e+00) (116, 1.89342880249023437500e+00) (117, 2.25707364082336425781e+00) (118, -2.14403057098388671875e+00) (119, 1.17673909664154052734e+00) (120, -8.20432305335998535156e-02) (121, 1.71201422810554504395e-01) (122, 2.02091979980468750000e+00) (123, -1.17396557331085205078e+00) (124, -8.92619192600250244141e-01) (125, 6.44077956676483154297e-02) (126, 6.71940863132476806641e-01) (127, 9.28638994693756103516e-01) (128, -5.87552487850189208984e-01) (129, -9.38614130020141601562e-01) (130, -6.10793605446815490723e-02) (131, 1.63053882122039794922e+00) (132, 5.16778409481048583984e-01) (133, -2.44054937362670898438e+00) (134, -1.83655428886413574219e+00) (135, 8.38589727878570556641e-01) (136, -1.48778831958770751953e+00) (137, 1.71003806591033935547e+00) (138, 1.04645204544067382812e+00) (139, 1.32145428657531738281e+00) (140, -2.00312829017639160156e+00) (141, 5.85224032402038574219e-01) (142, 3.47306180000305175781e+00) (143, 6.21985793113708496094e-01) (144, -2.79488468170166015625e+00) (145, -1.70409727096557617188e+00) (146, 4.76703226566314697266e-01) (147, -6.22872769832611083984e-01) (148, -1.36168992519378662109e+00) (149, 2.69753225147724151611e-02) (150, -4.59452807903289794922e-01) (151, 1.51426386833190917969e+00) (152, 1.84164154529571533203e+00) (153, 7.29691907763481140137e-02) (154, 1.73614954948425292969e+00) (155, -3.04361879825592041016e-01) (156, 3.07463943958282470703e-01) (157, -9.55726981163024902344e-01) (158, 1.09728479385375976562e+00) (159, -2.14619964361190795898e-01) (160, -8.41087579727172851562e-01) (161, 1.08185887336730957031e+00) (162, -4.60521489381790161133e-01) (163, -1.43145668506622314453e+00) (164, -1.11174571514129638672e+00) (165, 4.00225734710693359375e+00) (166, -9.81711208820343017578e-01) (167, 1.68410933017730712891e+00) (107, -8.67135643959045410156e-01) (108, -1.20809781551361083984e+00) (109, 9.72998261451721191406e-01) (110, 4.23055648803710937500e-01) (111, -1.01310396194458007812e+00) (112, -5.56711578369140625000e+00) (113, 6.57446622848510742188e-01) (114, -1.10860741138458251953e+00) (115, 1.85318171977996826172e-01) (116, 1.42928779125213623047e+00) (117, 6.28911495208740234375e-01) (118, -1.96583173237740993500e-03) (119, 1.10579967498779296875e-01) (120, 4.32982504367828369141e-01) (121, -1.16927516460418701172e+00) (122, 1.99916410446166992188e+00) (123, 3.27080756425857543945e-01) (124, -1.00356794893741607666e-01) (125, 1.05823826789855957031e+00) (126, 1.74313056468963623047e+00) (127, 1.05069243907928466797e+00) (128, -4.99200046062469482422e-01) (129, 3.89369875192642211914e-01) (130, -1.51056921482086181641e+00) (131, -2.38365113735198974609e-01) (132, 7.44777500629425048828e-01) (133, -5.65868318080902099609e-01) (134, -1.33754348754882812500e+00) (135, -7.18989491462707519531e-01) (136, 4.45449143648147583008e-01) (137, -3.01113367080688476562e-01) (138, -2.73408502340316772461e-01) (139, -6.85416236519813537598e-02) (140, 9.85704183578491210938e-01) (141, 3.71139258146286010742e-01) (142, 4.56430554389953613281e-01) (143, 5.71174502372741699219e-01) (144, -9.66015398502349853516e-01) (145, -3.82142215967178344727e-01) (146, -7.18028664588928222656e-01) (147, -1.77210813853889703751e-03) (148, 6.68840229511260986328e-01) (149, -4.58109378814697265625e-01) (150, -3.83600592613220214844e-02) (151, -8.59412178397178649902e-02) (152, 9.73195433616638183594e-01) (153, -5.43443739414215087891e-01) (154, -8.48355069756507873535e-02) (155, -5.87740361690521240234e-01) (156, -9.85150396823883056641e-01) (157, -1.29268682003021240234e+00) (158, -3.39974343776702880859e-01) (159, 9.88789260387420654297e-01) (160, -5.38067579269409179688e-01) (161, -3.14950078725814819336e-01) (162, 7.93799579143524169922e-01) (163, 3.39032411575317382812e-02) (164, 5.36015808582305908203e-01) (165, -1.13818943500518798828e+00) (166, 4.51036334037780761719e-01) (167, 5.27313649654388427734e-01) (107, 4.42474447190761566162e-02) (108, 1.02626585960388183594e+00) (109, 6.39472842216491699219e-01) (110, 1.10688939690589904785e-01) (111, -1.32259714603424072266e+00) (112, -2.52880845218896865845e-02) (113, 5.39017260074615478516e-01) (114, -1.27671515941619873047e+00) (115, 7.51192748546600341797e-01) (116, -5.35679683089256286621e-02) (117, 4.12322819232940673828e-01) (118, -6.29161000251770019531e-01) (119, -6.21382296085357666016e-02) (120, 1.16322770714759826660e-01) (121, -1.92558777332305908203e+00) (122, 3.00592422485351562500e-01) (123, 9.25059676170349121094e-01) (124, -3.90500664710998535156e-01) (125, 1.44687914848327636719e+00) (126, -1.63063481450080871582e-01) (127, 1.26382625102996826172e+00) (128, -1.01000212132930755615e-01) (129, 1.56256213784217834473e-01) (130, -2.26505637168884277344e+00) (131, -1.66771680116653442383e-01) (132, 8.24970662593841552734e-01) (133, -5.41901111602783203125e-01) (134, -2.79129195213317871094e+00) (135, -6.93505927920341491699e-02) (136, 1.10013738274574279785e-01) (137, 4.10306245088577270508e-01) (138, -6.29562959074974060059e-02) (139, 1.22825479507446289062e+00) (140, -6.24827563762664794922e-01) (141, 2.13981419801712036133e-01) (142, 1.23698341846466064453e+00) (143, 2.10924148559570312500e-01) (144, -6.56931936740875244141e-01) (145, -3.82381826639175415039e-01) (146, -1.19257521629333496094e+00) (147, 5.84368407726287841797e-01) (148, -3.69151771068572998047e-01) (149, -6.41912519931793212891e-02) (150, -5.01316964626312255859e-01) (151, -7.83948302268981933594e-01) (152, 1.05922627449035644531e+00) (153, 8.88523012399673461914e-02) (154, -6.72087609767913818359e-01) (155, -5.38894057273864746094e-01) (156, -3.89486640691757202148e-01) (157, -3.63154679536819458008e-01) (158, -2.30605646967887878418e-01) (159, 2.64815378189086914062e+00) (160, 4.77740973234176635742e-01) (161, -6.52653217315673828125e-01) (162, 2.12789034843444824219e+00) (163, 6.24600470066070556641e-01) (164, -2.06360146403312683105e-01) (165, 4.73980337381362915039e-01) (166, -1.69135570526123046875e-01) (167, 2.31780195236206054688e+00) (107, -3.88209223747253417969e-01) (108, 8.17163407802581787109e-01) (109, -1.34132087230682373047e-01) (110, -4.72997911274433135986e-02) (111, -8.55501815676689147949e-02) (112, -8.28732788562774658203e-01) (113, 4.17317152023315429688e-01) (114, 3.74233663082122802734e-01) (115, 2.89533019065856933594e-01) (116, -2.03417152166366577148e-01) (117, 2.79323965311050415039e-01) (118, -5.20721197128295898438e-01) (119, 1.26720488071441650391e+00) (120, 3.93994688987731933594e-01) (121, -1.41079332679510116577e-02) (122, 1.87182053923606872559e-01) (123, -2.75766283273696899414e-01) (124, -9.12186264991760253906e-01) (125, 1.10808506608009338379e-01) (126, -4.64663594961166381836e-01) (127, 2.80126899480819702148e-01) (128, -6.23100586235523223877e-02) (129, 1.75688609480857849121e-01) (130, 2.12210506200790405273e-01) (131, 6.23826682567596435547e-02) (132, 1.04850403964519500732e-01) (133, -3.17960321903228759766e-01) (134, 1.62039434909820556641e+00) (135, 8.84024024009704589844e-01) (136, 7.61729717254638671875e-01) (137, -1.34605002403259277344e+00) (138, 8.38392078876495361328e-02) (139, 6.65307641029357910156e-01) (140, 1.39163625240325927734e+00) (141, 3.05006951093673706055e-01) (142, -2.63754963874816894531e+00) (143, 1.47957336902618408203e+00) (144, -3.14577102661132812500e-01) (145, -3.06878060102462768555e-01) (146, -6.04499909968581050634e-05) (147, 3.60989868640899658203e-01) (148, -1.47426962852478027344e+00) (149, -2.15943980216979980469e+00) (150, -1.78843402862548828125e+00) (151, -7.55641236901283264160e-02) (152, -2.61364221572875976562e-01) (153, 2.10256889462471008301e-01) (154, 4.09513682126998901367e-01) (155, 4.39570732414722442627e-02) (156, -4.70382452011108398438e-01) (157, -2.41085849702358245850e-02) (158, 5.14167249202728271484e-01) (159, 7.21293538808822631836e-02) (160, -1.66857481002807617188e-01) (161, 1.66182488203048706055e-01) (162, -5.19249774515628814697e-02) (163, 3.60306322574615478516e-01) (164, -3.17787200212478637695e-01) (165, -3.92036533355712890625e+00) (166, 6.55995607376098632812e-01) (167, -4.02579635381698608398e-01) (107, 7.60030224919319152832e-02) (108, -9.35646831989288330078e-01) (109, 3.97299557924270629883e-01) (110, 2.93894678354263305664e-01) (111, -1.58990204334259033203e+00) (112, -1.35197317600250244141e+00) (113, 2.02475786209106445312e-01) (114, -2.42860913276672363281e+00) (115, 3.96997988224029541016e-01) (116, 2.60782778263092041016e-01) (117, -4.00126427412033081055e-01) (118, 6.04207038879394531250e-01) (119, -1.21278679370880126953e+00) (120, 3.83289545774459838867e-01) (121, -6.59020423889160156250e-01) (122, 2.28622496128082275391e-01) (123, -7.72967115044593811035e-02) (124, 1.95948755741119384766e+00) (125, 1.49899315834045410156e+00) (126, 2.21819192171096801758e-01) (127, 1.17116904258728027344e+00) (128, -2.44547858834266662598e-01) (129, 7.03459441661834716797e-01) (130, -2.16585502028465270996e-01) (131, -2.36354976892471313477e-01) (132, 2.71926403045654296875e-01) (133, 2.48763084411621093750e-01) (134, 1.54453182220458984375e+00) (135, 2.76548936963081359863e-02) (136, 5.04820346832275390625e-01) (137, -1.08258390426635742188e+00) (138, 6.10380947589874267578e-01) (139, -4.61624830961227416992e-01) (140, 9.82483774423599243164e-02) (141, -2.01594501733779907227e-01) (142, 2.43145138025283813477e-01) (143, -1.18945980072021484375e+00) (144, 3.92810314893722534180e-01) (145, 9.15891528129577636719e-01) (146, -7.48441994190216064453e-01) (147, -6.49789094924926757812e-01) (148, 3.47944617271423339844e-01) (149, -1.13857793807983398438e+00) (150, 1.19552361965179443359e+00) (151, 3.83588761091232299805e-01) (152, 1.76332092285156250000e+00) (153, -3.10193955898284912109e-01) (154, -1.20845764875411987305e-01) (155, -8.06521058082580566406e-01) (156, -3.52756679058074951172e-01) (157, -3.93302410840988159180e-01) (158, -5.85879862308502197266e-01) (159, 4.23728972673416137695e-01) (160, -6.51955842971801757812e-01) (161, 7.61121034622192382812e-01) (162, 1.47287294268608093262e-01) (163, -7.24851012229919433594e-01) (164, -3.01577281206846237183e-02) (165, 1.47270023822784423828e+00) (166, 4.63038265705108642578e-01) (167, -2.13155102729797363281e+00) (107, -1.83141753077507019043e-01) (108, 1.25158941745758056641e+00) (109, 3.33660513162612915039e-01) (110, -1.87359645962715148926e-01) (111, -2.30891659855842590332e-01) (112, -5.68768739700317382812e-01) (113, -7.02996492385864257812e-01) (114, -1.95885315537452697754e-01) (115, 1.40634870529174804688e+00) (116, 1.10206604003906250000e-01) (117, -1.17599201202392578125e+00) (118, 4.38774734735488891602e-01) (119, -6.80205285549163818359e-01) (120, 2.28883139789104461670e-02) (121, -6.62313848733901977539e-02) (122, 1.28566622734069824219e-01) (123, 4.60864067077636718750e-01) (124, 5.75696408748626708984e-01) (125, 4.66264754533767700195e-01) (126, -7.94055312871932983398e-02) (127, 6.21395468711853027344e-01) (128, 9.63508710265159606934e-02) (129, -3.05123269557952880859e-01) (130, -1.10460355877876281738e-01) (131, -4.17493283748626708984e-01) (132, 4.25981938838958740234e-01) (133, 1.33004915714263916016e+00) (134, -6.42438840866088867188e+00) (135, 5.39817452430725097656e-01) (136, 5.09901493787765502930e-02) (137, -5.04679739475250244141e-01) (138, 6.17982387542724609375e-01) (139, 3.38396191596984863281e-01) (140, 1.19821631908416748047e+00) (141, 5.41629493236541748047e-01) (142, -1.34198987483978271484e+00) (143, 4.41488415002822875977e-01) (144, 1.27166819572448730469e+00) (145, 1.79766714572906494141e+00) (146, -4.57116723060607910156e-01) (147, -5.52990555763244628906e-01) (148, 1.25899362564086914062e+00) (149, 4.45401549339294433594e-01) (150, 2.46529555320739746094e+00) (151, 3.09316247701644897461e-01) (152, 2.69213229417800903320e-01) (153, 1.90913695842027664185e-02) (154, -5.91228306293487548828e-01) (155, -5.03016650676727294922e-01) (156, -6.84415176510810852051e-02) (157, 1.38173654675483703613e-01) (158, -3.36210638284683227539e-01) (159, -1.33272215723991394043e-01) (160, 7.25744545459747314453e-01) (161, -3.25326263904571533203e-01) (162, 1.61596938967704772949e-01) (163, 5.05562484264373779297e-01) (164, 1.34462702274322509766e+00) (165, 4.58950400352478027344e-01) (166, -2.60216355323791503906e-01) (167, 2.69087523221969604492e-01) (107, 2.45130196213722229004e-01) (108, 5.33024072647094726562e-01) (109, -7.91266798973083496094e-01) (110, -4.13584142923355102539e-01) (111, 6.69535517692565917969e-01) (112, 4.19302612543106079102e-01) (113, 9.20001685619354248047e-01) (114, -2.41012081503868103027e-01) (115, -7.84227788448333740234e-01) (116, -3.60797643661499023438e-01) (117, 1.01477885246276855469e+00) (118, -1.95568114519119262695e-01) (119, -7.58688569068908691406e-01) (120, 4.26248371601104736328e-01) (121, 3.87492090463638305664e-01) (122, -1.44513332843780517578e+00) (123, -9.47735130786895751953e-01) (124, 1.20882380008697509766e+00) (125, 2.84116119146347045898e-02) (126, -9.70185399055480957031e-01) (127, 7.51753568649291992188e-01) (128, 5.05576789379119873047e-01) (129, -9.27587330341339111328e-01) (130, 4.52901460230350494385e-02) (131, -8.52322280406951904297e-01) (132, -8.76451849937438964844e-01) (133, -1.03789985179901123047e+00) (134, -2.44524097442626953125e+00) (135, 4.05205756425857543945e-01) (136, -1.73603832721710205078e+00) (137, -3.19265156984329223633e-01) (138, 7.57031381130218505859e-01) (139, -2.45044603943824768066e-01) (140, 1.05348980426788330078e+00) (141, -3.29462617635726928711e-01) (142, -1.88643187284469604492e-01) (143, -2.54121398925781250000e+00) (144, -9.70230937004089355469e-01) (145, -2.36460900306701660156e+00) (146, 2.28079389780759811401e-02) (147, 6.06451407074928283691e-02) (148, 9.03388798236846923828e-01) (149, 1.26360788941383361816e-01) (150, 1.85391378402709960938e+00) (151, 1.58361446857452392578e+00) (152, 2.92017072439193725586e-01) (153, 1.28207728266716003418e-01) (154, 3.08970600366592407227e-01) (155, 7.22908675670623779297e-01) (156, 9.85973179340362548828e-01) (157, 9.12368357181549072266e-01) (158, -6.77315235137939453125e-01) (159, -8.87855738401412963867e-02) (160, -5.37601709365844726562e-01) (161, 1.38689771294593811035e-01) (162, -2.01226830482482910156e-01) (163, 4.93716523051261901855e-02) (164, 2.47984766960144042969e-01) (165, 1.86940956115722656250e+00) (166, 1.03415942192077636719e+00) (167, -1.06767797470092773438e+00) (107, 9.69278812408447265625e-02) (108, 5.21598339080810546875e-01) (109, -9.67401918023824691772e-03) (110, -3.80041569471359252930e-01) (111, 2.68707126379013061523e-02) (112, 1.82390272617340087891e-01) (113, -2.89072692394256591797e-01) (114, 4.79964435100555419922e-01) (115, 1.99967980384826660156e+00) (116, -1.08831524848937988281e+00) (117, -3.20888876914978027344e-01) (118, -1.43046009540557861328e+00) (119, -3.57354015111923217773e-01) (120, 1.30112236365675926208e-02) (121, -2.21270009875297546387e-01) (122, -7.92752742767333984375e-01) (123, 1.10384166240692138672e+00) (124, 1.53462147712707519531e+00) (125, -1.02225407958030700684e-01) (126, -1.28201633691787719727e-01) (127, -1.49780049920082092285e-01) (128, 1.61926969885826110840e-01) (129, -2.17341959476470947266e-01) (130, -3.15456956624984741211e-01) (131, -1.03119158744812011719e+00) (132, 5.90360425412654876709e-02) (133, 4.70850765705108642578e-01) (134, 3.22393596172332763672e-01) (135, -4.07358109951019287109e-01) (136, -9.37014520168304443359e-02) (137, -9.15828585624694824219e-01) (138, -8.09588670730590820312e-01) (139, 9.70349162817001342773e-02) (140, -5.77961318194866180420e-02) (141, -8.28509569168090820312e-01) (142, -7.12869405746459960938e+00) (143, -1.01081824302673339844e+00) (144, 3.86443376541137695312e-01) (145, 2.74118512868881225586e-01) (146, -2.51435190439224243164e-01) (147, 1.28745532035827636719e+00) (148, 2.14173868298530578613e-01) (149, -7.61653780937194824219e-02) (150, 6.03267550468444824219e-01) (151, -2.25100922584533691406e+00) (152, -4.18568789958953857422e-01) (153, 1.37006914615631103516e+00) (154, -1.53829848766326904297e+00) (155, -8.78446251153945922852e-02) (156, -1.80474668741226196289e-01) (157, -4.19964417815208435059e-02) (158, -1.24082171916961669922e+00) (159, 2.87321448326110839844e-01) (160, 3.82005810737609863281e-01) (161, -7.71589875221252441406e-01) (162, 3.68891716003417968750e-01) (163, 1.65135800838470458984e+00) (164, 4.65851351618766784668e-02) (165, -1.39782714843750000000e+00) (166, 8.67421746253967285156e-01) (167, 2.08590722084045410156e+00) (107, 3.18956881761550903320e-01) (108, -9.85351383686065673828e-01) (109, -2.69243419170379638672e-01) (110, -1.09527811408042907715e-01) (111, 5.41152179241180419922e-01) (112, 1.51308715343475341797e-01) (113, 2.89212197065353393555e-01) (114, -9.79777649044990539551e-02) (115, 2.33169160783290863037e-02) (116, -3.58893722295761108398e-01) (117, 6.22424483299255371094e-01) (118, 5.88125526905059814453e-01) (119, 8.55473220348358154297e-01) (120, -1.31370723247528076172e-01) (121, 7.76641011238098144531e-01) (122, 3.23841236531734466553e-02) (123, -4.97651040554046630859e-01) (124, -1.20353482663631439209e-01) (125, -4.30369228124618530273e-01) (126, 2.80483633279800415039e-01) (127, -6.66032552719116210938e-01) (128, 8.56684669852256774902e-02) (129, -2.60850816965103149414e-01) (130, 7.43457794189453125000e-01) (131, 5.16555190086364746094e-01) (132, -8.07508155703544616699e-02) (133, -5.63486099243164062500e-01) (134, -3.64099287986755371094e+00) (135, 2.88890779018402099609e-01) (136, -2.25838664919137954712e-02) (137, 6.03566229343414306641e-01) (138, 6.59309566020965576172e-01) (139, 1.36047946289181709290e-02) (140, 3.24257642030715942383e-01) (141, 5.49668431282043457031e-01) (142, 1.54427424073219299316e-01) (143, 4.66279774904251098633e-01) (144, -4.69720631837844848633e-01) (145, -5.58309555053710937500e-01) (146, 6.01557135581970214844e-01) (147, 1.48786202073097229004e-01) (148, -6.40635788440704345703e-01) (149, 1.05871057510375976562e+00) (150, -1.06025683879852294922e+00) (151, 2.95034974813461303711e-01) (152, 8.39588344097137451172e-02) (153, 5.24738490581512451172e-01) (154, 7.11061000823974609375e-01) (155, 3.25432568788528442383e-01) (156, 5.18422782421112060547e-01) (157, 2.49939680099487304688e-01) (158, 1.04072010517120361328e+00) (159, -8.03503751754760742188e-01) (160, -7.07648932933807373047e-01) (161, 8.01614522933959960938e-01) (162, -8.35892081260681152344e-01) (163, 2.66555517911911010742e-01) (164, -3.11686426401138305664e-01) (165, -4.76644611358642578125e+00) (166, -2.52093493938446044922e-01) (167, -2.17691493034362792969e+00) (107, -8.00214171409606933594e-01) (108, -3.25777605175971984863e-02) (109, 6.09866261482238769531e-01) (110, -3.33013802766799926758e-01) (111, -3.38936299085617065430e-01) (112, -1.09357738494873046875e+00) (113, -4.86753463745117187500e-01) (114, -9.19627919793128967285e-02) (115, -1.41246259212493896484e+00) (116, 2.92993760108947753906e+00) (117, -7.04139113426208496094e-01) (118, 6.18007957935333251953e-01) (119, 6.40955150127410888672e-01) (120, 2.17227071523666381836e-01) (121, -3.94739508628845214844e-01) (122, 5.31772933900356292725e-02) (123, 5.11456787586212158203e-01) (124, -7.08211064338684082031e-01) (125, 5.78383088111877441406e-01) (126, 7.36899793148040771484e-01) (127, 9.42888915538787841797e-01) (128, 2.41758245974779129028e-02) (129, 1.33558949455618858337e-02) (130, -3.26231271028518676758e-01) (131, 2.51655906438827514648e-01) (132, -3.48181039094924926758e-01) (133, 7.64168977737426757812e-01) (134, -3.63440537452697753906e+00) (135, -4.98405545949935913086e-01) (136, 6.54660388827323913574e-02) (137, 6.00026510655879974365e-02) (138, 1.12395092844963073730e-01) (139, 1.03907036781311035156e+00) (140, 2.12007188796997070312e+00) (141, -1.00567802786827087402e-01) (142, -3.67821723222732543945e-01) (143, 1.54888343811035156250e+00) (144, 8.24150323867797851562e-01) (145, 1.11191201210021972656e+00) (146, -1.38626247644424438477e-01) (147, 9.16737318038940429688e-01) (148, -8.99348482489585876465e-02) (149, -2.05250486731529235840e-01) (150, -9.89339798688888549805e-02) (151, -1.04999804496765136719e+00) (152, 1.79529681801795959473e-01) (153, 3.17038893699645996094e-01) (154, 8.41484487056732177734e-01) (155, 2.78749525547027587891e-01) (156, -1.42921876907348632812e+00) (157, -4.35848891735076904297e-01) (158, -1.36056821793317794800e-02) (159, 2.30386212468147277832e-01) (160, 9.27930831909179687500e-01) (161, 2.22823053598403930664e-01) (162, 1.76491037011146545410e-01) (163, -2.72121101617813110352e-01) (164, 8.84291529655456542969e-02) (165, -3.41508269309997558594e+00) (166, -7.35036790370941162109e-01) (167, 1.10242915153503417969e+00) (107, 1.98014214634895324707e-01) (108, -1.57732248306274414062e-01) (109, 2.50217635184526443481e-02) (110, -9.50140118598937988281e-01) (111, 2.55949765443801879883e-01) (112, 2.76020526885986328125e-01) (113, -1.45597085356712341309e-01) (114, 6.02973163127899169922e-01) (115, -1.34988367557525634766e+00) (116, -2.60851621627807617188e-01) (117, -2.72181779146194458008e-01) (118, -1.21572114527225494385e-01) (119, 1.20012629032135009766e+00) (120, -4.63784486055374145508e-01) (121, -3.27163249254226684570e-01) (122, 3.52079123258590698242e-01) (123, -1.58175602555274963379e-01) (124, -8.81572663784027099609e-01) (125, -3.68444174528121948242e-01) (126, -7.61239647865295410156e-01) (127, -5.91915071010589599609e-01) (128, 5.71079671382904052734e-01) (129, -6.40983879566192626953e-01) (130, -3.79319816827774047852e-01) (131, 5.76006948947906494141e-01) (132, 4.97854173183441162109e-01) (133, 1.22032105922698974609e-01) (134, 5.15877664089202880859e-01) (135, 3.22840549051761627197e-02) (136, -6.58539056777954101562e-01) (137, 6.95997476577758789062e-01) (138, -4.72365319728851318359e-02) (139, 6.33547723293304443359e-01) (140, -1.61972060799598693848e-01) (141, 2.84010857343673706055e-01) (142, 1.01754248142242431641e-01) (143, 5.46798169612884521484e-01) (144, 1.48817256093025207520e-01) (145, -8.20486918091773986816e-02) (146, 1.40369376167654991150e-02) (147, -1.14852499961853027344e+00) (148, -2.79569298028945922852e-01) (149, 8.89544785022735595703e-01) (150, -9.08187329769134521484e-01) (151, -5.98332047462463378906e-01) (152, -8.70793461799621582031e-01) (153, 8.70717048645019531250e-01) (154, 6.61395072937011718750e-01) (155, -3.42014372348785400391e-01) (156, 5.99423110485076904297e-01) (157, 2.10472762584686279297e-01) (158, 4.82011646032333374023e-01) (159, 3.80758464336395263672e-01) (160, 3.35245221853256225586e-01) (161, 3.72348368167877197266e-01) (162, 1.55828729271888732910e-01) (163, -7.14433610439300537109e-01) (164, -2.27889671921730041504e-01) (165, -4.21458339691162109375e+00) (166, -3.36633753776550292969e+00) (167, -1.89376068115234375000e+00) (107, -1.65511533617973327637e-01) (108, -1.42681038379669189453e+00) (109, 3.02574753761291503906e-01) (110, -3.64478915929794311523e-01) (111, 4.92203414440155029297e-01) (112, -4.50157493352890014648e-01) (113, -5.27096331119537353516e-01) (114, 5.76337814331054687500e-01) (115, 3.94605308771133422852e-01) (116, -8.48130524158477783203e-01) (117, -1.02628731727600097656e+00) (118, 1.06173396110534667969e+00) (119, 1.30941438674926757812e+00) (120, -2.16515064239501953125e-01) (121, 9.45090055465698242188e-02) (122, 6.75704836845397949219e-01) (123, -9.10987079143524169922e-01) (124, -1.75315022468566894531e+00) (125, -4.57979977130889892578e-01) (126, -3.89279782772064208984e-01) (127, -6.35886967182159423828e-01) (128, 1.83200255036354064941e-01) (129, -2.56300747394561767578e-01) (130, 3.49306285381317138672e-01) (131, 1.01181614398956298828e+00) (132, 5.46416044235229492188e-01) (133, 8.33299398422241210938e-01) (134, -5.44507861137390136719e-01) (135, 6.85664594173431396484e-01) (136, 4.56127785146236419678e-02) (137, 1.62347781658172607422e+00) (138, -2.15834472328424453735e-02) (139, 2.20292374491691589355e-01) (140, 6.83043658733367919922e-01) (141, 1.11508297920227050781e+00) (142, 8.54795992374420166016e-01) (143, 7.65119135379791259766e-01) (144, 9.79206085205078125000e-01) (145, 1.14155030250549316406e+00) (146, 3.23204606771469116211e-01) (147, 3.21730285882949829102e-01) (148, -1.58628475666046142578e+00) (149, 7.85381257534027099609e-01) (150, -2.30791401863098144531e+00) (151, 1.16078662872314453125e+00) (152, -6.09086573123931884766e-01) (153, 5.22254943847656250000e-01) (154, 2.23653152585029602051e-01) (155, -3.70635002851486206055e-01) (156, -5.25159835815429687500e-01) (157, -3.34989935159683227539e-01) (158, 1.81471490859985351562e+00) (159, -1.72332152724266052246e-01) (160, 3.04137378931045532227e-01) (161, 2.08508655428886413574e-01) (162, -2.91140019893646240234e-01) (163, 1.09429746866226196289e-01) (164, -1.01786482334136962891e+00) (165, 1.17299354076385498047e+00) (166, -1.01387345790863037109e+00) (167, -3.07933360338211059570e-01) (107, 2.76634216308593750000e-01) (108, 1.57876849174499511719e+00) (109, 4.93057593703269958496e-02) (110, -1.51340937614440917969e+00) (111, 4.18706476688385009766e-01) (112, 8.02704989910125732422e-01) (113, -5.82979440689086914062e-01) (114, 2.41851404309272766113e-01) (115, 4.27799165248870849609e-01) (116, -3.72936487197875976562e-01) (117, -3.34334075450897216797e-01) (118, 2.05953553318977355957e-01) (119, -2.26583167910575866699e-01) (120, -5.56269228458404541016e-01) (121, 8.01534295082092285156e-01) (122, 1.02196896076202392578e+00) (123, 2.86504924297332763672e-01) (124, 3.70612055063247680664e-01) (125, -7.53198623657226562500e-01) (126, -1.69050097465515136719e-01) (127, -6.43943250179290771484e-01) (128, 6.01421236991882324219e-01) (129, -2.67440080642700195312e-01) (130, 1.07815909385681152344e+00) (131, 1.59124985337257385254e-01) (132, 6.13279901444911956787e-02) (133, 4.34447228908538818359e-01) (134, 3.88554334640502929688e+00) (135, -5.24885654449462890625e-01) (136, -1.10342286527156829834e-01) (137, -6.78165435791015625000e-01) (138, -2.08928808569908142090e-01) (139, -1.39560246467590332031e+00) (140, -1.40863943099975585938e+00) (141, -5.34431278705596923828e-01) (142, -2.12881231307983398438e+00) (143, 2.99703747034072875977e-01) (144, 2.63690799474716186523e-01) (145, 1.50859028100967407227e-01) (146, 4.83050078153610229492e-01) (147, -3.19694936275482177734e-01) (148, 8.99924373626708984375e+00) (149, 4.57146354019641876221e-02) (150, 9.24096405506134033203e-01) (151, -1.68394491076469421387e-01) (152, -2.05594852566719055176e-01) (153, 7.66327857971191406250e-01) (154, 2.12698616087436676025e-03) (155, -2.23772943019866943359e-01) (156, 3.10863912105560302734e-01) (157, -1.96557074785232543945e-01) (158, -1.20259381830692291260e-01) (159, -8.87500047683715820312e-01) (160, 5.88123500347137451172e-01) (161, 2.85420268774032592773e-01) (162, -8.31807613372802734375e-01) (163, -4.26126241683959960938e-01) (164, 3.44777345657348632812e-01) (165, 1.99403971433639526367e-01) (166, 3.70873391628265380859e-01) (167, 2.17724844813346862793e-01) (107, 5.45259892940521240234e-01) (108, 2.63037776947021484375e+00) (109, -1.53030848503112792969e+00) (110, 5.51684677600860595703e-01) (111, -6.00044071674346923828e-01) (112, -1.55059707164764404297e+00) (113, 5.41741013526916503906e-01) (114, -1.53915870189666748047e+00) (115, -6.49318456649780273438e-01) (116, -2.44265913963317871094e-01) (117, 9.90966916084289550781e-01) (118, 9.22244489192962646484e-02) (119, -1.14183068275451660156e+00) (120, -3.79986464977264404297e-01) (121, -4.60982620716094970703e-02) (122, -1.26233005523681640625e+00) (123, -7.06386506557464599609e-01) (124, 1.27765357494354248047e+00) (125, 3.88043642044067382812e-01) (126, -2.82164782285690307617e-01) (127, 1.99349626898765563965e-01) (128, -3.25525850057601928711e-01) (129, -5.13576447963714599609e-01) (130, -4.48729246854782104492e-01) (131, -7.67320036888122558594e-01) (132, -1.10511124134063720703e+00) (133, -1.00155758857727050781e+00) (134, -1.45440638065338134766e+00) (135, -1.22391092777252197266e+00) (136, -1.24248898029327392578e+00) (137, 5.20311951637268066406e-01) (138, 1.39741575717926025391e+00) (139, 5.22466993331909179688e+00) (140, -1.30350470542907714844e-01) (141, -1.26570081710815429688e+00) (142, 4.23695611953735351562e+00) (143, -1.49935913085937500000e+00) (144, -1.16139984130859375000e+00) (145, -1.06132006645202636719e+00) (146, 2.12894961237907409668e-01) (147, 4.59711015224456787109e-01) (148, 1.63243520259857177734e+00) (149, -3.51028054952621459961e-01) (150, 9.84157681465148925781e-01) (151, 1.14939713478088378906e+00) (152, 6.06227517127990722656e-01) (153, 2.26477786898612976074e-01) (154, 1.30080342292785644531e-01) (155, 1.32122981548309326172e+00) (156, 2.43602052330970764160e-01) (157, 1.10248076915740966797e+00) (158, -2.71434396505355834961e-01) (159, 5.73551058769226074219e-01) (160, -3.19825679063796997070e-01) (161, 1.43553614616394042969e+00) (162, -7.50265344977378845215e-02) (163, -2.89560556411743164062e-01) (164, 7.53892719745635986328e-01) (165, 3.27870774269104003906e+00) (166, 1.15335643291473388672e-01) (167, -3.59379220008850097656e+00) (107, 1.62382617592811584473e-01) (108, -5.90191721916198730469e-01) (109, 4.70811218023300170898e-01) (110, -1.08304190635681152344e+00) (111, 7.41302728652954101562e-01) (112, 6.31141245365142822266e-01) (113, -8.65242421627044677734e-01) (114, 9.27176475524902343750e-01) (115, 9.51456665992736816406e-01) (116, -6.36389851570129394531e-01) (117, -1.09982013702392578125e+00) (118, -2.33477190136909484863e-01) (119, 1.46518015861511230469e+00) (120, -6.49314284324645996094e-01) (121, -9.68760907649993896484e-01) (122, 2.11769372224807739258e-01) (123, -1.15813195705413818359e+00) (124, -5.74988424777984619141e-01) (125, -2.11711421608924865723e-01) (126, -1.09561645984649658203e+00) (127, -6.24314486980438232422e-01) (128, 1.00426316261291503906e+00) (129, -7.79905736446380615234e-01) (130, -9.94223713874816894531e-01) (131, 7.38699555397033691406e-01) (132, 1.12792253494262695312e+00) (133, 1.14965391159057617188e+00) (134, -1.39966738224029541016e+00) (135, -1.04378901422023773193e-01) (136, 4.38778847455978393555e-01) (137, 8.36871325969696044922e-01) (138, -2.76855081319808959961e-01) (139, 1.34583902359008789062e+00) (140, -3.33444625139236450195e-01) (141, 2.49679416418075561523e-01) (142, 2.53944706916809082031e+00) (143, 6.67452812194824218750e-01) (144, 1.04540777206420898438e+00) (145, 1.12594890594482421875e+00) (146, -9.35467611998319625854e-03) (147, 9.30275857448577880859e-01) (148, -6.98138654232025146484e-01) (149, 2.13619971275329589844e+00) (150, -7.59353816509246826172e-01) (151, 4.02056634426116943359e-01) (152, -1.02925717830657958984e+00) (153, 1.59177148342132568359e+00) (154, -1.82198703289031982422e-01) (155, -1.07189404964447021484e+00) (156, 1.64079666137695312500e-01) (157, 6.97877481579780578613e-02) (158, 3.77805233001708984375e-01) (159, 9.48912978172302246094e-01) (160, 1.25658440589904785156e+00) (161, 7.48362779617309570312e-01) (162, 6.56913220882415771484e-01) (163, 1.20692990720272064209e-01) (164, -4.73086208105087280273e-01) (165, -2.00841498374938964844e+00) (166, -8.78300309181213378906e-01) (167, -3.24155712127685546875e+00) (107, -9.16507363319396972656e-01) (108, -1.42411500215530395508e-01) (109, 1.29649758338928222656e+00) (110, 7.89549827575683593750e-01) (111, 3.47744464874267578125e-01) (112, -1.31954431533813476562e+00) (113, 2.32444405555725097656e-01) (114, -8.26236046850681304932e-03) (115, 5.48243336379528045654e-02) (116, -5.13663530349731445312e-01) (117, 7.53183901309967041016e-01) (118, -4.10995334386825561523e-01) (119, 1.13025867938995361328e+00) (120, 6.20019137859344482422e-01) (121, -5.71514010429382324219e-01) (122, 6.24253511428833007812e-01) (123, 1.12053332850337028503e-02) (124, -1.45207178592681884766e+00) (125, -8.74892175197601318359e-02) (126, 5.05495429039001464844e-01) (127, -1.08611294999718666077e-02) (128, -4.43149358034133911133e-01) (129, 2.08741277456283569336e-01) (130, -1.72463819384574890137e-01) (131, 2.09015935659408569336e-01) (132, 8.33761394023895263672e-01) (133, -8.05113792419433593750e-01) (134, -1.60928475856781005859e+00) (135, 5.92502653598785400391e-01) (136, 6.27199038863182067871e-02) (137, 8.36978554725646972656e-01) (138, -1.91365629434585571289e-01) (139, 2.33128404617309570312e+00) (140, 1.61561274528503417969e+00) (141, 1.31823945045471191406e+00) (142, 9.56649005413055419922e-01) (143, 2.02887487411499023438e+00) (144, -9.31592345237731933594e-01) (145, -5.73262596130371093750e+00) (146, -1.54420286417007446289e-01) (147, 2.64594167470932006836e-01) (148, -1.18443000316619873047e+00) (149, 3.04019987583160400391e-01) (150, -9.63432967662811279297e-01) (151, -1.42744496464729309082e-01) (152, 1.77247136831283569336e-01) (153, -3.32029134035110473633e-01) (154, 2.24734783172607421875e-01) (155, -2.64850407838821411133e-01) (156, -1.52265489101409912109e+00) (157, -1.31159615516662597656e+00) (158, 3.96708399057388305664e-01) (159, 1.22839525341987609863e-01) (160, -1.23086822032928466797e+00) (161, -5.54643478244543075562e-03) (162, 1.24102562665939331055e-01) (163, 2.94125139713287353516e-01) (164, -1.65384709835052490234e-01) (165, -2.11603045463562011719e+00) (166, 4.06957054138183593750e+00) (167, 8.72666120529174804688e-01) (107, -1.03986918926239013672e+00) (108, -2.15801358222961425781e+00) (109, 1.05513107776641845703e+00) (110, -7.89308190345764160156e-01) (111, -8.64568650722503662109e-02) (112, -3.16298937797546386719e+00) (113, 8.36563944816589355469e-01) (114, 5.30139245092868804932e-02) (115, 9.29279699921607971191e-02) (116, 2.07134693861007690430e-01) (117, 1.29624748229980468750e+00) (118, 5.92880666255950927734e-01) (119, -5.40724582970142364502e-02) (120, 1.32280722260475158691e-01) (121, -2.38929569721221923828e-01) (122, 2.26655364036560058594e+00) (123, -8.55128914117813110352e-02) (124, -1.80509939789772033691e-01) (125, 1.36250346899032592773e-01) (126, -2.05278083682060241699e-01) (127, -1.26880705356597900391e-01) (128, 2.35449180006980895996e-01) (129, 7.56377130746841430664e-02) (130, 2.79305487871170043945e-01) (131, -6.81139349937438964844e-01) (132, 6.65426790714263916016e-01) (133, -1.30234420299530029297e+00) (134, -3.43950212001800537109e-01) (135, 5.26936769485473632812e-01) (136, -2.65185207128524780273e-01) (137, -1.50475636124610900879e-01) (138, -9.71997901797294616699e-02) (139, 3.35097640752792358398e-01) (140, 1.58553230762481689453e+00) (141, 5.92328488826751708984e-01) (142, 1.11271262168884277344e+00) (143, 2.31842231750488281250e+00) (144, -1.41895163059234619141e+00) (145, -1.71909523010253906250e+00) (146, -2.37939760088920593262e-01) (147, -1.01012945175170898438e+00) (148, 8.19594025611877441406e-01) (149, -1.37776538729667663574e-01) (150, -6.45673647522926330566e-02) (151, 3.13716769218444824219e-01) (152, 6.82207895442843437195e-03) (153, 4.04296010732650756836e-01) (154, 3.88868540525436401367e-01) (155, -8.35331976413726806641e-01) (156, -1.32330095767974853516e+00) (157, -1.82260429859161376953e+00) (158, -2.93089538812637329102e-01) (159, -1.86425182619132101536e-04) (160, -1.60514008998870849609e+00) (161, -5.11482283473014831543e-02) (162, 5.41620776057243347168e-02) (163, -3.01186680793762207031e-01) (164, 5.72702229022979736328e-01) (165, -8.82907211780548095703e-01) (166, -2.79403954744338989258e-01) (167, -5.31821012496948242188e-01) (107, 4.51806724071502685547e-01) (108, 2.55904644727706909180e-01) (109, -5.60574829578399658203e-01) (110, -8.54682028293609619141e-01) (111, 6.08893632888793945312e-01) (112, 1.56866818666458129883e-01) (113, 2.63095378875732421875e-01) (114, 6.02357238531112670898e-02) (115, -3.29769223928451538086e-01) (116, 1.01666934788227081299e-01) (117, 9.24463927745819091797e-01) (118, 3.70251864194869995117e-01) (119, -1.24950937926769256592e-01) (120, -1.15423274040222167969e+00) (121, 4.18383121490478515625e-01) (122, 2.20106020569801330566e-02) (123, -7.28415191173553466797e-01) (124, 6.89657852053642272949e-02) (125, -8.51181268692016601562e-01) (126, -8.00046503543853759766e-01) (127, -5.05810022354125976562e-01) (128, 7.71456480026245117188e-01) (129, -6.79074764251708984375e-01) (130, -1.98052659630775451660e-01) (131, 1.32113322615623474121e-01) (132, -4.22604560852050781250e-01) (133, -9.51230704784393310547e-01) (134, -2.54462778568267822266e-01) (135, -5.60922622680664062500e-01) (136, -8.18153083324432373047e-01) (137, 6.06712400913238525391e-02) (138, 4.23031061887741088867e-01) (139, 2.88931846618652343750e-01) (140, -1.08946037292480468750e+00) (141, 5.84915056824684143066e-02) (142, 1.30802989006042480469e+00) (143, -1.97941765189170837402e-01) (144, -1.11183917522430419922e+00) (145, -2.43743276596069335938e+00) (146, 7.62092053890228271484e-01) (147, 2.04831391572952270508e-01) (148, 9.57774519920349121094e-02) (149, -4.18904155492782592773e-01) (150, 5.06508827209472656250e-01) (151, 7.17945158481597900391e-01) (152, -3.93363721668720245361e-02) (153, 6.27249181270599365234e-01) (154, 4.82075303792953491211e-01) (155, 5.34287393093109130859e-01) (156, 2.75095015764236450195e-01) (157, 4.34478104114532470703e-01) (158, 1.89291045069694519043e-01) (159, -2.30452269315719604492e-01) (160, -3.86280983686447143555e-01) (161, 1.12912869453430175781e+00) (162, -4.20262366533279418945e-01) (163, -4.28215861320495605469e-01) (164, 8.56099277734756469727e-03) (165, 1.65503084659576416016e+00) (166, -3.16269546747207641602e-01) (167, -3.69665122032165527344e+00) (107, 5.31907796859741210938e-01) (108, 1.86254990100860595703e+00) (109, -4.39317464828491210938e-01) (110, -1.56474947929382324219e+00) (111, 1.06880269944667816162e-01) (112, -4.11390155553817749023e-01) (113, -2.08367198705673217773e-01) (114, 4.31444764137268066406e-01) (115, 6.55900835990905761719e-01) (116, -9.08443093299865722656e-01) (117, 1.66964113712310791016e-01) (118, -8.35949242115020751953e-01) (119, -3.12012851238250732422e-01) (120, -7.84133374691009521484e-01) (121, 6.29611134529113769531e-01) (122, -3.40878754854202270508e-01) (123, 3.52679014205932617188e-01) (124, 4.44892831146717071533e-02) (125, -2.42998287081718444824e-01) (126, -1.28340899944305419922e+00) (127, -1.84455901384353637695e-01) (128, 1.04563415050506591797e+00) (129, 6.75375461578369140625e-01) (130, 8.40722382068634033203e-01) (131, -4.83970612287521362305e-01) (132, -2.77200967073440551758e-01) (133, -2.10243016481399536133e-01) (134, 7.03477561473846435547e-01) (135, 8.96102190017700195312e-02) (136, 6.20434284210205078125e-01) (137, -5.38027703762054443359e-01) (138, -9.15115535259246826172e-01) (139, 1.28562897443771362305e-01) (140, -1.67961400002241134644e-02) (141, -2.53591269254684448242e-01) (142, -9.12799358367919921875e-01) (143, -3.30302774906158447266e-01) (144, -3.45565825700759887695e-01) (145, -5.41539937257766723633e-02) (146, 2.06164970993995666504e-01) (147, 1.69112026691436767578e-01) (148, 4.24954086542129516602e-01) (149, -9.79994118213653564453e-01) (150, -3.76237988471984863281e-01) (151, -5.08147895336151123047e-01) (152, -5.25376975536346435547e-01) (153, 6.92883372306823730469e-01) (154, -9.82529968023300170898e-02) (155, 8.01358148455619812012e-02) (156, -4.16063293814659118652e-02) (157, 3.84949028491973876953e-01) (158, -1.02649497985839843750e+00) (159, -5.82390487194061279297e-01) (160, 7.28728234767913818359e-01) (161, -1.05223648250102996826e-01) (162, -5.31386673450469970703e-01) (163, 3.02549898624420166016e-01) (164, 4.49053168296813964844e-01) (165, -8.98794889450073242188e-01) (166, -2.61601030826568603516e-01) (167, 1.27795720100402832031e+00) (107, 3.74323844909667968750e-01) (108, 4.44387406110763549805e-01) (109, -1.51466608047485351562e+00) (110, -1.09140433371067047119e-01) (111, 4.53407257795333862305e-01) (112, 4.79801744222640991211e-01) (113, 1.44844666123390197754e-01) (114, 4.06330972909927368164e-01) (115, 2.47132122516632080078e-01) (116, 7.16518342494964599609e-01) (117, 3.13697420060634613037e-02) (118, -4.56013470888137817383e-01) (119, -4.08028751611709594727e-01) (120, -2.20771268010139465332e-01) (121, 1.07792186737060546875e+00) (122, -1.12801074981689453125e+00) (123, -1.02099411189556121826e-01) (124, 7.28547632694244384766e-01) (125, -5.92996656894683837891e-01) (126, -9.70837950706481933594e-01) (127, -4.03307735919952392578e-01) (128, 3.07228248566389083862e-02) (129, -8.87941345572471618652e-02) (130, 7.31679618358612060547e-01) (131, -4.26814794540405273438e-01) (132, -1.15869987010955810547e+00) (133, -1.24213352799415588379e-01) (134, -2.13110995292663574219e+00) (135, -7.67421603202819824219e-01) (136, -5.01312948763370513916e-02) (137, -9.84370648860931396484e-01) (138, -1.39727637171745300293e-01) (139, -1.33582699298858642578e+00) (140, -2.36441697925329208374e-02) (141, -1.08801400661468505859e+00) (142, -6.27027928829193115234e-01) (143, -6.66609585285186767578e-01) (144, -3.42310726642608642578e-01) (145, 1.40253424644470214844e-01) (146, 3.21125507354736328125e-01) (147, -9.65030211955308914185e-03) (148, 1.50227940082550048828e+00) (149, -4.31949853897094726562e-01) (150, 1.01287281513214111328e+00) (151, 2.66679748892784118652e-02) (152, -1.79058775305747985840e-01) (153, -1.98283225297927856445e-01) (154, -5.22808097302913665771e-02) (155, 1.22604262828826904297e+00) (156, 1.36410403251647949219e+00) (157, 9.73954677581787109375e-01) (158, -4.66850221157073974609e-01) (159, -8.30092728137969970703e-01) (160, 8.23026299476623535156e-01) (161, -5.31089492142200469971e-02) (162, -7.76452183723449707031e-01) (163, 6.68981134891510009766e-01) (164, 8.54994475841522216797e-01) (165, 8.38628649711608886719e-01) (166, 4.56099301576614379883e-01) (167, -1.86970257759094238281e+00) (107, -5.16341269016265869141e-01) (108, -8.20589125156402587891e-01) (109, 2.21475914120674133301e-01) (110, 8.60989093780517578125e-01) (111, -5.18184900283813476562e-01) (112, 2.40380957722663879395e-01) (113, -5.39954483509063720703e-01) (114, -6.47902488708496093750e-01) (115, 1.80304598808288574219e+00) (116, -1.74287974834442138672e-01) (117, -9.38518822193145751953e-01) (118, -1.08572638034820556641e+00) (119, -1.64630067348480224609e+00) (120, 6.10143303871154785156e-01) (121, -1.85640361160039901733e-02) (122, -1.94847658276557922363e-01) (123, 1.56582415103912353516e+00) (124, 6.04669988155364990234e-01) (125, 6.37125313282012939453e-01) (126, 1.25049278140068054199e-01) (127, 9.42036390304565429688e-01) (128, -9.07325506210327148438e-01) (129, 9.23104405403137207031e-01) (130, 3.20505023002624511719e-01) (131, -1.38374865055084228516e+00) (132, 1.00596740841865539551e-01) (133, 1.07716941833496093750e+00) (134, 1.61748945713043212891e+00) (135, 1.04650408029556274414e-01) (136, 1.20070087909698486328e+00) (137, -4.05751541256904602051e-02) (138, 8.77341255545616149902e-02) (139, -1.65904507040977478027e-01) (140, -1.84908248484134674072e-02) (141, -2.56034165620803833008e-01) (142, -1.32156240940093994141e+00) (143, 5.48439562320709228516e-01) (144, 1.06365060806274414062e+00) (145, 1.21274113655090332031e+00) (146, -1.56023189425468444824e-01) (147, 1.06040215492248535156e+00) (148, 3.08956652879714965820e-02) (149, -1.47895455360412597656e+00) (150, 5.53771078586578369141e-01) (151, -9.15473878383636474609e-01) (152, 8.77644956111907958984e-01) (153, -1.09574365615844726562e+00) (154, -1.07226109504699707031e+00) (155, -3.19932252168655395508e-01) (156, -5.16962885856628417969e-01) (157, -1.04951657354831695557e-01) (158, 1.43326267600059509277e-01) (159, -1.66056469082832336426e-01) (160, 8.74087035655975341797e-01) (161, -1.49717569351196289062e-01) (162, -2.07719057798385620117e-01) (163, 1.15420973300933837891e+00) (164, -1.35396299883723258972e-02) (165, 2.26728796958923339844e+00) (166, 1.65430471301078796387e-01) (167, 1.82202801108360290527e-01) (107, -2.02244594693183898926e-01) (108, 1.31471550464630126953e+00) (109, 1.19910322129726409912e-01) (110, 7.82198607921600341797e-02) (111, -1.86193719506263732910e-01) (112, 2.28756561875343322754e-01) (113, 3.77215258777141571045e-03) (114, 9.10949289798736572266e-01) (115, 1.39214634895324707031e+00) (116, -1.44238185882568359375e+00) (117, -4.19660657644271850586e-01) (118, -8.64296615123748779297e-01) (119, -3.31531077623367309570e-01) (120, 1.85610741376876831055e-01) (121, -2.31726005673408508301e-01) (122, -5.72293162345886230469e-01) (123, 1.95118391513824462891e+00) (124, 6.41322731971740722656e-01) (125, 2.19670504331588745117e-01) (126, -3.10256600379943847656e-01) (127, -2.02677711844444274902e-01) (128, 1.17623880505561828613e-01) (129, 3.95229667425155639648e-01) (130, -1.26404479146003723145e-01) (131, -9.68939185142517089844e-01) (132, 7.33874216675758361816e-02) (133, 3.01229029893875122070e-01) (134, 7.55590498447418212891e-01) (135, -1.30620356649160385132e-02) (136, 1.44153282046318054199e-01) (137, 3.35104167461395263672e-01) (138, -3.28272819519042968750e-01) (139, 2.81646907329559326172e-01) (140, 4.51873689889907836914e-02) (141, -3.62555384635925292969e-01) (142, -2.15757989883422851562e+00) (143, -1.35324907302856445312e+00) (144, 4.18860822916030883789e-01) (145, 3.23476910591125488281e-01) (146, -3.41354042291641235352e-01) (147, 1.85515546798706054688e+00) (148, -9.43938136100769042969e-01) (149, 1.05381727218627929688e+00) (150, -1.84361827373504638672e+00) (151, -1.37126171588897705078e+00) (152, -8.44083368778228759766e-01) (153, -3.33575069904327392578e-01) (154, -1.68745958805084228516e+00) (155, -2.12426662445068359375e-01) (156, -3.66768181324005126953e-01) (157, -1.59521758556365966797e-01) (158, -1.38360774517059326172e+00) (159, 2.91355162858963012695e-01) (160, 4.66316074132919311523e-01) (161, -9.56539750099182128906e-01) (162, 1.36515796184539794922e-01) (163, 1.92039823532104492188e+00) (164, -1.28642153739929199219e+00) (165, -9.42666292190551757812e-01) (166, 7.94903457164764404297e-01) (167, 8.87371540069580078125e-01) (107, 1.31972491741180419922e-01) (108, 1.18021652102470397949e-01) (109, -3.68572711944580078125e-01) (110, 3.38986486196517944336e-01) (111, 3.37012887001037597656e-01) (112, 5.02311170101165771484e-01) (113, 5.80583572387695312500e-01) (114, -4.39696848392486572266e-01) (115, -6.60914003849029541016e-01) (116, -4.30861040949821472168e-02) (117, 1.18686270713806152344e+00) (118, 7.25154161453247070312e-01) (119, 1.31078863143920898438e+00) (120, -2.43846312165260314941e-01) (121, 8.51163268089294433594e-01) (122, 9.40325930714607238770e-02) (123, -2.03739833831787109375e+00) (124, -2.34352588653564453125e+00) (125, -3.25602084398269653320e-01) (126, -5.86033999919891357422e-01) (127, -1.24776042997837066650e-01) (128, -3.18272262811660766602e-01) (129, 2.05271244049072265625e-01) (130, 9.84667539596557617188e-01) (131, 6.91238194704055786133e-02) (132, -7.77508914470672607422e-02) (133, -1.07162952423095703125e+00) (134, -5.97253322601318359375e-01) (135, 1.10267102718353271484e+00) (136, 3.69243353605270385742e-01) (137, 1.23962259292602539062e+00) (138, 1.08961331844329833984e+00) (139, -4.15860474109649658203e-01) (140, -4.35260444879531860352e-01) (141, 1.00177109241485595703e+00) (142, 3.29900503158569335938e-01) (143, 1.63615182042121887207e-01) (144, -1.23177206516265869141e+00) (145, -1.00852560997009277344e+00) (146, 5.84983110427856445312e-01) (147, -7.78601020574569702148e-02) (148, -1.45727252960205078125e+00) (149, 6.02124750614166259766e-01) (150, -2.08647465705871582031e+00) (151, 2.58657336235046386719e+00) (152, 4.88047599792480468750e-01) (153, -1.74353718757629394531e-01) (154, 2.02903032302856445312e+00) (155, 2.01444938778877258301e-01) (156, 6.25864803791046142578e-01) (157, 3.51637572050094604492e-01) (158, 1.57781445980072021484e+00) (159, -8.70396375656127929688e-01) (160, -8.66874575614929199219e-01) (161, 9.33139443397521972656e-01) (162, -9.70071434974670410156e-01) (163, -1.49597376585006713867e-01) (164, -1.10984027385711669922e+00) (165, -4.97987937927246093750e+00) (166, -4.58520911633968353271e-02) (167, -4.40708875656127929688e+00) (107, -5.81069052219390869141e-01) (108, -2.63477921485900878906e-01) (109, 1.49105811119079589844e+00) (110, -1.83523610234260559082e-01) (111, -9.83443081378936767578e-01) (112, -1.80376529693603515625e+00) (113, -1.96079865097999572754e-01) (114, -1.05864036083221435547e+00) (115, 3.80915343761444091797e-01) (116, 5.44619038701057434082e-02) (117, -5.53683280944824218750e-01) (118, -4.01248753070831298828e-01) (119, 4.16818022727966308594e-01) (120, 7.39100053906440734863e-02) (121, -1.57969856262207031250e+00) (122, 2.94914126396179199219e-01) (123, 5.69889307022094726562e-01) (124, -5.38395702838897705078e-01) (125, 1.05320703983306884766e+00) (126, 3.62082272768020629883e-01) (127, 9.14384484291076660156e-01) (128, -2.80396994203329086304e-02) (129, -3.52507755160331726074e-02) (130, -1.26989734172821044922e+00) (131, 2.43793502449989318848e-01) (132, 1.66036736965179443359e+00) (133, 6.47691726684570312500e-01) (134, 5.70612370967864990234e-01) (135, 8.44768345355987548828e-01) (136, -1.01297311484813690186e-01) (137, 4.62757050991058349609e-01) (138, -5.54987490177154541016e-01) (139, 1.45955431461334228516e+00) (140, -2.52686202526092529297e-01) (141, 7.75563120841979980469e-01) (142, 1.15370845794677734375e+00) (143, 7.64977693557739257812e-01) (144, 7.47564375400543212891e-01) (145, 7.46035456657409667969e-01) (146, -6.63597106933593750000e-01) (147, 2.33863994479179382324e-01) (148, -9.35492277145385742188e-01) (149, 1.23454019427299499512e-01) (150, -6.24325990676879882812e-01) (151, -7.30576753616333007812e-01) (152, 7.95472860336303710938e-01) (153, 3.11861991882324218750e-01) (154, -3.66365194320678710938e-01) (155, -1.30583393573760986328e+00) (156, -8.64431023597717285156e-01) (157, -1.17671787738800048828e+00) (158, 1.55758202075958251953e-01) (159, 1.70229136943817138672e+00) (160, 3.27749073505401611328e-01) (161, -4.91298973560333251953e-01) (162, 1.24437248706817626953e+00) (163, 4.89852726459503173828e-01) (164, -4.77920264005661010742e-01) (165, 1.06754899024963378906e-01) (166, -2.62749612331390380859e-01) (167, 1.61881852149963378906e+00) (107, 1.23425817582756280899e-03) (108, -1.05530321598052978516e+00) (109, -1.56002774834632873535e-01) (110, 5.58141660690307617188e+00) (111, 8.88897385448217391968e-03) (112, 5.97334146499633789062e-01) (113, 7.13672876358032226562e-01) (114, -2.23909467458724975586e-01) (115, 9.24535244703292846680e-02) (116, 1.33433073759078979492e-01) (117, 8.00964593887329101562e-01) (118, -2.11151629686355590820e-01) (119, 2.05745175480842590332e-02) (120, 7.08093822002410888672e-01) (121, -5.31198263168334960938e-01) (122, -1.02803719043731689453e+00) (123, 1.42534434795379638672e-01) (124, 2.40277722477912902832e-01) (125, 2.00101956725120544434e-01) (126, 8.05472075939178466797e-01) (127, 3.81354928016662597656e-01) (128, -3.21635365486145019531e-01) (129, 8.03239524364471435547e-01) (130, -7.63296663761138916016e-01) (131, 1.37216329574584960938e-01) (132, -1.58364415168762207031e-01) (133, -8.92536461353302001953e-01) (134, -8.71944069862365722656e-01) (135, -7.40567862987518310547e-01) (136, 4.82239633798599243164e-01) (137, -3.41297209262847900391e-01) (138, 7.65245407819747924805e-02) (139, 3.18656176328659057617e-01) (140, 1.15692794322967529297e+00) (141, -6.47585213184356689453e-01) (142, 2.56548020988702774048e-02) (143, -4.74154680967330932617e-01) (144, -9.24085915088653564453e-01) (145, -4.76805835962295532227e-01) (146, -3.75091403722763061523e-01) (147, 2.28379502892494201660e-01) (148, 2.71596848964691162109e-01) (149, -2.16633111238479614258e-01) (150, 2.58359879255294799805e-01) (151, -9.78713855147361755371e-02) (152, 4.62637960910797119141e-01) (153, -1.25987923145294189453e+00) (154, -2.25325956940650939941e-01) (155, 3.17652970552444458008e-01) (156, 2.30762660503387451172e-01) (157, 2.46136546134948730469e-01) (158, -6.25316472724080085754e-03) (159, 6.34967386722564697266e-01) (160, -6.13149583339691162109e-01) (161, -3.71807128190994262695e-01) (162, 5.17631828784942626953e-01) (163, 1.14079520106315612793e-01) (164, 4.02247667312622070312e-01) (165, -6.69380366802215576172e-01) (166, 2.22268176078796386719e+00) (167, -1.06395244598388671875e+00) (107, -8.72780978679656982422e-02) (108, -1.40275144577026367188e+00) (109, 3.12622785568237304688e-01) (110, -6.00549042224884033203e-01) (111, 6.92152082920074462891e-01) (112, 1.62403714656829833984e+00) (113, -6.65516674518585205078e-01) (114, 8.64155054092407226562e-01) (115, 1.09445462003350257874e-02) (116, -5.71454465389251708984e-01) (117, -1.14652478694915771484e+00) (118, -1.60106226801872253418e-01) (119, 2.04257592558860778809e-01) (120, 9.16672050952911376953e-02) (121, 2.26655915379524230957e-01) (122, -3.93153160810470581055e-01) (123, 2.54402041435241699219e-01) (124, -1.18128746747970581055e-01) (125, -5.75922608375549316406e-01) (126, -4.72386151552200317383e-01) (127, -4.84441757202148437500e-01) (128, 3.98102104663848876953e-01) (129, -5.88739335536956787109e-01) (130, -1.57623976469039916992e-01) (131, 1.83783173561096191406e+00) (132, 4.88015323877334594727e-01) (133, 1.52194464206695556641e+00) (134, 3.69746983051300048828e-01) (135, -9.77540016174316406250e-02) (136, -2.85582959651947021484e-01) (137, 4.72837649285793304443e-02) (138, -6.81827664375305175781e-01) (139, 7.54939556121826171875e-01) (140, -6.28940403461456298828e-01) (141, -5.48960149288177490234e-01) (142, -3.13504785299301147461e-01) (143, -6.69549256563186645508e-02) (144, 1.52628028392791748047e+00) (145, 1.38498520851135253906e+00) (146, 1.29780895076692104340e-03) (147, -3.94470840692520141602e-02) (148, 1.88069686293601989746e-01) (149, 8.59513521194458007812e-01) (150, 1.58709630370140075684e-01) (151, -4.23316061496734619141e-01) (152, -6.60002648830413818359e-01) (153, 5.72917401790618896484e-01) (154, -2.22465857863426208496e-01) (155, -3.54177504777908325195e-01) (156, 9.10120487213134765625e-01) (157, 3.18391740322113037109e-01) (158, -3.02686214447021484375e-01) (159, -1.72400608658790588379e-01) (160, 1.36426544189453125000e+00) (161, -7.50394523143768310547e-01) (162, 2.27695062756538391113e-01) (163, -1.15775041282176971436e-01) (164, 2.95219928026199340820e-01) (165, -5.26534199714660644531e-01) (166, -1.04832172393798828125e-01) (167, 3.28663408756256103516e-01) (107, -7.06407008692622184753e-03) (108, 6.11785113811492919922e-01) (109, -4.96075861155986785889e-02) (110, 2.45880097150802612305e-01) (111, -6.89628601074218750000e-01) (112, 6.00349783897399902344e-01) (113, -8.73975306749343872070e-02) (114, -6.87294602394104003906e-01) (115, 2.36572432518005371094e+00) (116, -7.29768395423889160156e-01) (117, -4.05409485101699829102e-01) (118, -5.98669767379760742188e-01) (119, -2.00959607958793640137e-01) (120, 1.70116290450096130371e-01) (121, -2.45175868272781372070e-01) (122, -6.40447199344635009766e-01) (123, 5.79860687255859375000e-01) (124, -4.84829664230346679688e-01) (125, 3.43742549419403076172e-01) (126, -5.01371741294860839844e-01) (127, 5.62253713607788085938e-01) (128, -4.02418524026870727539e-01) (129, 5.68868041038513183594e-01) (130, -7.37436413764953613281e-01) (131, 2.01302003115415573120e-02) (132, 2.55261600017547607422e-01) (133, 4.72004860639572143555e-01) (134, 1.92069768905639648438e+00) (135, -5.43404817581176757812e-01) (136, 5.87291419506072998047e-01) (137, 1.54609858989715576172e+00) (138, 1.63789939880371093750e+00) (139, -3.54139178991317749023e-01) (140, -5.37520349025726318359e-01) (141, -5.44286906719207763672e-01) (142, 8.52666676044464111328e-01) (143, 4.55626472830772399902e-02) (144, 5.72643578052520751953e-01) (145, 2.75019586086273193359e-01) (146, -6.12396597862243652344e-01) (147, 8.58907699584960937500e-01) (148, 3.86778831481933593750e-01) (149, -2.19503343105316162109e-01) (150, 1.60102576017379760742e-01) (151, 5.31837284564971923828e-01) (152, 5.08300840854644775391e-01) (153, -4.53321218490600585938e-01) (154, -1.30519151687622070312e+00) (155, -3.74909341335296630859e-01) (156, 5.79344518482685089111e-02) (157, 2.13447585701942443848e-01) (158, 1.02794802188873291016e+00) (159, 3.16756129264831542969e-01) (160, 4.09848898649215698242e-01) (161, -1.06063163280487060547e+00) (162, 2.33667910099029541016e-01) (163, 7.77476668357849121094e-01) (164, -2.72432804107666015625e-01) (165, 3.20084428787231445312e+00) (166, -8.64635944366455078125e-01) (167, 1.71018540859222412109e+00) (107, -5.17247140407562255859e-01) (108, -1.02408424019813537598e-01) (109, 4.59569633007049560547e-01) (110, 1.57210916280746459961e-01) (111, -6.05456173419952392578e-01) (112, -1.19238269329071044922e+00) (113, 6.97970449924468994141e-01) (114, -8.63662481307983398438e-01) (115, 2.79103875160217285156e-01) (116, 1.31077274680137634277e-01) (117, 7.35502660274505615234e-01) (118, -1.30667254328727722168e-01) (119, 2.75930762290954589844e-01) (120, 2.98919379711151123047e-01) (121, -6.30220830440521240234e-01) (122, -1.37568786740303039551e-01) (123, 3.40432733297348022461e-01) (124, -2.69159436225891113281e-01) (125, 9.44870769977569580078e-01) (126, 4.91438060998916625977e-01) (127, 6.11733818054199218750e+00) (128, -1.46788984537124633789e-01) (129, 5.97591280937194824219e-01) (130, -4.28145118057727813721e-02) (131, -3.90046425163745880127e-02) (132, -3.52979958057403564453e-01) (133, -9.22363340854644775391e-01) (134, -2.20583558082580566406e-01) (135, 3.82054924964904785156e-01) (136, 9.04479324817657470703e-01) (137, -2.14428663253784179688e-01) (138, 2.13038593530654907227e-01) (139, 1.62106707692146301270e-01) (140, 5.15078961849212646484e-01) (141, 6.83678388595581054688e-01) (142, 4.59216296672821044922e-01) (143, 1.17074859142303466797e+00) (144, -9.69922900199890136719e-01) (145, -5.99028170108795166016e-01) (146, -4.15363758802413940430e-01) (147, -9.63450819253921508789e-02) (148, 4.29596662521362304688e-01) (149, -1.26589810848236083984e+00) (150, -1.16116762161254882812e-01) (151, -2.64101922512054443359e-01) (152, 9.25639092922210693359e-01) (153, -1.72438770532608032227e-01) (154, -9.70552936196327209473e-02) (155, -4.48094308376312255859e-01) (156, -1.10490047931671142578e+00) (157, -2.15518981218338012695e-01) (158, 2.36566111445426940918e-01) (159, 6.37665092945098876953e-01) (160, -5.48268616199493408203e-01) (161, 4.69911508262157440186e-02) (162, 3.84341657161712646484e-01) (163, 1.49215787649154663086e-01) (164, 1.90249562263488769531e-01) (165, -1.29880332946777343750e+00) (166, 5.34844279289245605469e-01) (167, -8.70545446872711181641e-01) (107, -5.24331510066986083984e-01) (108, -2.24495625495910644531e+00) (109, 3.78541737794876098633e-01) (110, 5.58242857456207275391e-01) (111, 1.05336913838982582092e-02) (112, -8.58299791812896728516e-01) (113, 6.26968622207641601562e-01) (114, 2.87030428647994995117e-01) (115, -1.41966372728347778320e-01) (116, 7.51171648502349853516e-01) (117, 1.15311227738857269287e-01) (118, -8.20107236504554748535e-02) (119, 8.93397629261016845703e-01) (120, 9.71288561820983886719e-01) (121, -8.43882918357849121094e-01) (122, 6.50173127651214599609e-02) (123, 1.32237568497657775879e-01) (124, -7.61748015880584716797e-01) (125, 4.55808043479919433594e-01) (126, 9.35619175434112548828e-01) (127, 5.82312285900115966797e-01) (128, -4.91221606731414794922e-01) (129, 8.17307293415069580078e-01) (130, -6.96814715862274169922e-01) (131, 9.24734473228454589844e-02) (132, -1.70311495661735534668e-01) (133, -2.26017385721206665039e-01) (134, -1.80105221271514892578e+00) (135, 3.63747030496597290039e-01) (136, 1.05762326717376708984e+00) (137, 6.29745781421661376953e-01) (138, -3.25840175151824951172e-01) (139, 1.45132262259721755981e-02) (140, 3.74761033058166503906e+00) (141, 8.97968530654907226562e-01) (142, -2.63757795095443725586e-01) (143, 1.44210767745971679688e+00) (144, -2.59947061538696289062e-01) (145, -6.66287764906883239746e-02) (146, -4.01625752449035644531e-01) (147, -3.18863749504089355469e-01) (148, -5.30447959899902343750e-01) (149, -2.42714598774909973145e-01) (150, -9.36698615550994873047e-01) (151, -3.32091659307479858398e-01) (152, 5.52814528346061706543e-02) (153, -6.22574925422668457031e-01) (154, 5.07723428308963775635e-02) (155, 4.04595226049423217773e-01) (156, -8.29827010631561279297e-01) (157, -2.78108954429626464844e-01) (158, -2.67528682947158813477e-01) (159, 9.32676255702972412109e-01) (160, -4.24227155745029449463e-02) (161, -5.05699455738067626953e-01) (162, 8.76717388629913330078e-01) (163, -1.41942009329795837402e-01) (164, 9.43247735500335693359e-01) (165, -3.46020126342773437500e+00) (166, 8.77006351947784423828e-01) (167, 2.04730749130249023438e+00) (107, -4.05425995588302612305e-01) (108, 1.41532309353351593018e-02) (109, 3.11965346336364746094e-01) (110, 2.06382736563682556152e-01) (111, -2.37515449523925781250e-01) (112, -9.32302251458168029785e-02) (113, 1.78811728954315185547e-01) (114, -5.23186437785625457764e-02) (115, 1.00556671619415283203e+00) (116, -1.56358078122138977051e-01) (117, 1.51921227574348449707e-01) (118, -6.14267528057098388672e-01) (119, -1.96391761302947998047e-01) (120, 2.67855197191238403320e-01) (121, -2.19993874430656433105e-01) (122, 1.70786023139953613281e-01) (123, 1.07170641422271728516e+00) (124, 3.76247674226760864258e-01) (125, 3.52437227964401245117e-01) (126, 4.08538281917572021484e-01) (127, 3.83617997169494628906e-01) (128, -1.90536201000213623047e-01) (129, 1.57787725329399108887e-01) (130, -4.76181417703628540039e-01) (131, -4.18531507253646850586e-01) (132, 2.02320013195276260376e-02) (133, -2.07842230796813964844e-01) (134, 5.90263307094573974609e-01) (135, 1.86196371912956237793e-01) (136, 6.48621767759323120117e-02) (137, -2.29391515254974365234e-01) (138, -3.91632527112960815430e-01) (139, 9.86151024699211120605e-02) (140, 3.07380318641662597656e-01) (141, -6.16288138553500175476e-03) (142, -6.37060403823852539062e-01) (143, 1.07610404491424560547e-01) (144, -1.86790794134140014648e-01) (145, -1.72323897480964660645e-01) (146, -4.62475419044494628906e-01) (147, 5.69158494472503662109e-01) (148, 3.25215935707092285156e-01) (149, 5.04523217678070068359e-01) (150, 2.27988809347152709961e-01) (151, -9.20985996723175048828e-01) (152, 6.74436613917350769043e-02) (153, -2.68988341093063354492e-01) (154, -6.43545508384704589844e-01) (155, -1.46065966691821813583e-03) (156, -2.41376057267189025879e-01) (157, -2.10996061563491821289e-01) (158, -5.64821302890777587891e-01) (159, 2.67752915620803833008e-01) (160, -1.62608474493026733398e-01) (161, -1.06256198883056640625e+00) (162, 3.86141598224639892578e-01) (163, 7.53529906272888183594e-01) (164, 2.61639803647994995117e-01) (165, 1.88455268740653991699e-01) (166, 2.19827204942703247070e-01) (167, 2.56179857254028320312e+00) (107, -6.17145180702209472656e-01) (108, -1.23517918586730957031e+00) (109, 5.21687507629394531250e-01) (110, 9.63090598583221435547e-01) (111, -3.26500326395034790039e-01) (112, 1.63751527667045593262e-01) (113, 4.02688235044479370117e-01) (114, -4.92843925952911376953e-01) (115, -1.06379997730255126953e+00) (116, -1.49484181404113769531e+00) (117, 2.53902584314346313477e-01) (118, -3.12575054168701171875e+00) (119, 6.73668205738067626953e-01) (120, 8.67316663265228271484e-01) (121, -2.64237612485885620117e-01) (122, 1.02224671840667724609e+00) (123, -2.27187657356262207031e+00) (124, -7.77438163757324218750e-01) (125, 3.60665827989578247070e-01) (126, 4.30253773927688598633e-01) (127, 1.78763955831527709961e-01) (128, -8.80929589271545410156e-01) (129, 1.11556422710418701172e+00) (130, -1.43980577588081359863e-01) (131, -6.77202820777893066406e-01) (132, 4.98201727867126464844e-01) (133, -1.74754738807678222656e-01) (134, -4.22191715240478515625e+00) (135, 3.76454901695251464844e+00) (136, -1.93507838249206542969e+00) (137, 8.89669358730316162109e-01) (138, 3.50506067276000976562e-01) (139, 3.02813462913036346436e-02) (140, 6.77705407142639160156e-01) (141, -1.56897008419036865234e+00) (142, 2.81195074319839477539e-01) (143, -3.24601268768310546875e+00) (144, -1.59530982375144958496e-01) (145, 2.67509766854345798492e-03) (146, -4.14381742477416992188e-01) (147, 6.04526281356811523438e-01) (148, 1.12342095375061035156e+00) (149, -4.80954259634017944336e-01) (150, 9.30183101445436477661e-03) (151, 5.03025722503662109375e+00) (152, 7.69352018833160400391e-01) (153, -9.39007759094238281250e-01) (154, 7.10980892181396484375e-01) (155, -1.04592710733413696289e-01) (156, -5.32975971698760986328e-01) (157, -2.26510703563690185547e-01) (158, 8.10438275337219238281e-01) (159, 3.59953194856643676758e-01) (160, -2.17230647802352905273e-01) (161, -1.51496352627873420715e-02) (162, 2.72986590862274169922e-01) (163, 2.10767722129821777344e+00) (164, -8.75257402658462524414e-02) (165, 3.99389576911926269531e+00) (166, 9.36255276203155517578e-01) (167, -2.56373333930969238281e+00) (107, 4.59304243326187133789e-01) (108, -3.26200276613235473633e-02) (109, -3.87022644281387329102e-01) (110, -1.57149896025657653809e-01) (111, 3.51680815219879150391e-01) (112, -6.46713236346840858459e-03) (113, -2.88444459438323974609e-01) (114, 1.60325974225997924805e-01) (115, -8.18706989288330078125e-01) (116, 3.31901997327804565430e-01) (117, -1.41783788800239562988e-01) (118, 6.31605684757232666016e-01) (119, 2.64388293027877807617e-01) (120, -3.72146219015121459961e-01) (121, 3.55491727590560913086e-01) (122, -1.78934052586555480957e-01) (123, -9.20442700386047363281e-01) (124, -1.49882540106773376465e-01) (125, -3.38692247867584228516e-01) (126, -3.13915252685546875000e-01) (127, -3.72253835201263427734e-01) (128, 3.22539091110229492188e-01) (129, -1.18806175887584686279e-01) (130, 5.27185976505279541016e-01) (131, 2.69856154918670654297e-01) (132, -2.07609891891479492188e-01) (133, 3.16327571868896484375e-01) (134, -4.47903335094451904297e-01) (135, 2.01664827764034271240e-02) (136, -1.98447778820991516113e-01) (137, 2.72330611944198608398e-01) (138, 3.95117014646530151367e-01) (139, -1.93418249487876892090e-01) (140, -2.37646058201789855957e-01) (141, -4.67918850481510162354e-02) (142, 5.57238519191741943359e-01) (143, -1.17962487041950225830e-01) (144, 3.40575546026229858398e-01) (145, 6.50260969996452331543e-02) (146, 6.28438234329223632812e-01) (147, -4.98340338468551635742e-01) (148, -3.79359185695648193359e-01) (149, -4.14611339569091796875e-01) (150, -3.46776843070983886719e-01) (151, 7.82015740871429443359e-01) (152, -2.91933834552764892578e-01) (153, 3.39799731969833374023e-01) (154, 4.99627321958541870117e-01) (155, 1.82112202048301696777e-01) (156, 2.70166873931884765625e-01) (157, 3.35906833410263061523e-01) (158, 4.64006245136260986328e-01) (159, -4.81451183557510375977e-01) (160, 1.01269826292991638184e-01) (161, 1.14516806602478027344e+00) (162, -5.22864937782287597656e-01) (163, -4.44045156240463256836e-01) (164, -1.41241788864135742188e-01) (165, -3.61785799264907836914e-01) (166, -2.65107929706573486328e-01) (167, -2.73123073577880859375e+00) (107, 6.58721625804901123047e-01) (108, -9.93768990039825439453e-01) (109, -2.21093356609344482422e-01) (110, 2.54198461771011352539e-01) (111, 5.53300738334655761719e-01) (112, -1.50633192062377929688e+00) (113, 6.50525033473968505859e-01) (114, -2.68628716468811035156e-01) (115, -2.81074374914169311523e-01) (116, 1.45577287673950195312e+00) (117, 1.33113121986389160156e+00) (118, -3.61327558755874633789e-01) (119, 2.97911643981933593750e-01) (120, -6.62419319152832031250e-01) (121, 9.67173218727111816406e-01) (122, 1.40771973133087158203e+00) (123, -1.86307632923126220703e+00) (124, -1.43643033504486083984e+00) (125, -6.95681035518646240234e-01) (126, -9.52599942684173583984e-01) (127, -6.37747466564178466797e-01) (128, -3.91981214284896850586e-01) (129, 2.96772032976150512695e-01) (130, 1.00749230384826660156e+00) (131, 8.26194062829017639160e-02) (132, 3.28989297151565551758e-01) (133, -1.44417083263397216797e+00) (134, 2.81344652175903320312e+00) (135, -5.17595410346984863281e-01) (136, 1.51645854115486145020e-01) (137, -1.27035379409790039062e+00) (138, -3.42604088783264160156e+00) (139, 5.44904410839080810547e-01) (140, 1.26171290874481201172e-01) (141, 1.50932431221008300781e+00) (142, -1.04080772399902343750e+00) (143, 2.10781526565551757812e+00) (144, -1.49218142032623291016e+00) (145, -1.33917713165283203125e+00) (146, 8.07108581066131591797e-01) (147, -1.84221339225769042969e+00) (148, -1.71922695636749267578e+00) (149, -2.64946043491363525391e-01) (150, 2.97178059816360473633e-01) (151, -1.51714432239532470703e+00) (152, 5.44219613075256347656e-01) (153, -2.25682884454727172852e-01) (154, 1.15082740783691406250e+00) (155, -1.00187823176383972168e-01) (156, 3.51812466979026794434e-02) (157, -6.84910118579864501953e-02) (158, 8.34983527660369873047e-01) (159, -1.15627908706665039062e+00) (160, -7.81415760517120361328e-01) (161, 1.08208477497100830078e+00) (162, -1.09854340553283691406e+00) (163, -1.72395515441894531250e+00) (164, -1.24729359149932861328e+00) (165, -4.04913091659545898438e+00) (166, -3.15916031599044799805e-01) (167, -2.21414637565612792969e+00) (107, -4.56358015537261962891e-01) (108, -2.58334815502166748047e-01) (109, 4.49060171842575073242e-01) (110, 4.59443241357803344727e-01) (111, -3.55000615119934082031e-01) (112, 3.00785396248102188110e-02) (113, 6.74928277730941772461e-02) (114, -4.52838651835918426514e-02) (115, 7.96035647392272949219e-01) (116, -5.57102859020233154297e-01) (117, 3.71004529297351837158e-02) (118, -8.47009181976318359375e-01) (119, -7.37677291035652160645e-02) (120, 6.49403572082519531250e-01) (121, -4.44450080394744873047e-01) (122, 1.14845603704452514648e-01) (123, 8.87360692024230957031e-01) (124, 2.76728689670562744141e-01) (125, 4.15136128664016723633e-01) (126, 6.48078382015228271484e-01) (127, 4.14997935295104980469e-01) (128, -3.92373800277709960938e-01) (129, 4.42108005285263061523e-01) (130, -5.23489654064178466797e-01) (131, -1.17203123867511749268e-01) (132, 2.11222186684608459473e-01) (133, 8.23158845305442810059e-02) (134, 5.90859293937683105469e-01) (135, 2.83532500267028808594e-01) (136, 2.69159644842147827148e-01) (137, -2.95402910560369491577e-02) (138, -7.35123753547668457031e-02) (139, 1.69056475162506103516e-01) (140, 4.80656504631042480469e-01) (141, -2.84557845443487167358e-02) (142, -7.17717349529266357422e-01) (143, 1.79565489292144775391e-01) (144, 1.06131881475448608398e-01) (145, 1.05700619518756866455e-01) (146, -5.29000937938690185547e-01) (147, 3.72472852468490600586e-01) (148, 3.22044104337692260742e-01) (149, 6.07927978038787841797e-01) (150, 2.35947534441947937012e-01) (151, -7.25262343883514404297e-01) (152, 5.56260608136653900146e-02) (153, -5.20196855068206787109e-01) (154, -5.45648992061614990234e-01) (155, -1.79192587733268737793e-01) (156, -2.57886290550231933594e-01) (157, -3.26500773429870605469e-01) (158, -3.13135266304016113281e-01) (159, 3.52743864059448242188e-01) (160, 5.33279739320278167725e-02) (161, -1.18221354484558105469e+00) (162, 5.41466176509857177734e-01) (163, 6.05045258998870849609e-01) (164, 1.66540235280990600586e-01) (165, 4.24139022827148437500e-01) (166, 1.58971607685089111328e-01) (167, 2.52158474922180175781e+00) (107, 3.80040615797042846680e-01) (108, 4.53729093074798583984e-01) (109, -7.54163861274719238281e-01) (110, 5.87510049343109130859e-01) (111, 3.99042814970016479492e-01) (112, -8.92632380127906799316e-02) (113, -1.06344647705554962158e-01) (114, 5.97427725791931152344e-01) (115, -1.56734570860862731934e-01) (116, 6.88286304473876953125e-01) (117, -2.84614205360412597656e-01) (118, 5.24082422256469726562e-01) (119, -2.67601490020751953125e-01) (120, 1.68485417962074279785e-01) (121, 1.19868648052215576172e+00) (122, -2.84563094377517700195e-01) (123, -6.01137518882751464844e-01) (124, 5.62840998172760009766e-01) (125, -3.54118198156356811523e-01) (126, -4.82121333479881286621e-02) (127, -1.00888930261135101318e-01) (128, -5.10021269321441650391e-01) (129, 5.63503563404083251953e-01) (130, 1.46547996997833251953e+00) (131, -1.58623620867729187012e-01) (132, -9.47656571865081787109e-01) (133, 3.50883185863494873047e-01) (134, 3.98640751838684082031e-01) (135, -1.43282264471054077148e-01) (136, 7.26247131824493408203e-01) (137, -6.61506116390228271484e-01) (138, 9.16495397686958312988e-02) (139, -1.32966840267181396484e+00) (140, -5.84421634674072265625e-01) (141, -3.58696699142456054688e-01) (142, -1.31634104251861572266e+00) (143, -1.05896890163421630859e-01) (144, 2.04213380813598632812e-01) (145, 1.02108991146087646484e+00) (146, 3.27107995748519897461e-01) (147, -2.40462049841880798340e-01) (148, 8.09556365013122558594e-01) (149, -8.26224148273468017578e-01) (150, 7.38272905349731445312e-01) (151, 6.11534237861633300781e-01) (152, -3.57510358095169067383e-01) (153, -6.48007094860076904297e-01) (154, 2.99385845661163330078e-01) (155, 6.08132123947143554688e-01) (156, 5.40425598621368408203e-01) (157, 4.54168647527694702148e-01) (158, -8.90440419316291809082e-02) (159, -1.39206588268280029297e+00) (160, 1.46496021747589111328e+00) (161, 4.84539210796356201172e-01) (162, -1.18101215362548828125e+00) (163, -3.53603959083557128906e-01) (164, 2.67296105623245239258e-01) (165, -1.58561334013938903809e-01) (166, 6.49471402168273925781e-01) (167, -2.98056054115295410156e+00) (107, 1.32866963744163513184e-01) (108, -5.08739113807678222656e-01) (109, 4.40944552421569824219e-01) (110, -4.36901330947875976562e+00) (111, 3.94024133682250976562e-01) (112, -1.17491066455841064453e+00) (113, -5.68304538726806640625e-01) (114, -5.97904399037361145020e-02) (115, 8.97207617759704589844e-01) (116, -9.83546137809753417969e-01) (117, -5.94112038612365722656e-01) (118, -3.86334109306335449219e+00) (119, 5.68137705326080322266e-01) (120, -3.44095081090927124023e-01) (121, -2.75523275136947631836e-01) (122, 9.25452232360839843750e-01) (123, 7.05247819423675537109e-01) (124, -8.07893157005310058594e-01) (125, 1.11867524683475494385e-01) (126, -1.07367026805877685547e+00) (127, 5.54859414696693420410e-02) (128, 1.14844834804534912109e+00) (129, -1.67145144939422607422e+00) (130, -1.29622384905815124512e-01) (131, 3.32771688699722290039e-01) (132, 7.29872703552246093750e-01) (133, 6.62688851356506347656e-01) (134, 2.64574217796325683594e+00) (135, 5.95552138984203338623e-02) (136, -2.29003286361694335938e+00) (137, 9.07043397426605224609e-01) (138, -5.26861548423767089844e-01) (139, 6.98702260851860046387e-02) (140, -3.66632610559463500977e-01) (141, 3.47713422775268554688e+00) (142, -7.14671254158020019531e-01) (143, 9.09702703356742858887e-02) (144, 5.82117080688476562500e-01) (145, 2.71225094795227050781e+00) (146, -1.96367397904396057129e-01) (147, 2.89203494787216186523e-01) (148, -2.21472516655921936035e-01) (149, 1.50743961334228515625e+00) (150, 6.08289957046508789062e-01) (151, -6.13134443759918212891e-01) (152, -2.06931695342063903809e-01) (153, 4.30872249603271484375e+00) (154, -6.22655272483825683594e-01) (155, -8.15903306007385253906e-01) (156, -2.83271610736846923828e-01) (157, -5.36869645118713378906e-01) (158, 5.17889201641082763672e-01) (159, 1.15070112049579620361e-01) (160, 4.54784482717514038086e-01) (161, -3.12317043542861938477e-01) (162, 1.96016281843185424805e-01) (163, 2.35286414623260498047e-01) (164, -6.73227787017822265625e-01) (165, -3.07937562465667724609e-01) (166, -6.79302990436553955078e-01) (167, 1.58391189575195312500e+00) (107, 4.71354365348815917969e-01) (108, 3.60281205177307128906e+00) (109, -2.78956294059753417969e-01) (110, -4.69637423753738403320e-01) (111, -3.59762012958526611328e-01) (112, -1.69514454901218414307e-02) (113, -5.25204956531524658203e-01) (114, -4.66900169849395751953e-01) (115, 1.36450007557868957520e-01) (116, -9.50179815292358398438e-01) (117, -7.36449480056762695312e-01) (118, -4.98263567686080932617e-01) (119, -5.48186063766479492188e-01) (120, -9.94458317756652832031e-01) (121, 6.06897592544555664062e-01) (122, 4.44325387477874755859e-01) (123, 3.39924386935308575630e-04) (124, 2.51235485076904296875e-01) (125, 8.30788612365722656250e-02) (126, -1.44657611846923828125e+00) (127, 6.35095059871673583984e-01) (128, 3.78781259059906005859e-01) (129, -1.17330588400363922119e-01) (130, 7.49618947505950927734e-01) (131, -7.83828079700469970703e-01) (132, -2.00993150472640991211e-01) (133, 7.86605775356292724609e-01) (134, 6.58400654792785644531e-01) (135, 3.08468639850616455078e-01) (136, -4.22273837029933929443e-02) (137, 2.64000892639160156250e-01) (138, -7.11283206939697265625e-01) (139, -1.00047558546066284180e-01) (140, -2.31202220916748046875e+00) (141, 2.78655767440795898438e-01) (142, 7.07449913024902343750e-01) (143, 1.86505019664764404297e-01) (144, 7.47252345085144042969e-01) (145, 9.52020645141601562500e-01) (146, 1.99684306979179382324e-01) (147, 3.61612260341644287109e-01) (148, -1.46356433629989624023e-01) (149, 4.43748474121093750000e-01) (150, 1.45676001906394958496e-01) (151, -1.23592637479305267334e-01) (152, 2.87164092063903808594e-01) (153, 3.95628273487091064453e-01) (154, -8.33226963877677917480e-02) (155, -7.73153454065322875977e-02) (156, 5.81399761140346527100e-02) (157, 2.30084612965583801270e-01) (158, -1.05715572834014892578e+00) (159, -4.71178919076919555664e-01) (160, 1.38499009609222412109e+00) (161, 2.69242525100708007812e-01) (162, -5.86382329463958740234e-01) (163, 2.80975729227066040039e-01) (164, -3.82489532232284545898e-01) (165, 1.05707609653472900391e+00) (166, -7.57713794708251953125e-01) (167, -7.59338676929473876953e-01) (107, 9.49759066104888916016e-01) (108, -5.75433909893035888672e-01) (109, -1.28083920478820800781e+00) (110, -8.13796579837799072266e-01) (111, -4.18353043496608734131e-02) (112, 1.62076234817504882812e+00) (113, -4.33356970548629760742e-01) (114, -2.27081388235092163086e-01) (115, -1.14379429817199707031e+00) (116, -1.40762221813201904297e+00) (117, -6.35178148746490478516e-01) (118, -1.60534620285034179688e-01) (119, -1.03628504276275634766e+00) (120, -3.71682167053222656250e-01) (121, 3.11151802539825439453e-01) (122, -1.06001746654510498047e+00) (123, 2.65421926975250244141e-01) (124, 1.09340786933898925781e+00) (125, -3.18988300859928131104e-02) (126, -1.51692998409271240234e+00) (127, -2.62794673442840576172e-01) (128, 7.52857685089111328125e-01) (129, -3.73594492673873901367e-01) (130, 6.96087539196014404297e-01) (131, 4.98798303306102752686e-02) (132, -1.54764342308044433594e+00) (133, 6.65543854236602783203e-01) (134, -2.64355945587158203125e+00) (135, -6.41881644725799560547e-01) (136, -1.80301272869110107422e+00) (137, -7.25382804870605468750e-01) (138, -5.86857318878173828125e-01) (139, -1.02601277828216552734e+00) (140, -1.37823605537414550781e+00) (141, -1.76948368549346923828e+00) (142, 3.90811175107955932617e-01) (143, -3.37203168869018554688e+00) (144, 2.25594139099121093750e+00) (145, 1.19765055179595947266e+00) (146, 1.17956958711147308350e-02) (147, -3.43977510929107666016e-01) (148, -1.79373085498809814453e-01) (149, 1.32754576206207275391e+00) (150, -6.20141029357910156250e+00) (151, -3.77194583415985107422e-01) (152, 2.63508200645446777344e-01) (153, 6.24924957752227783203e-01) (154, -5.04073083400726318359e-01) (155, 1.18646836280822753906e+00) (156, 3.83382111787796020508e-01) (157, 1.55092060565948486328e+00) (158, -6.48611366748809814453e-01) (159, -1.47957250475883483887e-01) (160, 1.15887677669525146484e+00) (161, -1.43804892897605895996e-01) (162, -2.01935857534408569336e-01) (163, 9.89892706274986267090e-02) (164, 4.89319935441017150879e-02) (165, 1.67789387702941894531e+00) (166, 1.28620401024818420410e-01) (167, -1.18605637550354003906e+00) (107, 3.00061047077178955078e-01) (108, 2.50193178653717041016e-01) (109, -2.75570780038833618164e-01) (110, -2.38999232649803161621e-01) (111, 2.59245306253433227539e-01) (112, -5.09577319025993347168e-02) (113, -3.78552377223968505859e-01) (114, 1.64320722222328186035e-01) (115, -6.09564185142517089844e-01) (116, 4.11167353391647338867e-01) (117, -2.88601100444793701172e-01) (118, 5.79589009284973144531e-01) (119, 8.23252126574516296387e-02) (120, -3.94682556390762329102e-01) (121, 1.10663108527660369873e-01) (122, 1.59935317933559417725e-02) (123, -3.86641710996627807617e-01) (124, -2.87794977426528930664e-01) (125, -2.78200924396514892578e-01) (126, -3.59735101461410522461e-01) (127, -1.96302801370620727539e-01) (128, 2.76426941156387329102e-01) (129, -3.25334519147872924805e-01) (130, 3.79130870103836059570e-01) (131, 1.85875713825225830078e-01) (132, -1.52823999524116516113e-01) (133, 3.17594110965728759766e-01) (134, -5.73589265346527099609e-01) (135, -1.46122455596923828125e-01) (136, -2.58094668388366699219e-01) (137, 2.05956652760505676270e-01) (138, 2.51045882701873779297e-01) (139, -1.33488267660140991211e-01) (140, -2.49494060873985290527e-01) (141, 2.08399012684822082520e-01) (142, 3.85728567838668823242e-01) (143, -5.64418733119964599609e-02) (144, 3.26093465089797973633e-01) (145, 3.17887842655181884766e-01) (146, 4.25450116395950317383e-01) (147, -6.31525874137878417969e-01) (148, -3.75585675239562988281e-01) (149, -4.76986676454544067383e-01) (150, -4.12546098232269287109e-01) (151, 4.21115666627883911133e-01) (152, -3.75227719545364379883e-01) (153, 4.16829764842987060547e-01) (154, 5.38746714591979980469e-01) (155, 2.71897427737712860107e-02) (156, -2.94137857854366302490e-02) (157, 6.93757906556129455566e-02) (158, 2.57286399602890014648e-01) (159, -2.55321741104125976562e-01) (160, 3.12879383563995361328e-01) (161, 9.44189846515655517578e-01) (162, -4.84445303678512573242e-01) (163, -5.98285675048828125000e-01) (164, -2.23361611366271972656e-01) (165, -6.65507435798645019531e-01) (166, -1.35445594787597656250e-01) (167, -2.57168126106262207031e+00) (107, -6.39544308185577392578e-01) (108, -3.58723431825637817383e-01) (109, 1.04621553421020507812e+00) (110, -1.73580408096313476562e+00) (111, 9.11487042903900146484e-01) (112, -3.57168841361999511719e+00) (113, -2.67144531011581420898e-01) (114, 1.04538345336914062500e+00) (115, -1.16062760353088378906e+00) (116, -2.55170583724975585938e+00) (117, -8.46892893314361572266e-01) (118, -4.20094347000122070312e+00) (119, 1.56599983572959899902e-01) (120, 2.11582645773887634277e-01) (121, 4.26189929246902465820e-01) (122, 1.64008629322052001953e+00) (123, -1.18035010993480682373e-01) (124, -1.61282193660736083984e+00) (125, -4.65395659208297729492e-01) (126, -2.03360891342163085938e+00) (127, -2.56192207336425781250e-01) (128, 9.13400173187255859375e-01) (129, 1.69915094971656799316e-01) (130, 1.60481417179107666016e+00) (131, 9.82793331146240234375e-01) (132, 9.44130063056945800781e-01) (133, 9.92042243480682373047e-01) (134, -1.77623033523559570312e-02) (135, 3.88748645782470703125e-01) (136, -2.34062528610229492188e+00) (137, 9.40310895442962646484e-01) (138, -2.83180892467498779297e-01) (139, 2.43819952011108398438e-01) (140, 1.74064362049102783203e+00) (141, 5.96253097057342529297e-01) (142, 1.25305044651031494141e+00) (143, 6.11044228076934814453e-01) (144, 1.23026347160339355469e+00) (145, 1.68624007701873779297e+00) (146, 6.44962191581726074219e-01) (147, -7.78462648391723632812e-01) (148, -3.99763196706771850586e-01) (149, 2.03726243972778320312e+00) (150, 2.29533359408378601074e-01) (151, -8.33667535334825515747e-03) (152, -9.54900562763214111328e-01) (153, 5.04774689674377441406e-01) (154, 5.85909247398376464844e-01) (155, -1.13850080966949462891e+00) (156, -1.53628933429718017578e+00) (157, -1.30582320690155029297e+00) (158, -3.46299596130847930908e-02) (159, -1.83421587944030761719e+00) (160, -6.82899832725524902344e-01) (161, -1.78904667496681213379e-01) (162, -1.47130143642425537109e+00) (163, -8.04011404514312744141e-01) (164, -4.60656732320785522461e-01) (165, 2.20781707763671875000e+00) (166, -1.28160393238067626953e+00) (167, 2.38750743865966796875e+00) (168, 4.73214685916900634766e-01) (169, -1.25658512115478515625e-01) (170, -1.61150619387626647949e-01) (171, -1.09705352783203125000e+00) (172, -8.37687849998474121094e-02) (173, -1.89817702770233154297e+00) (174, 5.43498933315277099609e-01) (175, -2.58274316787719726562e-01) (176, 2.41333556175231933594e+00) (177, -3.63105845451354980469e+00) (178, -2.88776135444641113281e+00) (179, 9.64587032794952392578e-01) (180, -1.14163756370544433594e+00) (181, 9.01214063167572021484e-01) (182, 3.12447011470794677734e-01) (183, -7.85577774047851562500e-01) (184, 5.28612911701202392578e-01) (185, -1.85701549053192138672e+00) (186, -1.34710443019866943359e+00) (187, 2.36601519584655761719e+00) (188, -2.25983214378356933594e+00) (189, -1.88137948513031005859e+00) (190, -6.58170104026794433594e-01) (191, 2.47315812110900878906e+00) (192, -8.53490769863128662109e-01) (193, 1.13618068397045135498e-01) (194, -6.45654141902923583984e-01) (195, -2.19165929593145847321e-03) (196, -1.88681036233901977539e-01) (197, 1.35815215110778808594e+00) (198, -1.50619721412658691406e+00) (199, -5.01913249492645263672e-01) (200, -3.31583440303802490234e-01) (201, 6.09433114528656005859e-01) (202, 2.75296330451965332031e-01) (203, -6.32644057273864746094e-01) (204, 7.45840072631835937500e-01) (205, -1.78851783275604248047e-01) (206, -5.93388557434082031250e-01) (207, -9.20294165611267089844e-01) (208, 6.77773535251617431641e-01) (209, 7.86374211311340332031e-01) (210, 1.47191369533538818359e+00) (211, -3.49693298339843750000e-01) (212, 1.25213420391082763672e+00) (213, -6.42768323421478271484e-01) (214, 4.21725606918334960938e+00) (215, 7.16409027576446533203e-01) (168, 4.65579450130462646484e-01) (169, -1.75501734018325805664e-01) (170, -1.16098314523696899414e-01) (171, -9.82850849628448486328e-01) (172, -1.36792704463005065918e-01) (173, -1.76619434356689453125e+00) (174, 4.91477817296981811523e-01) (175, -2.78781712055206298828e-01) (176, 2.23870205879211425781e+00) (177, -3.76256084442138671875e+00) (178, -2.77987432479858398438e+00) (179, 1.06638884544372558594e+00) (180, -1.17076432704925537109e+00) (181, 9.51243937015533447266e-01) (182, 3.61216694116592407227e-01) (183, -5.55053710937500000000e-01) (184, 4.61439996957778930664e-01) (185, -1.76283824443817138672e+00) (186, -1.19006013870239257812e+00) (187, 2.26154065132141113281e+00) (188, -2.17434525489807128906e+00) (189, -1.70037281513214111328e+00) (190, -6.35160923004150390625e-01) (191, 2.38940191268920898438e+00) (192, -8.16565573215484619141e-01) (193, 1.00747078657150268555e-01) (194, -6.78529083728790283203e-01) (195, 1.45517617464065551758e-01) (196, -3.91607969999313354492e-01) (197, 1.18934071063995361328e+00) (198, -1.47642028331756591797e+00) (199, -4.65017199516296386719e-01) (200, -3.81712406873703002930e-01) (201, 5.47478735446929931641e-01) (202, 3.03403466939926147461e-01) (203, -5.58838784694671630859e-01) (204, 7.89062917232513427734e-01) (205, -1.80670350790023803711e-01) (206, -7.36698985099792480469e-01) (207, -9.17122006416320800781e-01) (208, 7.24814116954803466797e-01) (209, 7.38737046718597412109e-01) (210, 1.58180940151214599609e+00) (211, -3.81011307239532470703e-01) (212, 1.21411252021789550781e+00) (213, -5.30432403087615966797e-01) (214, 3.94078588485717773438e+00) (215, 7.50472903251647949219e-01) (168, 4.18883293867111206055e-01) (169, -2.16662228107452392578e-01) (170, -1.19092233479022979736e-01) (171, -9.34529066085815429688e-01) (172, -4.39560264348983764648e-02) (173, -1.67525053024291992188e+00) (174, 4.99905169010162353516e-01) (175, -2.70123064517974853516e-01) (176, 2.16703343391418457031e+00) (177, -3.67357110977172851562e+00) (178, -2.64596939086914062500e+00) (179, 1.00426673889160156250e+00) (180, -1.15770161151885986328e+00) (181, 9.61738407611846923828e-01) (182, 3.81948947906494140625e-01) (183, -4.21202063560485839844e-01) (184, 4.79444473981857299805e-01) (185, -1.67642521858215332031e+00) (186, -1.12148618698120117188e+00) (187, 2.14380121231079101562e+00) (188, -2.10583877563476562500e+00) (189, -1.70877289772033691406e+00) (190, -6.13417148590087890625e-01) (191, 2.21021056175231933594e+00) (192, -9.13125395774841308594e-01) (193, 1.08466662466526031494e-01) (194, -5.65940022468566894531e-01) (195, 2.49983191490173339844e-01) (196, -4.74770933389663696289e-01) (197, 1.03925490379333496094e+00) (198, -1.32685315608978271484e+00) (199, -3.74613702297210693359e-01) (200, -3.15189480781555175781e-01) (201, 6.05674505233764648438e-01) (202, 2.18436151742935180664e-01) (203, -4.49697077274322509766e-01) (204, 7.99479126930236816406e-01) (205, -1.31429135799407958984e-01) (206, -5.85200071334838867188e-01) (207, -8.28542888164520263672e-01) (208, 7.35499858856201171875e-01) (209, 7.29305922985076904297e-01) (210, 1.52936875820159912109e+00) (211, -4.00306940078735351562e-01) (212, 1.17850530147552490234e+00) (213, -4.04238969087600708008e-01) (214, 3.80419039726257324219e+00) (215, 7.60643601417541503906e-01) (168, 8.13058614730834960938e-01) (169, -4.05939221382141113281e-01) (170, 1.11509799957275390625e+00) (171, 1.46159172058105468750e+00) (172, -1.68024444580078125000e+00) (173, 2.54132556915283203125e+00) (174, -1.50248169898986816406e+00) (175, -1.31907296180725097656e+00) (176, -8.16658139228820800781e-01) (177, 4.06378030776977539062e+00) (178, -2.76450067758560180664e-01) (179, -1.24453067779541015625e+00) (180, 1.95057734847068786621e-01) (181, 2.20217868685722351074e-01) (182, 1.77469646930694580078e+00) (183, -8.00076276063919067383e-02) (184, 2.02126502990722656250e+00) (185, 1.08467447757720947266e+00) (186, 6.78067028522491455078e-01) (187, 1.02150335907936096191e-01) (188, 2.03946545720100402832e-01) (189, 2.71076059341430664062e+00) (190, -1.60018610954284667969e+00) (191, -1.32156968116760253906e+00) (192, -1.90073752403259277344e+00) (193, -8.95104348659515380859e-01) (194, -1.52106046676635742188e+00) (195, -3.37080329656600952148e-01) (196, -7.31922909617424011230e-02) (197, -2.64216947555541992188e+00) (198, -9.08743619918823242188e-01) (199, 1.09859061241149902344e+00) (200, 1.78611099720001220703e+00) (201, -1.05501878261566162109e+00) (202, -5.90534973889589309692e-03) (203, 8.63921880722045898438e-01) (204, 1.55962502956390380859e+00) (205, -7.52916634082794189453e-01) (206, -1.53130364418029785156e+00) (207, -3.94393038749694824219e+00) (208, 1.97981238365173339844e+00) (209, -2.61073470115661621094e+00) (210, -3.45096421241760253906e+00) (211, -2.22088322043418884277e-01) (212, -5.38859605789184570312e-01) (213, -1.32439911365509033203e+00) (214, -3.52942395210266113281e+00) (215, -1.21332466602325439453e+00) (168, 5.46069145202636718750e-01) (169, -6.58021688461303710938e-01) (170, 1.04501295089721679688e+00) (171, 1.22328925132751464844e+00) (172, -1.50928449630737304688e+00) (173, 3.10286569595336914062e+00) (174, -1.75312840938568115234e+00) (175, -1.05087769031524658203e+00) (176, -8.62654626369476318359e-01) (177, 3.65641403198242187500e+00) (178, -3.27950000762939453125e-01) (179, -7.68035829067230224609e-01) (180, 1.51075080037117004395e-01) (181, 5.76051115989685058594e-01) (182, 1.54448044300079345703e+00) (183, -3.64129304885864257812e-01) (184, 2.02191567420959472656e+00) (185, 2.49777483940124511719e+00) (186, 4.67737168073654174805e-01) (187, -8.96444097161293029785e-02) (188, -6.84591941535472869873e-04) (189, 2.04663157463073730469e+00) (190, -1.27643859386444091797e+00) (191, -1.12689387798309326172e+00) (192, -1.66968071460723876953e+00) (193, -1.22163641452789306641e+00) (194, -1.49982798099517822266e+00) (195, 2.31801420450210571289e-01) (196, -1.32855772972106933594e+00) (197, -3.44735074043273925781e+00) (198, -5.42852342128753662109e-01) (199, 1.02981626987457275391e+00) (200, 1.31282150745391845703e+00) (201, 8.28194804489612579346e-03) (202, -1.83812379837036132812e-01) (203, 9.95640337467193603516e-01) (204, 1.45586121082305908203e+00) (205, -1.46944630146026611328e+00) (206, -1.34900677204132080078e+00) (207, -3.67393302917480468750e+00) (208, 1.83276724815368652344e+00) (209, -2.67150783538818359375e+00) (210, -3.27726340293884277344e+00) (211, -9.66347381472587585449e-02) (212, -6.42924726009368896484e-01) (213, -1.26183009147644042969e+00) (214, -3.56933999061584472656e+00) (215, -1.28894853591918945312e+00) (168, 4.48367148637771606445e-01) (169, 5.80513060092926025391e-01) (170, 8.31397175788879394531e-01) (171, 8.62605695147067308426e-04) (172, -3.74929845333099365234e-01) (173, 2.16592526435852050781e+00) (174, -1.95386791229248046875e+00) (175, -5.81533193588256835938e-01) (176, -1.30621910095214843750e+00) (177, 3.18233799934387207031e+00) (178, -1.48192867636680603027e-01) (179, -3.10311168432235717773e-01) (180, 3.41772168874740600586e-01) (181, 7.09426224231719970703e-01) (182, 1.76738834381103515625e+00) (183, 3.23374092578887939453e-01) (184, 2.97894167900085449219e+00) (185, 3.49258995056152343750e+00) (186, 1.04501092433929443359e+00) (187, -5.41257500648498535156e-01) (188, 7.93995022773742675781e-01) (189, 5.74903070926666259766e-01) (190, -1.66783881187438964844e+00) (191, -1.09284389019012451172e+00) (192, -5.62438130378723144531e-01) (193, -1.02858722209930419922e+00) (194, -1.29045915603637695312e+00) (195, 7.13570296764373779297e-01) (196, -2.04604077339172363281e+00) (197, -4.28210163116455078125e+00) (198, 4.32333379983901977539e-01) (199, 1.29204356670379638672e+00) (200, 1.69395518302917480469e+00) (201, 1.33393490314483642578e+00) (202, -3.95767122507095336914e-01) (203, 4.16477173566818237305e-01) (204, 4.56085026264190673828e-01) (205, -2.12722206115722656250e+00) (206, -4.79898542165756225586e-01) (207, -3.49846816062927246094e+00) (208, 8.14553380012512207031e-01) (209, -2.31546187400817871094e+00) (210, -2.68450212478637695312e+00) (211, -1.80903941392898559570e-01) (212, -5.76342582702636718750e-01) (213, -1.66788950562477111816e-01) (214, -2.91568017005920410156e+00) (215, 1.85910391807556152344e+00) (168, 3.36103856563568115234e-01) (169, -4.30756628513336181641e-01) (170, 2.21080362796783447266e-01) (171, -3.13391387462615966797e-01) (172, 8.72200012207031250000e-01) (173, 8.84982571005821228027e-02) (174, 9.34590637683868408203e-01) (175, 4.54723015427589416504e-02) (176, -7.29573190212249755859e-01) (177, -3.34769082069396972656e+00) (178, 8.34197402000427246094e-02) (179, -1.32735741138458251953e+00) (180, 5.13175785541534423828e-01) (181, 3.48963558673858642578e-01) (182, 9.96119320392608642578e-01) (183, 1.01902496814727783203e+00) (184, 6.71126842498779296875e-01) (185, -1.75361469388008117676e-01) (186, -3.74744176864624023438e-01) (187, -4.93591219186782836914e-01) (188, -3.76455754041671752930e-01) (189, -1.22543716430664062500e+00) (190, 4.18083369731903076172e-01) (191, -5.30748963356018066406e-01) (192, 7.38903582096099853516e-02) (193, 1.56249806284904479980e-01) (194, 2.09861174225807189941e-01) (195, 1.97816759347915649414e-01) (196, -2.60610431432723999023e-01) (197, 5.29357552528381347656e-01) (198, -1.88403636217117309570e-01) (199, -1.32520824670791625977e-01) (200, 1.11172449588775634766e+00) (201, 1.71007204055786132812e+00) (202, -2.82154753804206848145e-02) (203, -3.12331140041351318359e-01) (204, 5.69313406944274902344e-01) (205, 5.49067080020904541016e-01) (206, -6.17632746696472167969e-01) (207, -6.95450484752655029297e-01) (208, 4.63512152433395385742e-01) (209, 7.28422284126281738281e-01) (210, -5.85584759712219238281e-01) (211, -1.01174294948577880859e+00) (212, -1.26232296228408813477e-01) (213, -4.20745551586151123047e-01) (214, 2.43917237967252731323e-02) (215, 2.23747277259826660156e+00) (168, 2.81406432390213012695e-01) (169, -5.21577358245849609375e-01) (170, 5.54667353630065917969e-01) (171, -6.10608756542205810547e-02) (172, 8.60838532447814941406e-01) (173, 3.55102755129337310791e-02) (174, 8.21331143379211425781e-01) (175, -6.22963756322860717773e-02) (176, -5.95743596553802490234e-01) (177, -3.23504042625427246094e+00) (178, 6.00834041833877563477e-02) (179, -1.21923005580902099609e+00) (180, 3.24603289365768432617e-01) (181, 5.14272809028625488281e-01) (182, 8.95671486854553222656e-01) (183, 7.46001303195953369141e-01) (184, 6.76023721694946289062e-01) (185, -1.73449426889419555664e-01) (186, -3.46805334091186523438e-01) (187, -1.35136306285858154297e-01) (188, -5.29770612716674804688e-01) (189, -1.14237868785858154297e+00) (190, 2.95719742774963378906e-01) (191, -1.41119495034217834473e-01) (192, 4.64572846889495849609e-01) (193, -1.19863331317901611328e-01) (194, 1.80093258619308471680e-01) (195, 6.83663040399551391602e-02) (196, -5.20654439926147460938e-01) (197, 5.29685199260711669922e-01) (198, -4.38658237457275390625e-01) (199, 4.05293144285678863525e-02) (200, 1.08619999885559082031e+00) (201, 1.55987882614135742188e+00) (202, -1.28224104642868041992e-01) (203, -3.04441541433334350586e-01) (204, 5.73749721050262451172e-01) (205, 5.63777267932891845703e-01) (206, -4.68761503696441650391e-01) (207, -6.45081520080566406250e-01) (208, 3.34522217512130737305e-01) (209, 3.56698453426361083984e-01) (210, -5.13698518276214599609e-01) (211, -7.27147996425628662109e-01) (212, 2.18920677900314331055e-01) (213, -6.12163007259368896484e-01) (214, -6.13441749010235071182e-04) (215, 2.43147182464599609375e+00) (168, 3.81663292646408081055e-01) (169, -4.85589295625686645508e-01) (170, 6.41426801681518554688e-01) (171, -1.12418077886104583740e-01) (172, 9.27017092704772949219e-01) (173, 2.00916141271591186523e-01) (174, 7.46416926383972167969e-01) (175, -1.48477107286453247070e-01) (176, -4.84827637672424316406e-01) (177, -3.24315118789672851562e+00) (178, -2.19834521412849426270e-01) (179, -1.08566153049468994141e+00) (180, -3.57816666364669799805e-02) (181, 5.61794579029083251953e-01) (182, 6.88342869281768798828e-01) (183, 3.63383889198303222656e-01) (184, 8.00213277339935302734e-01) (185, 3.64918671548366546631e-02) (186, -4.69119727611541748047e-01) (187, -2.00780451297760009766e-01) (188, -3.86803448200225830078e-01) (189, -9.19128835201263427734e-01) (190, 2.25702941417694091797e-01) (191, 4.91934344172477722168e-02) (192, 7.47692942619323730469e-01) (193, -1.73475995659828186035e-01) (194, 2.38277316093444824219e-01) (195, 6.74194768071174621582e-02) (196, -8.28565061092376708984e-01) (197, 4.48354780673980712891e-01) (198, -5.53304910659790039062e-01) (199, 1.38862162828445434570e-01) (200, 1.12570881843566894531e+00) (201, 1.40202522277832031250e+00) (202, -2.71004736423492431641e-01) (203, -1.41227930784225463867e-01) (204, 6.79750442504882812500e-01) (205, 5.85932195186614990234e-01) (206, -5.56999146938323974609e-01) (207, -6.39004051685333251953e-01) (208, 3.12406331300735473633e-01) (209, 1.68027132749557495117e-01) (210, -4.65795814990997314453e-01) (211, -7.53337442874908447266e-01) (212, 3.09200316667556762695e-01) (213, -7.41087794303894042969e-01) (214, -1.61960989236831665039e-01) (215, 2.58974814414978027344e+00) (168, 7.31991529464721679688e-01) (169, -8.91982674598693847656e-01) (170, -1.03921878337860107422e+00) (171, -9.79326725006103515625e-01) (172, 5.17972171306610107422e-01) (173, -5.41080534458160400391e-01) (174, -3.25146412849426269531e+00) (175, -4.43014430999755859375e+00) (176, 3.15687358379364013672e-01) (177, -4.14942860603332519531e-01) (178, -3.65235209465026855469e-01) (179, 1.89301526546478271484e+00) (180, 2.23013758659362792969e+00) (181, 2.06134822219610214233e-02) (182, 1.53906154632568359375e+00) (183, 4.16867107152938842773e-01) (184, -1.29558753967285156250e+00) (185, -1.04787123203277587891e+00) (186, 1.46617519855499267578e+00) (187, -2.69533451646566390991e-02) (188, -3.15297698974609375000e+00) (189, 7.23074197769165039062e-01) (190, -1.45557355880737304688e+00) (191, -4.26755547523498535156e-01) (192, -1.93188309669494628906e+00) (193, -8.58910739421844482422e-01) (194, -5.06142973899841308594e-01) (195, 2.58342242240905761719e+00) (196, 1.22695112228393554688e+00) (197, 1.40645003318786621094e+00) (198, 7.95604705810546875000e-01) (199, -3.90493154525756835938e-01) (200, 1.26551139354705810547e+00) (201, 2.81570494174957275391e-01) (202, 4.49363678693771362305e-01) (203, 6.64954602718353271484e-01) (204, 7.39237070083618164062e-01) (205, 2.31392693519592285156e+00) (206, -8.80552470684051513672e-01) (207, -1.34385824203491210938e+00) (208, 1.30523741245269775391e+00) (209, -4.13711071014404296875e-02) (210, 1.07774817943572998047e+00) (211, -7.65956044197082519531e-01) (212, 1.34629154205322265625e+00) (213, -4.33699280023574829102e-01) (214, 1.69589030742645263672e+00) (215, 3.20769143104553222656e+00) (168, -5.44455170631408691406e-01) (169, -1.92102238535881042480e-01) (170, -2.90322005748748779297e-01) (171, -1.93132221698760986328e+00) (172, 2.70866781473159790039e-01) (173, 9.04032707214355468750e-01) (174, 7.96215474605560302734e-01) (175, -1.20431303977966308594e+00) (176, 4.91178542375564575195e-01) (177, 4.87726996652781963348e-04) (178, 1.54074096679687500000e+00) (179, -1.24591201543807983398e-01) (180, -3.82428765296936035156e-02) (181, 4.84010457992553710938e-01) (182, 3.32636505365371704102e-01) (183, 7.21547365188598632812e-01) (184, 2.87875473499298095703e-01) (185, -2.09801703691482543945e-01) (186, 1.11587774008512496948e-02) (187, 6.97682857513427734375e-01) (188, -4.05275039374828338623e-02) (189, 1.09634399414062500000e+00) (190, 1.62276244163513183594e+00) (191, 7.71988272666931152344e-01) (192, -6.67056202888488769531e-01) (193, 1.12716305255889892578e+00) (194, -6.60915374755859375000e-01) (195, 2.13905620574951171875e+00) (196, 4.59043353796005249023e-01) (197, -3.10889512300491333008e-01) (198, -7.72100448608398437500e-01) (199, -4.67751890420913696289e-01) (200, 4.71870690584182739258e-01) (201, 3.03722947835922241211e-01) (202, 1.91391885280609130859e+00) (203, -4.62711341679096221924e-02) (204, 5.00759243965148925781e-01) (205, 2.00397953391075134277e-01) (206, -5.95949411392211914062e-01) (207, -5.34723758697509765625e-01) (208, 4.64987635612487792969e-01) (209, 1.76725161075592041016e+00) (210, -2.36986681818962097168e-01) (211, 1.50626933574676513672e+00) (212, -5.86466550827026367188e-01) (213, 2.66181258484721183777e-03) (214, 6.74149155616760253906e-01) (215, 1.20202827453613281250e+00) (168, 2.55353897809982299805e-01) (169, -2.12736979126930236816e-01) (170, 4.29986715316772460938e-01) (171, -7.50531733036041259766e-01) (172, 7.49783396720886230469e-01) (173, 9.41013753414154052734e-01) (174, 4.81772907078266143799e-02) (175, -9.51131463050842285156e-01) (176, 2.14323103427886962891e-02) (177, -1.43717014789581298828e+00) (178, 9.08869445323944091797e-01) (179, 6.19126334786415100098e-02) (180, 4.47976253926753997803e-02) (181, 5.44433355331420898438e-01) (182, -1.48979142308235168457e-01) (183, 3.26050609350204467773e-01) (184, 6.88697934150695800781e-01) (185, 3.80115993320941925049e-02) (186, 2.22421828657388687134e-02) (187, 3.33620118908584117889e-03) (188, 1.66662484407424926758e-01) (189, 6.63599967956542968750e-01) (190, 1.53891873359680175781e+00) (191, 4.88216817378997802734e-01) (192, -9.28450465202331542969e-01) (193, 7.30724155902862548828e-01) (194, -7.90172368288040161133e-02) (195, 1.80057942867279052734e+00) (196, -4.01979953050613403320e-01) (197, -6.77760899066925048828e-01) (198, -5.49396812915802001953e-01) (199, -3.75354140996932983398e-01) (200, 3.35689276456832885742e-01) (201, 5.16019821166992187500e-01) (202, 1.23303890228271484375e+00) (203, 5.68158179521560668945e-02) (204, 7.60627746582031250000e-01) (205, 7.85571515560150146484e-01) (206, -7.82075703144073486328e-01) (207, 5.40880337357521057129e-02) (208, 7.80575394630432128906e-01) (209, 2.38304615020751953125e+00) (210, -3.41818779706954956055e-01) (211, 1.24936783313751220703e+00) (212, 2.97820478677749633789e-01) (213, -4.94987666606903076172e-01) (214, 1.03606641292572021484e+00) (215, 1.74624013900756835938e+00) (168, -1.32081508636474609375e+00) (169, -2.96560144424438476562e+00) (170, -1.51640510559082031250e+00) (171, -1.19979310035705566406e+00) (172, 1.61990594863891601562e+00) (173, 1.52421164512634277344e+00) (174, 8.67115914821624755859e-01) (175, -1.89596843719482421875e+00) (176, 2.08356380462646484375e+00) (177, 6.28829821944236755371e-02) (178, 1.69991940259933471680e-01) (179, 2.17375206947326660156e+00) (180, 2.42687153816223144531e+00) (181, -1.05085933208465576172e+00) (182, 1.08226203918457031250e+00) (183, 6.92480981349945068359e-01) (184, -1.97013640403747558594e+00) (185, -1.74920320510864257812e+00) (186, -6.82819485664367675781e-01) (187, 2.00146082788705825806e-02) (188, -1.40947878360748291016e+00) (189, 4.67637896537780761719e-01) (190, 4.10873860120773315430e-01) (191, 1.73075461387634277344e+00) (192, -6.97976350784301757812e-01) (193, -1.85382798314094543457e-01) (194, 1.29015409946441650391e+00) (195, 2.23870486021041870117e-01) (196, 1.40701782703399658203e+00) (197, 1.24484944343566894531e+00) (198, -4.46952730417251586914e-01) (199, -8.84078562259674072266e-01) (200, 1.69090777635574340820e-01) (201, 7.56324946880340576172e-01) (202, 9.23348248004913330078e-01) (203, 4.78725463151931762695e-01) (204, 6.13600313663482666016e-01) (205, 2.59386754035949707031e+00) (206, -5.78918695449829101562e-01) (207, -1.08526118099689483643e-01) (208, 6.95602178573608398438e-01) (209, 7.38944947719573974609e-01) (210, 2.31368136405944824219e+00) (211, -1.82622328400611877441e-01) (212, -4.36345994472503662109e-01) (213, -1.89212009310722351074e-01) (214, 6.88596248626708984375e-01) (215, 1.48897540569305419922e+00) (168, -2.97298997640609741211e-01) (169, -2.41870570182800292969e+00) (170, -1.31043434143066406250e+00) (171, -7.13503181934356689453e-01) (172, 1.65267765522003173828e+00) (173, -3.92202615737915039062e-01) (174, -3.54116737842559814453e-01) (175, -2.94818377494812011719e+00) (176, 1.16944432258605957031e+00) (177, -9.16588246822357177734e-01) (178, -4.37477678060531616211e-01) (179, 1.84704840183258056641e+00) (180, 2.13408875465393066406e+00) (181, -2.96892553567886352539e-01) (182, 3.69558095932006835938e-01) (183, 5.76966464519500732422e-01) (184, -1.58508121967315673828e+00) (185, -1.21616053581237792969e+00) (186, -1.68255232274532318115e-02) (187, -1.32343649864196777344e+00) (188, -1.98611295223236083984e+00) (189, -9.43258777260780334473e-03) (190, 3.68476435542106628418e-02) (191, 8.61212074756622314453e-01) (192, -1.14012563228607177734e+00) (193, -6.76658928394317626953e-01) (194, 3.79474997520446777344e-01) (195, 1.01100420951843261719e+00) (196, 1.36289745569229125977e-01) (197, 1.65152713656425476074e-01) (198, 9.95554089546203613281e-01) (199, -1.60899922251701354980e-01) (200, 6.99478149414062500000e-01) (201, 1.03996312618255615234e+00) (202, 4.14275050163269042969e-01) (203, -1.44068658351898193359e-01) (204, 4.71699208021163940430e-01) (205, 2.53153133392333984375e+00) (206, -4.27749663591384887695e-01) (207, -1.11886918544769287109e+00) (208, 8.30247938632965087891e-01) (209, 4.53971654176712036133e-01) (210, 1.77063655853271484375e+00) (211, 8.18416535854339599609e-01) (212, 6.82685077190399169922e-01) (213, -2.16899171471595764160e-01) (214, 1.17264819145202636719e+00) (215, 2.27333092689514160156e+00) (168, -1.59543168544769287109e+00) (169, -2.11060953140258789062e+00) (170, 6.72761118039488792419e-03) (171, 2.47950464487075805664e-01) (172, -6.14187419414520263672e-01) (173, -1.10528446733951568604e-01) (174, 1.02769589424133300781e+00) (175, -1.42496097087860107422e+00) (176, 1.30204987525939941406e+00) (177, 4.90356907248497009277e-02) (178, 3.44027251005172729492e-01) (179, 1.26851153373718261719e+00) (180, 2.31622362136840820312e+00) (181, -5.26848912239074707031e-01) (182, -6.49969935417175292969e-01) (183, 4.21989321708679199219e-01) (184, -2.02396392822265625000e+00) (185, 9.24751341342926025391e-01) (186, -2.22511559724807739258e-01) (187, -9.08505797386169433594e-01) (188, 1.00153648853302001953e+00) (189, -2.14052990078926086426e-01) (190, 2.11869388818740844727e-01) (191, 8.24141502380371093750e-01) (192, -6.38577580451965332031e-01) (193, 2.81753093004226684570e-01) (194, 1.13292467594146728516e+00) (195, 4.30102974176406860352e-01) (196, -5.61409533023834228516e-01) (197, -1.18695676326751708984e-01) (198, -4.11984652280807495117e-01) (199, -6.91046476364135742188e-01) (200, -7.54390656948089599609e-01) (201, 1.49369502067565917969e+00) (202, -6.87115937471389770508e-02) (203, -1.27079546451568603516e+00) (204, 2.48836185783147811890e-02) (205, -3.90838742256164550781e-01) (206, -1.91353172063827514648e-01) (207, -7.98893511295318603516e-01) (208, 1.55016154050827026367e-01) (209, 9.28654313087463378906e-01) (210, 6.41611218452453613281e-01) (211, -8.66553843021392822266e-01) (212, -2.18373537063598632812e+00) (213, -1.07492618262767791748e-01) (214, 8.54094445705413818359e-01) (215, 7.68185555934906005859e-01) (168, 3.62935781478881835938e+00) (169, 2.54318416118621826172e-01) (170, -1.93189001083374023438e+00) (171, 1.32475078105926513672e+00) (172, 9.92125928401947021484e-01) (173, 1.09228551387786865234e+00) (174, -2.57834148406982421875e+00) (175, 5.15623211860656738281e-01) (176, -1.23914992809295654297e+00) (177, -7.34900474548339843750e-01) (178, -5.01454412937164306641e-01) (179, 9.58037614822387695312e-01) (180, -4.65582013130187988281e-01) (181, 4.79056417942047119141e-01) (182, -1.90354168415069580078e-01) (183, -1.14495062828063964844e+00) (184, 1.15748876705765724182e-02) (185, -1.33729851245880126953e+00) (186, 2.64761137962341308594e+00) (187, -4.16737437248229980469e-01) (188, -2.21921586990356445312e+00) (189, 2.18252375721931457520e-01) (190, -3.59233230352401733398e-01) (191, -2.84186220169067382812e+00) (192, -2.26212882995605468750e+00) (193, 2.20216438174247741699e-01) (194, -2.50385975837707519531e+00) (195, 7.48971104621887207031e-01) (196, 8.86547207832336425781e-01) (197, -3.13122659921646118164e-01) (198, 2.80315876007080078125e+00) (199, -9.31201782077550888062e-03) (200, 2.38725161552429199219e+00) (201, -5.61894059181213378906e-01) (202, -1.57178711891174316406e+00) (203, -5.96536733210086822510e-02) (204, 5.81378757953643798828e-01) (205, 2.86107325553894042969e+00) (206, -4.47221875190734863281e-01) (207, -1.94822680950164794922e+00) (208, 9.68635559082031250000e-01) (209, -5.01351416110992431641e-01) (210, -7.37107574939727783203e-01) (211, 2.80156861990690231323e-02) (212, 3.04406642913818359375e+00) (213, -6.56309425830841064453e-01) (214, 3.35951149463653564453e-01) (215, 3.15182518959045410156e+00) (168, -1.67135130614042282104e-02) (169, -5.28896152973175048828e-01) (170, 3.17873060703277587891e-01) (171, -1.23727917671203613281e+00) (172, -6.88719078898429870605e-02) (173, -4.58760052919387817383e-01) (174, -5.02969086170196533203e-01) (175, -1.35582399368286132812e+00) (176, 2.16100588440895080566e-01) (177, -1.66805577278137207031e+00) (178, 4.14444297552108764648e-01) (179, 3.70870083570480346680e-01) (180, 3.18742215633392333984e-01) (181, 1.09841442108154296875e+00) (182, -6.72354638576507568359e-01) (183, -6.53559803962707519531e-01) (184, -7.06535041332244873047e-01) (185, -3.06453377008438110352e-01) (186, 8.82007718086242675781e-01) (187, -6.28662884235382080078e-01) (188, -1.13100814819335937500e+00) (189, -3.42914462089538574219e-01) (190, -3.57347339391708374023e-01) (191, -5.17954468727111816406e-01) (192, -6.84703409671783447266e-01) (193, 1.83497771620750427246e-01) (194, 5.66796243190765380859e-01) (195, 7.04734683036804199219e-01) (196, 2.43300631642341613770e-01) (197, -6.60568237304687500000e-01) (198, -5.61373054981231689453e-01) (199, -3.73512953519821166992e-01) (200, 1.06004905700683593750e+00) (201, 7.84325361251831054688e-01) (202, 1.08030045032501220703e+00) (203, 4.28314119577407836914e-01) (204, 5.68635642528533935547e-01) (205, 4.59435045719146728516e-01) (206, -6.65264725685119628906e-01) (207, -6.97672486305236816406e-01) (208, 5.08413493633270263672e-01) (209, 8.78823161125183105469e-01) (210, 1.00250673294067382812e+00) (211, 4.33787435293197631836e-01) (212, -6.27774953842163085938e-01) (213, -5.28182387351989746094e-01) (214, 4.83729571104049682617e-01) (215, 2.70212292671203613281e+00) (168, -9.08462762832641601562e-01) (169, -7.97463595867156982422e-01) (170, 3.82812470197677612305e-01) (171, -8.29404771327972412109e-01) (172, -2.09986850619316101074e-01) (173, 8.20706546306610107422e-01) (174, 1.30966699123382568359e+00) (175, -2.54254055023193359375e+00) (176, 5.72839081287384033203e-01) (177, 7.55401790142059326172e-01) (178, 8.01013469696044921875e-01) (179, 4.43080952391028404236e-03) (180, 6.37403011322021484375e-01) (181, 1.58299773931503295898e-01) (182, -5.78148841857910156250e-01) (183, -5.28665721416473388672e-01) (184, -1.00780975818634033203e+00) (185, 8.40740680694580078125e-01) (186, 8.67413952946662902832e-02) (187, -5.98656296730041503906e-01) (188, 8.41570615768432617188e-01) (189, 8.50722789764404296875e-02) (190, 8.37389111518859863281e-01) (191, 1.38248488306999206543e-01) (192, 6.51945024728775024414e-02) (193, -4.77425232529640197754e-02) (194, 1.76396739482879638672e+00) (195, 9.74645256996154785156e-01) (196, -6.41154706478118896484e-01) (197, -1.64023667573928833008e-01) (198, -7.28916645050048828125e-01) (199, -2.76615351438522338867e-01) (200, 6.76894426345825195312e-01) (201, 8.03886830806732177734e-01) (202, 1.54342699050903320312e+00) (203, 5.53210437297821044922e-01) (204, 2.52986520528793334961e-01) (205, -3.52894067764282226562e-01) (206, -4.53762799501419067383e-01) (207, -5.56159675121307373047e-01) (208, 2.73062974214553833008e-01) (209, 3.43639463186264038086e-01) (210, 5.75609207153320312500e-01) (211, 7.39642441272735595703e-01) (212, -1.84024024009704589844e+00) (213, -1.66627660393714904785e-01) (214, 4.90552280098199844360e-03) (215, 1.37010943889617919922e+00) (168, 6.29896581172943115234e-01) (169, -6.36734902858734130859e-01) (170, -7.84435331821441650391e-01) (171, -2.44423702359199523926e-01) (172, 7.13799774646759033203e-01) (173, 1.62577617168426513672e+00) (174, 1.45768928527832031250e+00) (175, 7.24446699023246765137e-02) (176, 7.35304832458496093750e-01) (177, -5.94753539189696311951e-03) (178, -3.02263230085372924805e-01) (179, 4.78043228387832641602e-01) (180, 4.46107983589172363281e-01) (181, 4.49803829193115234375e-01) (182, 4.74935263395309448242e-01) (183, -1.10263621807098388672e+00) (184, 6.02105677127838134766e-01) (185, -4.83136743307113647461e-01) (186, -1.13422892987728118896e-01) (187, -3.76840606331825256348e-02) (188, 5.07817327976226806641e-01) (189, 8.90389621257781982422e-01) (190, 1.58206808567047119141e+00) (191, 7.02445864677429199219e-01) (192, -1.67931932955980300903e-02) (193, 1.15487098693847656250e+00) (194, -5.87777912616729736328e-01) (195, -1.07239127159118652344e+00) (196, 1.78842878341674804688e+00) (197, 1.03282439708709716797e+00) (198, -1.29044520854949951172e+00) (199, -1.19650614261627197266e+00) (200, 3.69684368371963500977e-01) (201, 5.97824854776263237000e-03) (202, 8.97813260555267333984e-01) (203, 2.26494312286376953125e-01) (204, 5.44068932533264160156e-01) (205, 7.60843932628631591797e-01) (206, -3.86298626661300659180e-01) (207, -3.36479723453521728516e-01) (208, 1.51836335659027099609e-01) (209, 3.98887544870376586914e-01) (210, -8.08612585067749023438e-01) (211, 6.85287535190582275391e-01) (212, 2.08536479622125625610e-02) (213, -2.87772536277770996094e-01) (214, 1.10027879476547241211e-01) (215, 1.59147143363952636719e+00) (168, 6.39017000794410705566e-02) (169, -1.57301738858222961426e-01) (170, 1.27058073878288269043e-01) (171, -7.73854911327362060547e-01) (172, 1.13971628248691558838e-01) (173, 6.52008473873138427734e-01) (174, -5.98444819450378417969e-01) (175, -9.54953551292419433594e-01) (176, -4.42831777036190032959e-02) (177, -5.68445861339569091797e-01) (178, 5.41510343551635742188e-01) (179, 1.64908513426780700684e-01) (180, 2.32139434665441513062e-02) (181, 8.75729620456695556641e-01) (182, -9.48234617710113525391e-01) (183, -1.57502520084381103516e+00) (184, -5.69052457809448242188e-01) (185, -6.40723347663879394531e-01) (186, 9.40337896347045898438e-01) (187, -2.60018736124038696289e-01) (188, -9.26637470722198486328e-01) (189, 8.17524254322052001953e-01) (190, 2.23139151930809020996e-01) (191, -3.05897742509841918945e-01) (192, -5.92903494834899902344e-01) (193, 5.67785978317260742188e-01) (194, 2.76032298803329467773e-01) (195, -1.74795672297477722168e-01) (196, 9.46236968040466308594e-01) (197, -7.50944435596466064453e-01) (198, -4.68778491020202636719e-01) (199, -1.80262213689275085926e-04) (200, 1.54476761817932128906e+00) (201, 1.47310525178909301758e-01) (202, 5.30760347843170166016e-01) (203, 1.25363397598266601562e+00) (204, 5.92150747776031494141e-01) (205, 9.42920982837677001953e-01) (206, -5.25802433490753173828e-01) (207, 2.65241980552673339844e-01) (208, 4.02431666851043701172e-01) (209, 7.37459838390350341797e-01) (210, 3.33225339651107788086e-01) (211, 1.00754909217357635498e-01) (212, -7.50079900026321411133e-02) (213, -3.28969478607177734375e-01) (214, 1.57492130994796752930e-01) (215, 2.44692826271057128906e+00) (168, 1.18622323498129844666e-02) (169, -1.33233278989791870117e-01) (170, -1.05047011375427246094e+00) (171, -9.42276895046234130859e-01) (172, 9.03701186180114746094e-01) (173, 2.56240439414978027344e+00) (174, -1.59487175941467285156e+00) (175, 8.99788439273834228516e-01) (176, -7.77894198894500732422e-01) (177, -1.57250836491584777832e-01) (178, -7.83144831657409667969e-01) (179, 7.25394129753112792969e-01) (180, 4.46406900882720947266e-01) (181, 9.50732231140136718750e-01) (182, -8.75921130180358886719e-01) (183, -1.44319558143615722656e+00) (184, -2.78767138719558715820e-01) (185, -5.00791311264038085938e-01) (186, 1.64230382442474365234e+00) (187, 2.26503625512123107910e-01) (188, -2.39456582069396972656e+00) (189, -8.94216954708099365234e-01) (190, -1.74443817138671875000e+00) (191, -1.46018528938293457031e+00) (192, -1.71177613735198974609e+00) (193, -1.16783082485198974609e+00) (194, -1.28849551081657409668e-01) (195, -3.03240865468978881836e-01) (196, 4.10889953374862670898e-01) (197, -2.11577057838439941406e+00) (198, -6.13102354109287261963e-02) (199, -7.39700019359588623047e-01) (200, 4.11534011363983154297e-01) (201, 1.23229587078094482422e+00) (202, -1.18581330776214599609e+00) (203, -3.59816811978816986084e-02) (204, 5.68039178848266601562e-01) (205, 9.88792479038238525391e-01) (206, -6.68079972267150878906e-01) (207, 2.24211275577545166016e-01) (208, 6.11503541469573974609e-01) (209, 6.16150140762329101562e-01) (210, 1.61056160926818847656e-01) (211, -2.09206581115722656250e+00) (212, 5.76359510421752929688e-01) (213, -6.88961744308471679688e-01) (214, 1.60485088825225830078e+00) (215, 4.24224615097045898438e+00) (168, -1.85704493522644042969e+00) (169, -1.30090713500976562500e+00) (170, -1.15223300457000732422e+00) (171, 2.68380731344223022461e-01) (172, -3.55699174106121063232e-02) (173, 4.38082575798034667969e-01) (174, 2.58758485317230224609e-01) (175, -2.68563127517700195312e+00) (176, 2.26496171951293945312e+00) (177, -4.50195521116256713867e-01) (178, 2.30923086404800415039e-01) (179, 3.22217822074890136719e-01) (180, 1.47554731369018554688e+00) (181, -3.55083793401718139648e-01) (182, 7.94968366622924804688e-01) (183, -1.08061708509922027588e-01) (184, -3.53814125061035156250e+00) (185, -2.42132949829101562500e+00) (186, 1.31487905979156494141e+00) (187, 8.61401081085205078125e-01) (188, -1.35048854351043701172e+00) (189, 9.88865435123443603516e-01) (190, -4.83148209750652313232e-02) (191, 1.44592320919036865234e+00) (192, -5.75525283813476562500e-01) (193, -7.07959234714508056641e-01) (194, 8.49359095096588134766e-01) (195, -5.90724110603332519531e-01) (196, 8.23257267475128173828e-02) (197, 1.06426095962524414062e+00) (198, -9.74473118782043457031e-01) (199, -1.64758408069610595703e+00) (200, 9.25947964191436767578e-01) (201, 1.04358887672424316406e+00) (202, -3.53492796421051025391e-01) (203, 2.58736276626586914062e+00) (204, 7.48158037662506103516e-01) (205, 1.42210006713867187500e+00) (206, -6.47867858409881591797e-01) (207, 6.23784661293029785156e-01) (208, 5.25397717952728271484e-01) (209, -9.10687386989593505859e-01) (210, 1.15263485908508300781e+00) (211, -3.68933409452438354492e-01) (212, -4.42575424909591674805e-01) (213, -4.67818081378936767578e-01) (214, 3.38483512401580810547e-01) (215, 3.07264852523803710938e+00) (168, -1.89318346977233886719e+00) (169, -1.98486757278442382812e+00) (170, 4.83509391546249389648e-01) (171, -9.09417867660522460938e-01) (172, 2.79057860374450683594e+00) (173, 9.61940109729766845703e-01) (174, 1.98023796081542968750e+00) (175, -1.08188712596893310547e+00) (176, -4.48935329914093017578e-01) (177, 6.10264420509338378906e-01) (178, 3.01360726356506347656e+00) (179, -3.53053599596023559570e-01) (180, 3.27362746000289916992e-01) (181, 2.01996183395385742188e+00) (182, 8.66063535213470458984e-01) (183, -2.45807781815528869629e-01) (184, -4.89917159080505371094e-01) (185, -2.96206861734390258789e-01) (186, 1.04631513357162475586e-01) (187, -2.30835109949111938477e-01) (188, -1.57886087894439697266e+00) (189, 1.87012326717376708984e+00) (190, 8.16203773021697998047e-01) (191, -1.40441209077835083008e-01) (192, 5.46761333942413330078e-01) (193, 6.90059959888458251953e-01) (194, -6.65733590722084045410e-02) (195, 6.92526459693908691406e-01) (196, -1.05525135993957519531e+00) (197, -1.88916772603988647461e-01) (198, 8.29541027545928955078e-01) (199, 2.37790048122406005859e-01) (200, 9.50857222080230712891e-01) (201, 1.28049612045288085938e+00) (202, 2.13849376887083053589e-02) (203, 1.65105128288269042969e+00) (204, 4.67055320739746093750e-01) (205, 1.85538208484649658203e+00) (206, -4.52396541833877563477e-01) (207, -7.27693140506744384766e-02) (208, 4.15592968463897705078e-01) (209, 2.25183412432670593262e-01) (210, -3.70562195777893066406e-01) (211, 1.28871679306030273438e+00) (212, -3.30911546945571899414e-01) (213, -2.63013601303100585938e-01) (214, -1.22303473949432373047e+00) (215, 7.59397685527801513672e-01) (168, -1.97366440296173095703e+00) (169, -1.10738909244537353516e+00) (170, -1.24364340305328369141e+00) (171, -2.04845070838928222656e+00) (172, 4.13531541824340820312e+00) (173, 1.49309504032135009766e+00) (174, -6.36383950710296630859e-01) (175, -8.92569303512573242188e-01) (176, -1.15641820430755615234e+00) (177, -5.68247199058532714844e-01) (178, 1.59927177429199218750e+00) (179, -8.55515122413635253906e-01) (180, -3.60012389719486236572e-02) (181, 2.35490560531616210938e+00) (182, 2.44849428534507751465e-01) (183, -1.68172550201416015625e+00) (184, 4.22763787209987640381e-02) (185, -1.15638092160224914551e-01) (186, 2.91710644960403442383e-01) (187, -1.82113885879516601562e+00) (188, -2.71992230415344238281e+00) (189, -4.00880038738250732422e-01) (190, -5.81246197223663330078e-01) (191, -2.00136780738830566406e+00) (192, -7.23068475723266601562e-01) (193, -1.64676427841186523438e+00) (194, -9.39240515232086181641e-01) (195, 1.38125002384185791016e+00) (196, -8.98197412490844726562e-01) (197, -1.16950237751007080078e+00) (198, 2.68611693382263183594e+00) (199, 4.01006639003753662109e-01) (200, 1.42759644985198974609e+00) (201, 1.27947103977203369141e+00) (202, -2.58549571037292480469e+00) (203, 1.06587624549865722656e+00) (204, 3.22976917028427124023e-01) (205, 2.19171881675720214844e+00) (206, -4.92045611143112182617e-01) (207, 5.16760587692260742188e-01) (208, 5.75641691684722900391e-01) (209, -1.23273730278015136719e+00) (210, -4.92955029010772705078e-01) (211, 2.45170652866363525391e-01) (212, 4.38332378864288330078e-01) (213, -7.62018263339996337891e-01) (214, 8.08450043201446533203e-01) (215, 2.53390336036682128906e+00) (168, -1.30825948715209960938e+00) (169, -8.82187366485595703125e-01) (170, 7.72285699844360351562e-01) (171, -6.14597558975219726562e-01) (172, -4.98221397399902343750e-01) (173, -3.62481385469436645508e-01) (174, 2.24408125877380371094e+00) (175, -1.19304752349853515625e+00) (176, 3.16261589527130126953e-01) (177, -3.53737473487854003906e-01) (178, -9.47006940841674804688e-02) (179, -1.87481081485748291016e+00) (180, 2.49910092353820800781e+00) (181, -5.25134146213531494141e-01) (182, 2.40922141075134277344e+00) (183, 9.08659577369689941406e-01) (184, -5.63625335693359375000e-01) (185, 6.77673995494842529297e-01) (186, 4.45464789867401123047e-01) (187, -9.98843669891357421875e-01) (188, 6.42295598983764648438e-01) (189, 1.44054901599884033203e+00) (190, 1.08883392810821533203e+00) (191, -2.91772991418838500977e-01) (192, -2.22138151526451110840e-01) (193, 1.40187251567840576172e+00) (194, 7.89871990680694580078e-01) (195, 1.35774481296539306641e+00) (196, 5.27081906795501708984e-01) (197, 1.25564277172088623047e+00) (198, -1.34792733192443847656e+00) (199, 1.02251493930816650391e+00) (200, 9.46245431900024414062e-01) (201, 1.89740276336669921875e+00) (202, 3.24392169713973999023e-01) (203, 1.31881320476531982422e+00) (204, 6.76717221736907958984e-01) (205, 4.28271144628524780273e-01) (206, -7.34621763229370117188e-01) (207, -1.02833330631256103516e+00) (208, 4.12099719047546386719e-01) (209, 2.26552203297615051270e-01) (210, -7.07644999027252197266e-01) (211, 2.13419973850250244141e-01) (212, -1.60716915130615234375e+00) (213, -3.50429415702819824219e-01) (214, -1.15141808986663818359e-01) (215, 1.01896476745605468750e+00) (168, -1.42757463455200195312e+00) (169, -1.33032643795013427734e+00) (170, -5.33083640038967132568e-02) (171, -1.15691530704498291016e+00) (172, 8.85902270674705505371e-02) (173, 2.65277158468961715698e-02) (174, 8.17655622959136962891e-01) (175, -1.61550724506378173828e+00) (176, 1.32657814025878906250e+00) (177, 1.46195162087678909302e-02) (178, -5.57764649391174316406e-01) (179, -1.31824851036071777344e+00) (180, 1.75143086910247802734e+00) (181, -6.06288373470306396484e-01) (182, 1.25344729423522949219e+00) (183, -3.87468665838241577148e-01) (184, -1.00982511043548583984e+00) (185, -1.59046024084091186523e-01) (186, 2.12332233786582946777e-01) (187, -1.02199696004390716553e-01) (188, -7.48670339584350585938e-01) (189, 5.05918800830841064453e-01) (190, 4.36120182275772094727e-01) (191, 1.24881768226623535156e+00) (192, -1.42129613086581230164e-02) (193, -1.82935148477554321289e-01) (194, 3.67388099431991577148e-01) (195, 1.25830137729644775391e+00) (196, -2.04452484846115112305e-01) (197, 4.08973664045333862305e-01) (198, -1.09064912796020507812e+00) (199, 1.07354149222373962402e-01) (200, 6.46055519580841064453e-01) (201, 1.65861177444458007812e+00) (202, -6.12357318401336669922e-01) (203, 1.15488827228546142578e+00) (204, 5.42083561420440673828e-01) (205, 4.23734098672866821289e-01) (206, -5.13584077358245849609e-01) (207, -1.38401675224304199219e+00) (208, 4.44985359907150268555e-01) (209, -1.08760178089141845703e-01) (210, 1.59052148461341857910e-01) (211, 5.15627026557922363281e-01) (212, -4.99920666217803955078e-01) (213, -4.69741940498352050781e-01) (214, 1.44618952274322509766e+00) (215, 2.68878412246704101562e+00) (168, -2.69050550460815429688e+00) (169, -1.18343329429626464844e+00) (170, -3.18785905838012695312e-01) (171, -6.78124666213989257812e-01) (172, 6.63475096225738525391e-01) (173, -5.88139355182647705078e-01) (174, 4.02668267488479614258e-01) (175, -1.78061056137084960938e+00) (176, 3.75536412000656127930e-01) (177, -6.89999461174011230469e-01) (178, -5.78525140881538391113e-02) (179, -1.43492090702056884766e+00) (180, 1.43118298053741455078e+00) (181, 3.99374127388000488281e-01) (182, -6.11639082431793212891e-01) (183, -1.21475148200988769531e+00) (184, -8.77475261688232421875e-01) (185, -2.58181560784578323364e-02) (186, 4.02696192264556884766e-01) (187, -4.49170053005218505859e-01) (188, -1.39842641353607177734e+00) (189, -1.51184365153312683105e-01) (190, -5.38132190704345703125e-01) (191, -1.45803004503250122070e-01) (192, -5.21507501602172851562e-01) (193, 6.28514736890792846680e-02) (194, 3.60505402088165283203e-01) (195, 8.92650246620178222656e-01) (196, -1.06887972354888916016e+00) (197, -2.66108572483062744141e-01) (198, -1.13261187076568603516e+00) (199, 7.13412404060363769531e-01) (200, 2.23588728904724121094e+00) (201, 1.78311026096343994141e+00) (202, -2.16160845756530761719e+00) (203, 2.07471489906311035156e+00) (204, 3.96242260932922363281e-01) (205, 1.87498703598976135254e-01) (206, -5.74050724506378173828e-01) (207, -6.09422922134399414062e-01) (208, 4.37887340784072875977e-01) (209, -7.45905876159667968750e-01) (210, 2.42929607629776000977e-01) (211, -8.52801024913787841797e-01) (212, -1.32317268848419189453e+00) (213, -4.50399279594421386719e-01) (214, 4.83439117670059204102e-01) (215, 3.99353837966918945312e+00) (168, -6.21195256710052490234e-01) (169, 1.27139270305633544922e+00) (170, 2.60508966445922851562e+00) (171, -1.81512653827667236328e-01) (172, -2.16613864898681640625e+00) (173, -2.38861536979675292969e+00) (174, -1.37105023860931396484e+00) (175, -3.24534869194030761719e+00) (176, 1.25689649581909179688e+00) (177, 6.42260730266571044922e-01) (178, 2.28434252738952636719e+00) (179, -1.40419751405715942383e-01) (180, 1.92708182334899902344e+00) (181, 2.21030735969543457031e+00) (182, 2.18034625053405761719e+00) (183, -6.26451611518859863281e-01) (184, 7.92964518070220947266e-01) (185, -2.57343024015426635742e-01) (186, 1.84775483608245849609e+00) (187, -1.17636013031005859375e+00) (188, -3.68165284395217895508e-01) (189, 3.27751779556274414062e+00) (190, 2.61957734823226928711e-01) (191, -2.69327431917190551758e-01) (192, -1.08628153800964355469e+00) (193, 1.65586996078491210938e+00) (194, 2.71669775247573852539e-01) (195, 4.41177874803543090820e-01) (196, 3.10574364662170410156e+00) (197, 1.09037649631500244141e+00) (198, -1.42856836318969726562e+00) (199, 1.04244798421859741211e-01) (200, 1.11338877677917480469e+00) (201, 2.50510358810424804688e+00) (202, 1.17031192779541015625e+00) (203, 1.94392919540405273438e+00) (204, 7.98473179340362548828e-01) (205, 3.66053509712219238281e+00) (206, -4.77306306362152099609e-01) (207, -3.32901430130004882812e+00) (208, 7.11204826831817626953e-01) (209, 6.19929671287536621094e-01) (210, 4.12942975759506225586e-01) (211, -1.01800346374511718750e+00) (212, 3.70152056217193603516e-01) (213, -2.98393853008747100830e-02) (214, -3.99909347295761108398e-01) (215, 8.66706848144531250000e-01) (168, -9.67781990766525268555e-02) (169, 9.76885318756103515625e-01) (170, 2.37432932853698730469e+00) (171, -7.65980966389179229736e-03) (172, -1.60164856910705566406e+00) (173, -2.70807504653930664062e+00) (174, -1.15445029735565185547e+00) (175, -3.23259139060974121094e+00) (176, 1.41340959072113037109e+00) (177, 1.08626484870910644531e+00) (178, 1.34009051322937011719e+00) (179, -2.70849198102951049805e-01) (180, 1.52795863151550292969e+00) (181, 2.06328582763671875000e+00) (182, 8.18113923072814941406e-01) (183, -1.49322962760925292969e+00) (184, 8.30805242061614990234e-01) (185, 3.66738960146903991699e-02) (186, 1.45202183723449707031e+00) (187, -8.15471768379211425781e-01) (188, 2.51021474599838256836e-01) (189, 2.22645711898803710938e+00) (190, 6.99858665466308593750e-01) (191, 3.50538253784179687500e-01) (192, -5.66863477230072021484e-01) (193, 1.14672780036926269531e+00) (194, 5.12701869010925292969e-01) (195, 5.21926343441009521484e-01) (196, 2.28927159309387207031e+00) (197, -5.81545770168304443359e-01) (198, -1.57223641872406005859e+00) (199, 5.33496215939521789551e-02) (200, -6.66041597723960876465e-02) (201, 1.95424747467041015625e+00) (202, 1.59772467613220214844e+00) (203, 1.04826796054840087891e+00) (204, 7.27764427661895751953e-01) (205, 3.13914656639099121094e+00) (206, -5.51937043666839599609e-01) (207, -3.10753655433654785156e+00) (208, 5.57879865169525146484e-01) (209, 4.68204110860824584961e-01) (210, 8.67788121104240417480e-02) (211, -3.14058393239974975586e-01) (212, 7.72427201271057128906e-01) (213, -1.50621384382247924805e-01) (214, 1.07818388938903808594e+00) (215, 1.89312577247619628906e-01) (168, -1.10997045040130615234e+00) (169, 7.00568437576293945312e-01) (170, 3.01816797256469726562e+00) (171, 4.83190089464187622070e-01) (172, -7.17797577381134033203e-01) (173, -2.13308978080749511719e+00) (174, -2.46490955352783203125e+00) (175, -2.01126503944396972656e+00) (176, 1.62637066096067428589e-02) (177, 1.21817195415496826172e+00) (178, 1.70258688926696777344e+00) (179, 3.13131324946880340576e-02) (180, 8.29504489898681640625e-01) (181, 3.10806131362915039062e+00) (182, -1.20820090174674987793e-01) (183, -2.14649748802185058594e+00) (184, 1.03559243679046630859e+00) (185, 5.83505690097808837891e-01) (186, 1.88354146480560302734e+00) (187, -1.62908303737640380859e+00) (188, 3.55512112379074096680e-01) (189, 1.88145160675048828125e+00) (190, -2.18005672097206115723e-01) (191, -1.10880315303802490234e+00) (192, -3.41380476951599121094e-01) (193, 6.03468418121337890625e-01) (194, 1.53951629996299743652e-01) (195, -2.49242391437292098999e-02) (196, -1.93292587995529174805e-01) (197, -2.65398716926574707031e+00) (198, -1.52102851867675781250e+00) (199, 8.83342742919921875000e-01) (200, 7.74507522583007812500e-01) (201, 1.67510926723480224609e+00) (202, 1.11894106864929199219e+00) (203, 1.82115924358367919922e+00) (204, 5.44332325458526611328e-01) (205, 1.26292073726654052734e+00) (206, -4.41635310649871826172e-01) (207, -2.34437108039855957031e+00) (208, 5.00201284885406494141e-01) (209, 2.56959170103073120117e-01) (210, -7.17866718769073486328e-01) (211, -1.52737724781036376953e+00) (212, 4.36098396778106689453e-01) (213, 4.57710698246955871582e-02) (214, 1.15396952629089355469e+00) (215, 1.53168618679046630859e-01) (168, 2.65633016824722290039e-01) (169, 4.17112827301025390625e-01) (170, 4.97235171496868133545e-02) (171, 3.27908135950565338135e-02) (172, 5.94815254211425781250e-01) (173, 1.11455118656158447266e+00) (174, 4.22895669937133789062e-01) (175, -1.08712457120418548584e-01) (176, 1.50995886325836181641e+00) (177, 1.65852224826812744141e+00) (178, 1.07539653778076171875e+00) (179, -2.36508417129516601562e+00) (180, 1.03971672058105468750e+00) (181, -9.62097764015197753906e-01) (182, 3.68793666362762451172e-01) (183, -9.53198730945587158203e-01) (184, -5.27314692735671997070e-02) (185, -1.38167309761047363281e+00) (186, -5.24456799030303955078e-01) (187, 5.24606227874755859375e-01) (188, 1.26857072114944458008e-01) (189, 6.88067674636840820312e-01) (190, 1.38396346569061279297e+00) (191, 1.24274432659149169922e+00) (192, 4.49403584003448486328e-01) (193, 2.12074255943298339844e+00) (194, 5.06325244903564453125e-01) (195, -7.33405053615570068359e-02) (196, 4.87385779619216918945e-01) (197, 1.88376545906066894531e+00) (198, -3.86268407106399536133e-01) (199, -1.28880631923675537109e+00) (200, -1.33753550052642822266e+00) (201, -4.39828485250473022461e-01) (202, 2.04819440841674804688e+00) (203, 1.50973707437515258789e-01) (204, 7.37495869398117065430e-02) (205, 6.04642629623413085938e-01) (206, -1.08549989759922027588e-01) (207, -1.79268389940261840820e-01) (208, -6.93107321858406066895e-02) (209, 3.34250479936599731445e-01) (210, 2.63381391763687133789e-01) (211, 2.17124414443969726562e+00) (212, -3.25099617242813110352e-01) (213, -9.55020189285278320312e-02) (214, 9.99651074409484863281e-01) (215, 1.20897781848907470703e+00) (168, 3.01578957587480545044e-02) (169, 3.44418972730636596680e-01) (170, 5.92469237744808197021e-02) (171, 2.21389457583427429199e-01) (172, 8.04184079170227050781e-01) (173, 8.89703750610351562500e-01) (174, 3.92988920211791992188e-01) (175, -1.59117430448532104492e-01) (176, 9.37313795089721679688e-01) (177, 1.67946040630340576172e+00) (178, 9.23651039600372314453e-01) (179, -2.06163763999938964844e+00) (180, 5.91558635234832763672e-01) (181, -3.60950082540512084961e-01) (182, 3.75185430049896240234e-01) (183, -1.07143926620483398438e+00) (184, 3.63336116075515747070e-01) (185, -1.10395824909210205078e+00) (186, -5.35870254039764404297e-01) (187, 6.08875393867492675781e-01) (188, -2.75827676057815551758e-01) (189, 8.60230147838592529297e-01) (190, 9.36460137367248535156e-01) (191, 9.72141802310943603516e-01) (192, 4.27686035633087158203e-01) (193, 1.37202548980712890625e+00) (194, 3.85434120893478393555e-01) (195, -1.37077227234840393066e-01) (196, 1.34340390563011169434e-01) (197, 1.76119041442871093750e+00) (198, -1.14186860620975494385e-01) (199, -5.19941091537475585938e-01) (200, -6.22100293636322021484e-01) (201, 2.95376002788543701172e-01) (202, 1.86507844924926757812e+00) (203, 4.43923354148864746094e-01) (204, 2.90837407112121582031e-01) (205, 7.71901547908782958984e-01) (206, -2.33053296804428100586e-01) (207, 3.50802317261695861816e-02) (208, -5.35542145371437072754e-02) (209, 4.08285111188888549805e-01) (210, 3.35448712110519409180e-01) (211, 1.69276380538940429688e+00) (212, 2.38529413938522338867e-01) (213, -6.27229958772659301758e-02) (214, 5.64433932304382324219e-01) (215, 6.93863391876220703125e-01) (168, -4.23831135034561157227e-01) (169, 4.63934212923049926758e-01) (170, 1.12589791417121887207e-01) (171, 3.91441017389297485352e-01) (172, 1.25245654582977294922e+00) (173, 1.09153437614440917969e+00) (174, 5.85055202245712280273e-02) (175, 6.12529367208480834961e-02) (176, -4.39210623502731323242e-01) (177, 1.23141217231750488281e+00) (178, 8.37457358837127685547e-01) (179, -1.36516296863555908203e+00) (180, -4.59020696580410003662e-02) (181, 1.60247802734375000000e-01) (182, 4.92770850658416748047e-01) (183, -9.24611091613769531250e-01) (184, 1.37854039669036865234e+00) (185, -4.22931462526321411133e-01) (186, -3.39508354663848876953e-01) (187, 2.26775735616683959961e-01) (188, -5.46672463417053222656e-01) (189, 9.44833993911743164062e-01) (190, 6.42799913883209228516e-01) (191, 4.89665307104587554932e-02) (192, 3.40783834457397460938e-01) (193, 1.29744803905487060547e+00) (194, 1.18726633489131927490e-01) (195, 1.84700623154640197754e-01) (196, -1.02206850051879882812e+00) (197, 1.06420159339904785156e+00) (198, 7.69308134913444519043e-02) (199, 7.36719965934753417969e-01) (200, 4.29344534873962402344e-01) (201, 8.30061316490173339844e-01) (202, 1.55658233165740966797e+00) (203, 1.50444793701171875000e+00) (204, 3.15173953771591186523e-01) (205, 8.56187701225280761719e-01) (206, -4.91548299789428710938e-01) (207, -1.36573478579521179199e-01) (208, 2.43572697043418884277e-01) (209, 4.04067367315292358398e-01) (210, 7.19079852104187011719e-01) (211, 5.03386259078979492188e-01) (212, 4.82649862766265869141e-01) (213, -7.67295286059379577637e-02) (214, 2.92742159217596054077e-03) (215, 3.81212651729583740234e-01) (168, 1.17378890514373779297e+00) (169, -6.63502037525177001953e-01) (170, -8.12679529190063476562e-01) (171, 1.01361644268035888672e+00) (172, 1.08187019824981689453e+00) (173, -1.94940075278282165527e-01) (174, -4.97609376907348632812e+00) (175, -3.29809617996215820312e+00) (176, 4.88450288772583007812e-01) (177, 1.99991032481193542480e-01) (178, -2.08408981561660766602e-01) (179, 4.36770290136337280273e-01) (180, 5.44174790382385253906e-01) (181, -1.94942176342010498047e+00) (182, -1.01563346385955810547e+00) (183, -2.01436018943786621094e+00) (184, -2.72112822532653808594e+00) (185, 2.37619988620281219482e-02) (186, 2.13096523284912109375e+00) (187, 4.26014333963394165039e-01) (188, -2.80084156990051269531e+00) (189, -7.88462877273559570312e-01) (190, -7.38048195838928222656e-01) (191, -7.55963921546936035156e-01) (192, -2.51659965515136718750e+00) (193, -3.37488949298858642578e-01) (194, -5.22610425949096679688e-01) (195, 1.28099727630615234375e+00) (196, 1.29267752170562744141e+00) (197, -9.32997763156890869141e-01) (198, 9.01618599891662597656e-01) (199, -3.49061578512191772461e-01) (200, 3.38447660207748413086e-01) (201, -1.28178381919860839844e+00) (202, -2.37703815102577209473e-01) (203, 7.18721687793731689453e-01) (204, 2.13888019323348999023e-01) (205, -2.84990131855010986328e-01) (206, -4.16602194309234619141e-01) (207, -1.29071176052093505859e+00) (208, 6.16209924221038818359e-01) (209, -7.84821331501007080078e-01) (210, -9.42250192165374755859e-01) (211, 2.78869748115539550781e-01) (212, -6.84454083442687988281e-01) (213, -2.53137916326522827148e-01) (214, 2.12849378585815429688e+00) (215, 4.04558706283569335938e+00) (168, -9.41409647464752197266e-01) (169, -6.34853422641754150391e-01) (170, 1.34346890449523925781e+00) (171, -3.67433905601501464844e-01) (172, 1.70202568173408508301e-01) (173, 1.88849747180938720703e-01) (174, 1.93715572357177734375e-01) (175, -1.65924811363220214844e+00) (176, 4.93872702121734619141e-01) (177, 3.27681422233581542969e-01) (178, 1.12620091438293457031e+00) (179, -1.27062582969665527344e+00) (180, -5.36104619503021240234e-01) (181, -1.60899907350540161133e-02) (182, -5.75615763664245605469e-01) (183, -6.57242834568023681641e-01) (184, 5.27687430381774902344e-01) (185, 3.59700828790664672852e-01) (186, -1.68603748083114624023e-01) (187, 5.33582925796508789062e-01) (188, 3.20224940776824951172e-01) (189, 2.20218822360038757324e-01) (190, 1.56013810634613037109e+00) (191, 1.15705227851867675781e+00) (192, -4.89194154739379882812e-01) (193, 1.81549775600433349609e+00) (194, -6.27880334854125976562e-01) (195, 1.11435210704803466797e+00) (196, 3.79523187875747680664e-01) (197, -8.32379460334777832031e-01) (198, -1.39941179752349853516e+00) (199, -3.46697010099887847900e-02) (200, -2.41465643048286437988e-01) (201, -4.44945156574249267578e-01) (202, 9.94828581809997558594e-01) (203, -5.86060620844364166260e-02) (204, 3.02106767892837524414e-01) (205, -6.92409336566925048828e-01) (206, -1.28134459257125854492e-01) (207, 8.67683649063110351562e-01) (208, 3.24760943651199340820e-01) (209, 1.82639646530151367188e+00) (210, -1.99904084205627441406e-01) (211, 8.69952738285064697266e-01) (212, -9.60354089736938476562e-01) (213, 7.39936577156186103821e-03) (214, 9.31640923023223876953e-01) (215, 1.65337419509887695312e+00) (168, -1.63277101516723632812e+00) (169, -8.68129611015319824219e-01) (170, 1.72306847572326660156e+00) (171, -1.20159775018692016602e-01) (172, 5.12695193290710449219e-01) (173, 2.96741843223571777344e-01) (174, 5.20237982273101806641e-01) (175, -1.64732074737548828125e+00) (176, -7.17680990695953369141e-01) (177, -1.09970247745513916016e+00) (178, 1.27223110198974609375e+00) (179, -1.32251262664794921875e+00) (180, -7.05920815467834472656e-01) (181, 4.73740905523300170898e-01) (182, -1.91405072808265686035e-01) (183, -3.97497504949569702148e-01) (184, 8.73015403747558593750e-01) (185, 1.71415388584136962891e-01) (186, 2.71762222051620483398e-01) (187, 1.06805726885795593262e-01) (188, -9.99849885702133178711e-02) (189, -3.73406589031219482422e-01) (190, 1.24187421798706054688e+00) (191, -1.22565492987632751465e-01) (192, -5.89882612228393554688e-01) (193, 1.89407622814178466797e+00) (194, -6.99869453907012939453e-01) (195, 8.06897938251495361328e-01) (196, -9.03011858463287353516e-01) (197, -1.52642488479614257812e+00) (198, -1.25946283340454101562e+00) (199, 1.02109897136688232422e+00) (200, 1.25104689598083496094e+00) (201, 4.73921537399291992188e-01) (202, 3.52704882621765136719e-01) (203, 1.19808375835418701172e+00) (204, 2.25829184055328369141e-01) (205, -4.25153046846389770508e-01) (206, -2.57242709398269653320e-01) (207, 3.60450685024261474609e-01) (208, 2.15878129005432128906e-01) (209, 1.80857455730438232422e+00) (210, -1.63333907723426818848e-01) (211, -2.93802171945571899414e-01) (212, -1.14836943149566650391e+00) (213, -2.74423390626907348633e-01) (214, 5.69374144077301025391e-01) (215, 2.11340880393981933594e+00) (168, -2.77760004997253417969e+00) (169, -2.35983395576477050781e+00) (170, -1.14443695545196533203e+00) (171, 3.01618188619613647461e-01) (172, 1.94702827930450439453e+00) (173, 1.47256624698638916016e+00) (174, -6.75910115242004394531e-01) (175, -7.15432286262512207031e-01) (176, 6.83289110660552978516e-01) (177, 7.15378224849700927734e-01) (178, 1.82572400569915771484e+00) (179, 4.06847506761550903320e-01) (180, 1.04816675186157226562e+00) (181, -1.41125106811523437500e+00) (182, 1.10070812702178955078e+00) (183, -1.72784969210624694824e-01) (184, -3.61540578305721282959e-02) (185, -9.35778915882110595703e-01) (186, -7.82415926456451416016e-01) (187, -2.28485852479934692383e-01) (188, -1.98293876647949218750e+00) (189, -1.06156671047210693359e+00) (190, 1.60187333822250366211e-01) (191, 5.40709316730499267578e-01) (192, -1.53401529788970947266e+00) (193, -3.41404229402542114258e-01) (194, 2.30631351470947265625e+00) (195, -6.24661564826965332031e-01) (196, 5.76592266559600830078e-01) (197, 1.39541149139404296875e+00) (198, 3.19062143564224243164e-01) (199, -1.00352084636688232422e+00) (200, 2.20584213733673095703e-01) (201, -2.00426504015922546387e-01) (202, 6.52955949306488037109e-01) (203, 2.25081634521484375000e+00) (204, 7.45343089103698730469e-01) (205, -2.39834713935852050781e+00) (206, -6.82208895683288574219e-01) (207, 1.62248325347900390625e+00) (208, 5.78711628913879394531e-01) (209, 1.18461513519287109375e+00) (210, 1.25232505798339843750e+00) (211, 3.43966394662857055664e-01) (212, -2.55470275878906250000e+00) (213, -5.35820662975311279297e-01) (214, -1.27579677104949951172e+00) (215, 1.59765398502349853516e+00) (168, -9.28166568279266357422e-01) (169, -1.86951065063476562500e+00) (170, -1.15880048274993896484e+00) (171, 3.87073665857315063477e-01) (172, 1.90193867683410644531e+00) (173, 4.44746494293212890625e-01) (174, -2.24138092994689941406e+00) (175, -1.16626346111297607422e+00) (176, -2.53360062837600708008e-01) (177, -7.26436138153076171875e-01) (178, 7.78000354766845703125e-01) (179, 9.07036066055297851562e-02) (180, 6.36871814727783203125e-01) (181, -3.10094803571701049805e-01) (182, 4.98380750417709350586e-01) (183, -4.60128217935562133789e-01) (184, -5.10040998458862304688e-01) (185, -2.82000422477722167969e-01) (186, 6.03811740875244140625e-01) (187, -1.47883737087249755859e+00) (188, -2.51123332977294921875e+00) (189, -1.13945506513118743896e-01) (190, -2.40642763674259185791e-02) (191, -1.05547738075256347656e+00) (192, -1.28126072883605957031e+00) (193, -7.43793547153472900391e-01) (194, 2.06431165337562561035e-01) (195, 1.52640923857688903809e-01) (196, -1.65080606937408447266e-01) (197, -1.77345133852213621140e-03) (198, 2.00058746337890625000e+00) (199, -1.28201246261596679688e-01) (200, 1.41659426689147949219e+00) (201, 1.25021505355834960938e+00) (202, -1.30579316616058349609e+00) (203, 6.97733461856842041016e-01) (204, 3.18729758262634277344e-01) (205, -1.05615162849426269531e+00) (206, -4.76708054542541503906e-01) (207, 4.11641657352447509766e-01) (208, 5.25783658027648925781e-01) (209, -3.44743043184280395508e-01) (210, -1.00612330436706542969e+00) (211, 7.76184618473052978516e-01) (212, -1.30366933345794677734e+00) (213, -2.03230634331703186035e-01) (214, -1.36715054512023925781e+00) (215, 3.45649719238281250000e+00) (168, -1.25791847705841064453e+00) (169, -1.48559713363647460938e+00) (170, 6.27727806568145751953e-01) (171, -3.07820230722427368164e-01) (172, -3.47141951322555541992e-01) (173, -1.07542967796325683594e+00) (174, 6.91891193389892578125e-01) (175, -2.93570065498352050781e+00) (176, 9.46546018123626708984e-01) (177, 3.60262751579284667969e-01) (178, 1.37180125713348388672e+00) (179, -6.95046722888946533203e-01) (180, 1.04082131385803222656e+00) (181, 3.78972142934799194336e-01) (182, -3.83372813463211059570e-01) (183, 1.66950762271881103516e-01) (184, -1.11049640178680419922e+00) (185, 1.23172199726104736328e+00) (186, 4.75064009428024291992e-01) (187, -1.02337777614593505859e+00) (188, 7.97574043273925781250e-01) (189, -6.19549117982387542725e-02) (190, 1.62974727153778076172e+00) (191, 1.75838351249694824219e+00) (192, 2.92132854461669921875e-01) (193, 5.43333053588867187500e-01) (194, 2.29641723632812500000e+00) (195, 6.02669894695281982422e-01) (196, -1.57897353172302246094e+00) (197, -8.93573582172393798828e-01) (198, -2.79933005571365356445e-01) (199, 3.87422204017639160156e-01) (200, -7.52615690231323242188e-01) (201, 1.32440125942230224609e+00) (202, -3.28708440065383911133e-01) (203, -8.61883938312530517578e-01) (204, 6.32885396480560302734e-01) (205, -1.74170327186584472656e+00) (206, -6.42955243587493896484e-01) (207, -6.91221773624420166016e-01) (208, 3.24723005294799804688e-01) (209, 1.04797470569610595703e+00) (210, 1.83202013373374938965e-01) (211, 1.71061563491821289062e+00) (212, -2.21700811386108398438e+00) (213, -5.55032968521118164062e-01) (214, -5.21073281764984130859e-01) (215, 1.14022529125213623047e+00) (168, 3.29962402582168579102e-01) (169, -2.32348442077636718750e-01) (170, -1.91831874847412109375e+00) (171, 1.12633061408996582031e+00) (172, 1.34111583232879638672e+00) (173, 1.22820758819580078125e+00) (174, -2.67595100402832031250e+00) (175, 3.03670823574066162109e-01) (176, -2.49145174026489257812e+00) (177, -4.56174224615097045898e-01) (178, 1.86381924152374267578e+00) (179, -8.24414074420928955078e-01) (180, -6.44061505794525146484e-01) (181, -1.43233788013458251953e+00) (182, 2.74336957931518554688e+00) (183, 1.62848734855651855469e+00) (184, 1.14086365699768066406e+00) (185, -5.09152770042419433594e-01) (186, 2.38150644302368164062e+00) (187, -2.30631127953529357910e-01) (188, -3.93829607963562011719e+00) (189, -1.69132006168365478516e+00) (190, -1.42652347683906555176e-01) (191, -2.93888378143310546875e+00) (192, -1.85853946208953857422e+00) (193, -3.28239530324935913086e-01) (194, -2.17916083335876464844e+00) (195, 2.80833292007446289062e+00) (196, 2.67331647872924804688e+00) (197, -1.47146761417388916016e-01) (198, 2.80619692802429199219e+00) (199, 3.39301884174346923828e-01) (200, 2.54002714157104492188e+00) (201, -5.91351866722106933594e-01) (202, -2.79168987274169921875e+00) (203, 2.16559410095214843750e-01) (204, 3.48933577537536621094e-01) (205, -1.12800407409667968750e+00) (206, -2.26472422480583190918e-01) (207, -1.12291169166564941406e+00) (208, 5.95042586326599121094e-01) (209, -1.33123171329498291016e+00) (210, -3.08043408393859863281e+00) (211, 5.03859937191009521484e-01) (212, -1.26165175437927246094e+00) (213, -1.80712491273880004883e-01) (214, -3.53266865015029907227e-01) (215, 3.22671413421630859375e+00) (168, -7.18282580375671386719e-01) (169, -4.23582762479782104492e-01) (170, -1.07423341274261474609e+00) (171, -4.13164764642715454102e-01) (172, 8.43667387962341308594e-01) (173, 9.01529312133789062500e-01) (174, -2.25846052169799804688e+00) (175, -8.33699584007263183594e-01) (176, -5.75564086437225341797e-01) (177, -7.44176208972930908203e-01) (178, 1.29941201210021972656e+00) (179, -1.16605186462402343750e+00) (180, 7.09556102752685546875e-01) (181, -2.30186775326728820801e-01) (182, 5.12959241867065429688e-01) (183, -1.22158698737621307373e-01) (184, -2.45774820446968078613e-01) (185, 2.30346783995628356934e-01) (186, 1.22717261314392089844e+00) (187, -1.23668275773525238037e-01) (188, -1.88989531993865966797e+00) (189, -2.59982132911682128906e+00) (190, 9.50555652379989624023e-02) (191, -8.13162147998809814453e-01) (192, -9.19393599033355712891e-01) (193, -1.51710603386163711548e-02) (194, 8.35101585835218429565e-03) (195, 1.18501436710357666016e+00) (196, 6.96648597717285156250e-01) (197, -4.07051235437393188477e-01) (198, 1.29489290714263916016e+00) (199, 2.26445496082305908203e-01) (200, 1.12572193145751953125e+00) (201, 1.38070210814476013184e-01) (202, -1.25474560260772705078e+00) (203, 1.67839378118515014648e-01) (204, 3.16600173711776733398e-01) (205, -2.38802981376647949219e+00) (206, -4.98474031686782836914e-01) (207, 5.39264261722564697266e-01) (208, 4.27509725093841552734e-01) (209, -7.34330058097839355469e-01) (210, -1.04788267612457275391e+00) (211, 7.29094266891479492188e-01) (212, -1.92606091499328613281e+00) (213, -4.10628318786621093750e-01) (214, 3.73045504093170166016e-01) (215, 3.97005867958068847656e+00) (168, -1.60247635841369628906e+00) (169, -1.41279828548431396484e+00) (170, 6.28418684005737304688e-01) (171, -3.71863692998886108398e-01) (172, -3.82570683956146240234e-01) (173, 1.10213942825794219971e-01) (174, 1.32509386539459228516e+00) (175, -2.88183283805847167969e+00) (176, 1.05207216739654541016e+00) (177, 1.11449956893920898438e+00) (178, 1.08210623264312744141e+00) (179, -1.42090737819671630859e-01) (180, 1.24388885498046875000e+00) (181, -2.58286893367767333984e-01) (182, -7.03976809978485107422e-01) (183, 1.89713805913925170898e-01) (184, -7.02292799949645996094e-01) (185, 1.46850526332855224609e+00) (186, 1.27075046300888061523e-01) (187, -6.99885338544845581055e-02) (188, 1.38271844387054443359e+00) (189, -1.68548703193664550781e+00) (190, 1.24163234233856201172e+00) (191, 1.54251825809478759766e+00) (192, 7.30821788311004638672e-01) (193, 1.53956353664398193359e+00) (194, 1.46294677257537841797e+00) (195, 7.38298237323760986328e-01) (196, -5.64783275127410888672e-01) (197, -9.48808610439300537109e-01) (198, -6.16378188133239746094e-01) (199, 1.88257887959480285645e-01) (200, -1.91702023148536682129e-01) (201, 1.42656755447387695312e+00) (202, -5.92270135879516601562e-01) (203, 3.20237167179584503174e-02) (204, 8.02561342716217041016e-02) (205, -2.35081362724304199219e+00) (206, -2.59885787963867187500e-01) (207, -2.16563180088996887207e-01) (208, 5.76448813080787658691e-02) (209, -4.01315540075302124023e-02) (210, -3.41810397803783416748e-02) (211, 1.02173209190368652344e+00) (212, -3.09667277336120605469e+00) (213, -3.63176673650741577148e-01) (214, 3.81276607513427734375e-01) (215, 1.08618128299713134766e+00) (168, 7.87554442882537841797e-01) (169, 1.89549636840820312500e+00) (170, 5.60221493244171142578e-01) (171, 8.51350247859954833984e-01) (172, 1.05758547782897949219e+00) (173, 2.41273880004882812500e+00) (174, -4.22629863023757934570e-02) (175, 1.96223640441894531250e+00) (176, -6.73315346240997314453e-01) (177, 2.57006317377090454102e-01) (178, 9.08012390136718750000e-01) (179, -1.68352699279785156250e+00) (180, 2.57782876491546630859e-01) (181, 3.08398365974426269531e-01) (182, 2.19183158874511718750e+00) (183, 6.72220349311828613281e-01) (184, 2.49598169326782226562e+00) (185, -4.88030284643173217773e-01) (186, -4.90164816379547119141e-01) (187, -7.94215857982635498047e-01) (188, -2.49368935823440551758e-01) (189, 2.21660792827606201172e-01) (190, 8.48659932613372802734e-01) (191, -1.06269133090972900391e+00) (192, -6.42538547515869140625e-01) (193, 1.10515475273132324219e+00) (194, 3.34037333726882934570e-01) (195, 1.98022611439228057861e-02) (196, 1.73565649986267089844e+00) (197, 1.32452702522277832031e+00) (198, 1.29446065425872802734e+00) (199, 1.59790277481079101562e+00) (200, -2.21040427684783935547e-01) (201, -1.85119020938873291016e+00) (202, 1.00521989166736602783e-01) (203, 3.94338518381118774414e-01) (204, 6.76570117473602294922e-01) (205, -1.27550518512725830078e+00) (206, -7.69480466842651367188e-01) (207, 2.01066064834594726562e+00) (208, 4.59131747484207153320e-01) (209, 1.13119196891784667969e+00) (210, 9.35820758342742919922e-01) (211, -7.94698536396026611328e-01) (212, 9.93093073368072509766e-01) (213, -6.34181141853332519531e-01) (214, 4.79749172925949096680e-01) (215, 2.19751000404357910156e+00) (168, -2.83174276351928710938e-01) (169, -3.07266786694526672363e-02) (170, 7.67256140708923339844e-01) (171, -8.48883688449859619141e-01) (172, -1.21378374751657247543e-03) (173, -3.02874565124511718750e-01) (174, -3.81383806467056274414e-01) (175, -1.77583539485931396484e+00) (176, 5.18416285514831542969e-01) (177, -4.00114268064498901367e-01) (178, 4.29238468408584594727e-01) (179, -2.52160143852233886719e+00) (180, -7.05767750740051269531e-01) (181, -3.99108260869979858398e-01) (182, 6.93412005901336669922e-01) (183, -2.33870580792427062988e-01) (184, -8.27609598636627197266e-01) (185, -3.60993206501007080078e-01) (186, 3.51412802934646606445e-01) (187, 4.29027318954467773438e-01) (188, -1.35851860046386718750e+00) (189, -8.05650949478149414062e-01) (190, 9.88775491714477539062e-01) (191, 1.49625992774963378906e+00) (192, -5.32018005847930908203e-01) (193, 8.36232781410217285156e-01) (194, 7.57480442523956298828e-01) (195, 1.39815008640289306641e+00) (196, 1.20471584796905517578e+00) (197, -3.67767035961151123047e-01) (198, -7.67301082611083984375e-01) (199, 8.25412198901176452637e-02) (200, 1.80375963449478149414e-01) (201, 2.66025811433792114258e-01) (202, -4.65496808290481567383e-01) (203, -7.09747299551963806152e-02) (204, 7.09383487701416015625e-01) (205, -1.67456829547882080078e+00) (206, -7.53585636615753173828e-01) (207, 1.36622750759124755859e+00) (208, 5.21644115447998046875e-01) (209, 6.82014882564544677734e-01) (210, -1.34197324514389038086e-01) (211, -1.60548537969589233398e-01) (212, -8.07434737682342529297e-01) (213, -4.90998387336730957031e-01) (214, 6.08048915863037109375e-01) (215, 2.33456492424011230469e+00) (168, -1.32460606098175048828e+00) (169, -3.38569939136505126953e-01) (170, -6.56263232231140136719e-01) (171, 3.35947461426258087158e-02) (172, 6.33522987365722656250e-01) (173, 2.12988638877868652344e+00) (174, -5.69232881069183349609e-01) (175, -4.35175150632858276367e-01) (176, -1.05587232112884521484e+00) (177, -1.61773458123207092285e-01) (178, -4.45229053497314453125e-01) (179, -1.93461164832115173340e-01) (180, -3.53212386369705200195e-01) (181, -6.78267002105712890625e-01) (182, -1.07958026230335235596e-01) (183, -5.87907493114471435547e-01) (184, -1.48549425601959228516e+00) (185, -2.23704263567924499512e-01) (186, 9.09769892692565917969e-01) (187, 9.09104168415069580078e-01) (188, -2.89530849456787109375e+00) (189, -2.43168640136718750000e+00) (190, -9.66742396354675292969e-01) (191, -2.43070684373378753662e-02) (192, -9.35882687568664550781e-01) (193, -5.69260418415069580078e-02) (194, -2.95913536101579666138e-02) (195, 2.52233389765024185181e-02) (196, -1.35275632143020629883e-01) (197, -1.87983727455139160156e+00) (198, -3.12321186065673828125e-01) (199, -2.27932222187519073486e-02) (200, 4.27087903022766113281e-01) (201, 1.75124561786651611328e+00) (202, -2.41146135330200195312e+00) (203, -1.17727860808372497559e-01) (204, 5.60217857360839843750e-01) (205, -7.81044304370880126953e-01) (206, -6.94791972637176513672e-01) (207, 6.53687357902526855469e-01) (208, 8.41872394084930419922e-01) (209, 2.31676191091537475586e-01) (210, -8.08132827281951904297e-01) (211, -2.25593733787536621094e+00) (212, -1.08330738544464111328e+00) (213, -9.05727148056030273438e-01) (214, 1.48189401626586914062e+00) (215, 3.92778992652893066406e+00) (168, -1.89637625217437744141e+00) (169, -7.04379379749298095703e-01) (170, -1.60015487670898437500e+00) (171, 2.30551886558532714844e+00) (172, -2.81080037355422973633e-01) (173, -2.01004192233085632324e-01) (174, -2.63706421852111816406e+00) (175, -1.22875106334686279297e+00) (176, 1.47190761566162109375e+00) (177, -4.51538026332855224609e-01) (178, -1.82207643985748291016e-01) (179, -2.25683096796274185181e-02) (180, -2.25302740931510925293e-01) (181, -2.96382904052734375000e-01) (182, -1.55147659778594970703e+00) (183, -4.00049597024917602539e-01) (184, -8.00277650356292724609e-01) (185, 2.16256722807884216309e-01) (186, -1.54852592945098876953e+00) (187, 7.90403187274932861328e-01) (188, -2.52580571174621582031e+00) (189, 7.96571254730224609375e-01) (190, -3.64658653736114501953e-01) (191, 1.42150747776031494141e+00) (192, -1.51509916782379150391e+00) (193, -2.55441695451736450195e-01) (194, 9.76862788200378417969e-01) (195, -1.23801302909851074219e+00) (196, -7.41812810301780700684e-02) (197, 4.34813022613525390625e-01) (198, -8.63389134407043457031e-01) (199, 6.92748546600341796875e-01) (200, 1.25799965858459472656e+00) (201, 7.96967074275016784668e-02) (202, -1.01060815155506134033e-01) (203, 2.80436491966247558594e+00) (204, 4.70933765172958374023e-01) (205, -2.96757459640502929688e+00) (206, -3.31512898206710815430e-01) (207, 1.83871304988861083984e+00) (208, 2.87940382957458496094e-01) (209, -3.52855235338211059570e-01) (210, 2.13836836814880371094e+00) (211, -2.17628622055053710938e+00) (212, -1.86872303485870361328e+00) (213, -1.74319773912429809570e-01) (214, 5.04201412200927734375e-01) (215, 4.92834949493408203125e+00) (168, -1.55285048484802246094e+00) (169, -1.21555602550506591797e+00) (170, 9.48614478111267089844e-01) (171, 8.70771408081054687500e-01) (172, 2.73983621597290039062e+00) (173, 1.97171568870544433594e-01) (174, -1.41136139631271362305e-01) (175, -8.47178041934967041016e-01) (176, -1.67001426219940185547e-01) (177, 1.92606568336486816406e-01) (178, 2.31110358238220214844e+00) (179, -1.26298141479492187500e+00) (180, 6.47317230701446533203e-01) (181, 4.72566574811935424805e-01) (182, -6.27953827381134033203e-01) (183, -5.34021079540252685547e-01) (184, 4.03328657150268554688e-01) (185, 8.10644216835498809814e-03) (186, -1.02083194255828857422e+00) (187, -1.60517051815986633301e-01) (188, -8.73712420463562011719e-01) (189, 1.26089751720428466797e+00) (190, 1.16297447681427001953e+00) (191, 9.68291223049163818359e-01) (192, -4.54708397388458251953e-01) (193, 1.17253577709197998047e+00) (194, 3.08907270431518554688e-01) (195, 4.68717843294143676758e-01) (196, -8.77442240715026855469e-01) (197, -8.49777877330780029297e-01) (198, 1.05448372662067413330e-01) (199, -2.62145735323429107666e-02) (200, -1.27075338363647460938e+00) (201, -1.63255527615547180176e-01) (202, 1.21234977245330810547e+00) (203, 3.45690906047821044922e-01) (204, 5.59539735317230224609e-01) (205, -7.39838004112243652344e-01) (206, -3.89714241027832031250e-01) (207, 2.36870694160461425781e+00) (208, 3.44312936067581176758e-01) (209, 8.98009717464447021484e-01) (210, 1.40033662319183349609e+00) (211, -1.82314421981573104858e-02) (212, -1.09261536598205566406e+00) (213, -3.60922753810882568359e-01) (214, 1.47183518856763839722e-02) (215, 1.40887618064880371094e+00) (168, -2.21589422225952148438e+00) (169, -2.53752183914184570312e+00) (170, -1.18138301372528076172e+00) (171, -1.18342268466949462891e+00) (172, 2.02768754959106445312e+00) (173, 1.06400161981582641602e-01) (174, -1.03715789318084716797e+00) (175, -9.05049026012420654297e-01) (176, -4.56114150583744049072e-02) (177, -3.15566360950469970703e-01) (178, -3.00502032041549682617e-01) (179, -3.06093543767929077148e-02) (180, 1.00197958946228027344e+00) (181, -8.62938821315765380859e-01) (182, -5.27979910373687744141e-01) (183, -1.68589472770690917969e+00) (184, -7.79840573668479919434e-02) (185, -5.97192525863647460938e-01) (186, -9.82843458652496337891e-01) (187, 5.66716715693473815918e-02) (188, -1.57160198688507080078e+00) (189, -5.32471239566802978516e-01) (190, -6.47628307342529296875e-01) (191, -1.03642217814922332764e-01) (192, -1.57357299327850341797e+00) (193, 1.30783930420875549316e-01) (194, -1.78640508651733398438e+00) (195, 1.36080968379974365234e+00) (196, -1.17096400260925292969e+00) (197, -2.16597294807434082031e+00) (198, 8.14710736274719238281e-01) (199, -1.71837314963340759277e-01) (200, 1.29740917682647705078e+00) (201, 6.71935617923736572266e-01) (202, -1.38373994827270507812e+00) (203, 2.10419550538063049316e-01) (204, 1.08784079551696777344e-01) (205, -6.89004719257354736328e-01) (206, -1.91519543528556823730e-01) (207, 9.11543428897857666016e-01) (208, 2.88839578628540039062e-01) (209, -9.18037474155426025391e-01) (210, 4.81714516878128051758e-01) (211, 4.01047989726066589355e-02) (212, -2.05416274070739746094e+00) (213, -3.40633749961853027344e-01) (214, 2.93765258789062500000e+00) (215, 3.01661586761474609375e+00) (168, -1.80218791961669921875e+00) (169, 6.87852278351783752441e-02) (170, 7.58583396673202514648e-02) (171, 2.21956682205200195312e+00) (172, 9.58927929401397705078e-01) (173, 2.00616762042045593262e-01) (174, 1.95133566856384277344e-01) (175, 1.93101629614830017090e-01) (176, 7.94341325759887695312e-01) (177, -3.70714783668518066406e-01) (178, 1.34231817722320556641e+00) (179, -5.47409474849700927734e-01) (180, 1.92556178569793701172e+00) (181, 2.23832651972770690918e-01) (182, -7.63984799385070800781e-01) (183, -2.13361680507659912109e-01) (184, 1.44629871845245361328e+00) (185, 2.83038616180419921875e+00) (186, -9.47011232376098632812e-01) (187, -8.62390697002410888672e-01) (188, 1.19458854198455810547e+00) (189, 4.76314276456832885742e-01) (190, 8.45397651195526123047e-01) (191, 5.16279458999633789062e-01) (192, -1.94711756706237792969e+00) (193, 8.39706897735595703125e-01) (194, 1.41364538669586181641e+00) (195, -8.84305536746978759766e-01) (196, 7.42981016635894775391e-01) (197, -4.62848842144012451172e-01) (198, -5.85516154766082763672e-01) (199, 3.45553636550903320312e-01) (200, -2.62076765298843383789e-01) (201, 7.21553742885589599609e-01) (202, 7.39889979362487792969e-01) (203, 6.31654083728790283203e-01) (204, 7.36267209053039550781e-01) (205, -3.35148692131042480469e+00) (206, -7.89975225925445556641e-01) (207, 1.76207184791564941406e+00) (208, 4.59522336721420288086e-01) (209, 6.41462504863739013672e-01) (210, 1.63082897663116455078e-01) (211, -5.97236931324005126953e-01) (212, -2.19499444961547851562e+00) (213, -4.89134877920150756836e-01) (214, 6.98986232280731201172e-01) (215, 2.14916372299194335938e+00) (168, -1.67878377437591552734e+00) (169, -4.03618544340133666992e-01) (170, -6.71633481979370117188e-01) (171, 1.40550732612609863281e+00) (172, 1.71418833732604980469e+00) (173, 7.61658906936645507812e-01) (174, -1.61841177940368652344e+00) (175, -6.52621090412139892578e-01) (176, 8.31258118152618408203e-01) (177, 3.00340384244918823242e-01) (178, 6.43070697784423828125e-01) (179, -5.03371715545654296875e-01) (180, 1.33623373508453369141e+00) (181, -8.70507836341857910156e-01) (182, -1.25034999847412109375e+00) (183, -1.11236858367919921875e+00) (184, 3.89915943145751953125e-01) (185, 7.60645389556884765625e-01) (186, -5.45970022678375244141e-01) (187, -5.64100205898284912109e-01) (188, -2.60761237144470214844e+00) (189, -2.72805616259574890137e-02) (190, 2.86992728710174560547e-01) (191, 3.08841109275817871094e-01) (192, -1.39278471469879150391e+00) (193, -5.91193556785583496094e-01) (194, 7.66648054122924804688e-01) (195, -5.45760810375213623047e-01) (196, -8.02848756313323974609e-01) (197, -1.63901877403259277344e+00) (198, 7.08680689334869384766e-01) (199, -1.60111069679260253906e-01) (200, 9.07548725605010986328e-01) (201, 9.13966178894042968750e-01) (202, -1.32242739200592041016e-01) (203, 1.78117859363555908203e+00) (204, 4.62460428476333618164e-01) (205, -3.92029500007629394531e+00) (206, -5.09317457675933837891e-01) (207, 5.12529432773590087891e-01) (208, 4.17202830314636230469e-01) (209, -2.35525190830230712891e-01) (210, 4.27746206521987915039e-01) (211, -2.36097693443298339844e-01) (212, -1.65907680988311767578e+00) (213, -2.18554466962814331055e-01) (214, 4.90242302417755126953e-01) (215, 2.58082771301269531250e+00) (168, -2.07633781433105468750e+00) (169, -4.79600518941879272461e-01) (170, -1.00869393348693847656e+00) (171, 8.53708684444427490234e-02) (172, 1.51749634742736816406e+00) (173, -7.20832869410514831543e-03) (174, -2.12034082412719726562e+00) (175, -1.54406428337097167969e+00) (176, 8.15583288669586181641e-01) (177, -3.17654907703399658203e-01) (178, -1.35199069976806640625e-01) (179, -2.12826073169708251953e-01) (180, 1.57463645935058593750e+00) (181, -1.09394407272338867188e+00) (182, -4.58768248558044433594e-01) (183, -1.03289461135864257812e+00) (184, -6.50180637836456298828e-01) (185, -8.36591660976409912109e-01) (186, 1.67617529630661010742e-01) (187, -9.64787244796752929688e-01) (188, -2.39037728309631347656e+00) (189, -3.44049483537673950195e-02) (190, 1.75888523459434509277e-01) (191, -2.12013080716133117676e-01) (192, -1.61064708232879638672e+00) (193, -5.22566318511962890625e-01) (194, 1.73122122883796691895e-01) (195, 9.36930328607559204102e-02) (196, -2.33064293861389160156e+00) (197, -2.07892417907714843750e+00) (198, 6.86817884445190429688e-01) (199, -7.08470165729522705078e-01) (200, 2.07103729248046875000e+00) (201, 1.08358645439147949219e+00) (202, -1.70364534854888916016e+00) (203, 1.55402767658233642578e+00) (204, 3.74611794948577880859e-01) (205, -2.55194234848022460938e+00) (206, -5.72092533111572265625e-01) (207, 7.47792601585388183594e-01) (208, 6.52357041835784912109e-01) (209, -5.33802747726440429688e-01) (210, -1.82108148932456970215e-01) (211, -3.16150039434432983398e-01) (212, -1.42823481559753417969e+00) (213, -5.00027477741241455078e-01) (214, 1.13885664939880371094e+00) (215, 3.52615737915039062500e+00) (168, 9.99884545803070068359e-01) (169, 2.26130652427673339844e+00) (170, 1.10615622997283935547e+00) (171, 2.89733362197875976562e+00) (172, -2.86436349153518676758e-01) (173, -2.13628792762756347656e+00) (174, -9.88434612751007080078e-01) (175, -8.14346849918365478516e-01) (176, 8.86907279491424560547e-01) (177, 8.07483971118927001953e-01) (178, 1.00544369220733642578e+00) (179, -1.22602748870849609375e+00) (180, -1.04993534088134765625e+00) (181, 9.64821279048919677734e-02) (182, 1.44659650325775146484e+00) (183, -1.69078683853149414062e+00) (184, 2.66704976558685302734e-01) (185, 1.58300232887268066406e+00) (186, 1.74926900863647460938e+00) (187, 7.53363147377967834473e-02) (188, -3.17222952842712402344e+00) (189, 2.14899635314941406250e+00) (190, 1.16718018054962158203e+00) (191, -4.57011945545673370361e-02) (192, -1.09990370273590087891e+00) (193, 6.07773363590240478516e-02) (194, 3.60707879066467285156e-01) (195, -4.35795821249485015869e-02) (196, 2.45308947563171386719e+00) (197, -1.67884528636932373047e+00) (198, -7.38854289054870605469e-01) (199, 1.92857369780540466309e-01) (200, -8.66663694381713867188e-01) (201, 1.18980117142200469971e-01) (202, 1.21696317195892333984e+00) (203, 2.28246474266052246094e+00) (204, -3.44280302524566650391e-01) (205, -2.05821657180786132812e+00) (206, 3.74899625778198242188e-01) (207, -1.20690298080444335938e+00) (208, -2.39693984389305114746e-01) (209, 9.56920906901359558105e-02) (210, -1.50278878211975097656e+00) (211, -1.23036456108093261719e+00) (212, -2.14907377958297729492e-02) (213, 5.63724398612976074219e-01) (214, -2.01824975013732910156e+00) (215, 5.34825944900512695312e+00) (168, 6.94700539112091064453e-01) (169, 2.27051258087158203125e+00) (170, 1.12375986576080322266e+00) (171, 2.95930981636047363281e+00) (172, 2.52754718065261840820e-01) (173, -2.54840803146362304688e+00) (174, -8.04187119007110595703e-01) (175, -9.25018310546875000000e-01) (176, 1.06688702106475830078e+00) (177, 5.13419568538665771484e-01) (178, 5.43046951293945312500e-01) (179, -1.04650282859802246094e+00) (180, -8.25057268142700195312e-01) (181, 2.65451043844223022461e-01) (182, 3.58333349227905273438e-01) (183, -2.08561611175537109375e+00) (184, -2.21306279301643371582e-01) (185, 1.53652048110961914062e+00) (186, 1.49669671058654785156e+00) (187, -2.80497312545776367188e-01) (188, -2.59901666641235351562e+00) (189, 1.95754718780517578125e+00) (190, 1.50783145427703857422e+00) (191, 4.09731417894363403320e-01) (192, -6.48863315582275390625e-01) (193, -2.14616686105728149414e-01) (194, 4.32038635015487670898e-01) (195, 8.32197591662406921387e-02) (196, 1.93761837482452392578e+00) (197, -3.29702019691467285156e+00) (198, -4.72088426351547241211e-01) (199, 7.33132883906364440918e-02) (200, -1.21343886852264404297e+00) (201, 6.29533827304840087891e-01) (202, 1.60298562049865722656e+00) (203, 2.06306958198547363281e+00) (204, -2.83037900924682617188e-01) (205, -2.24014282226562500000e+00) (206, 4.30778503417968750000e-01) (207, -1.77621710300445556641e+00) (208, -3.07458966970443725586e-01) (209, 2.22212687134742736816e-01) (210, -1.48961985111236572266e+00) (211, -9.97529506683349609375e-01) (212, 1.33623823523521423340e-01) (213, 6.69241964817047119141e-01) (214, -1.40663444995880126953e+00) (215, 3.72104334831237792969e+00) (168, 6.57347142696380615234e-01) (169, 2.30559611320495605469e+00) (170, 1.12474703788757324219e+00) (171, 3.56449961662292480469e+00) (172, -1.74014762043952941895e-01) (173, -2.40764188766479492188e+00) (174, -9.55188930034637451172e-01) (175, -1.51311123371124267578e+00) (176, 6.89433932304382324219e-01) (177, 5.51133096218109130859e-01) (178, 1.22515253722667694092e-01) (179, 6.41144365072250366211e-02) (180, -7.68387794494628906250e-01) (181, 4.04840022325515747070e-01) (182, -1.26407551765441894531e+00) (183, -3.60915637016296386719e+00) (184, -3.89622718095779418945e-01) (185, 2.06589007377624511719e+00) (186, 1.15962219238281250000e+00) (187, -2.12597951292991638184e-01) (188, -3.35833144187927246094e+00) (189, 4.16218727827072143555e-01) (190, 1.01862144470214843750e+00) (191, 3.29235970973968505859e-01) (192, -1.61949360370635986328e+00) (193, 9.48218032717704772949e-02) (194, -2.99773693084716796875e-01) (195, -1.06484448909759521484e+00) (196, -2.93290138244628906250e-01) (197, -4.26549816131591796875e+00) (198, -2.57596313953399658203e-01) (199, 2.71025657653808593750e-01) (200, -1.05873095989227294922e+00) (201, 1.57159090042114257812e+00) (202, 1.09371066093444824219e+00) (203, 1.55179286003112792969e+00) (204, 7.19174206256866455078e-01) (205, -2.74378108978271484375e+00) (206, -7.01062142848968505859e-01) (207, -2.14352369308471679688e+00) (208, 1.00803756713867187500e+00) (209, 3.34959834814071655273e-01) (210, -1.63852798938751220703e+00) (211, -7.47065126895904541016e-01) (212, 3.09254765510559082031e-01) (213, -7.17135727405548095703e-01) (214, -6.25527203083038330078e-01) (215, -2.67435908317565917969e+00) 
